{
  "version": "1.0",
  "truncation": null,
  "padding": null,
  "added_tokens": [
    {
      "id": 0,
      "content": "[UNK]",
      "single_word": false,
      "lstrip": false,
      "rstrip": false,
      "normalized": false,
      "special": true
    },
    {
      "id": 1,
      "content": "[PAD]",
      "single_word": false,
      "lstrip": false,
      "rstrip": false,
      "normalized": false,
      "special": true
    },
    {
      "id": 2,
      "content": "[CLS]",
      "single_word": false,
      "lstrip": false,
      "rstrip": false,
      "normalized": false,
      "special": true
    },
    {
      "id": 3,
      "content": "[SEP]",
      "single_word": false,
      "lstrip": false,
      "rstrip": false,
      "normalized": false,
      "special": true
    },
    {
      "id": 4,
      "content": "[MASK]",
      "single_word": false,
      "lstrip": false,
      "rstrip": false,
      "normalized": false,
      "special": true
    }
  ],
  "normalizer": {
    "type": "BertNormalizer",
    "clean_text": true,
    "handle_chinese_chars": true,
    "strip_accents": null,
    "lowercase": false
  },
  "pre_tokenizer": {
    "type": "BertPreTokenizer"
  },
  "post_processor": {
    "type": "TemplateProcessing",
    "single": [
      {
        "SpecialToken": {
          "id": "[CLS]",
          "type_id": 0
        }
      },
      {
        "Sequence": {
          "id": "A",
          "type_id": 0
        }
      },
      {
        "SpecialToken": {
          "id": "[SEP]",
          "type_id": 0
        }
      }
    ],
    "pair": [
      {
        "SpecialToken": {
          "id": "[CLS]",
          "type_id": 0
        }
      },
      {
        "Sequence": {
          "id": "A",
          "type_id": 0
        }
      },
      {
        "SpecialToken": {
          "id": "[SEP]",
          "type_id": 0
        }
      },
      {
        "Sequence": {
          "id": "B",
          "type_id": 1
        }
      },
      {
        "SpecialToken": {
          "id": "[SEP]",
          "type_id": 1
        }
      }
    ],
    "special_tokens": {
      "[CLS]": {
        "id": "[CLS]",
        "ids": [
          2
        ],
        "tokens": [
          "[CLS]"
        ]
      },
      "[SEP]": {
        "id": "[SEP]",
        "ids": [
          1
        ],
        "tokens": [
          "[SEP]"
        ]
      }
    }
  },
  "decoder": {
    "type": "WordPiece",
    "prefix": "##",
    "cleanup": true
  },
  "model": {
    "type": "WordPiece",
    "unk_token": "[UNK]",
    "continuing_subword_prefix": "##",
    "max_input_chars_per_word": 4,
    "vocab": {
      "[PAD]": 0,
      "[SEP]": 1,
      "[CLS]": 2,
      "[UNK]": 3,
      "[MASK]": 4,
      "0": 5,
      "1": 6,
      "2": 7,
      "3": 8,
      "4": 9,
      "5": 10,
      "6": 11,
      "7": 12,
      "8": 13,
      "9": 14,
      "a": 15,
      "b": 16,
      "c": 17,
      "d": 18,
      "e": 19,
      "f": 20,
      "##9": 21,
      "##5": 22,
      "##d": 23,
      "##2": 24,
      "##3": 25,
      "##f": 26,
      "##0": 27,
      "##a": 28,
      "##b": 29,
      "##4": 30,
      "##7": 31,
      "##6": 32,
      "##c": 33,
      "##1": 34,
      "##e": 35,
      "##8": 36,
      "##00": 37,
      "000": 38,
      "0000": 39,
      "##01": 40,
      "01": 41,
      "##03": 42,
      "##80": 43,
      "##bb": 44,
      "##50": 45,
      "##36": 46,
      "##74": 47,
      "##02": 48,
      "##f6": 49,
      "##08": 50,
      "##46": 51,
      "##72": 52,
      "##56": 53,
      "##73": 54,
      "##96": 55,
      "##76": 56,
      "##e6": 57,
      "##d6": 58,
      "##06": 59,
      "##31": 60,
      "##a2": 61,
      "##04": 62,
      "##c6": 63,
      "##32": 64,
      "##52": 65,
      "##ff": 66,
      "##b2": 67,
      "##a6": 68,
      "##86": 69,
      "##d2": 70,
      "##92": 71,
      "##51": 72,
      "##c1": 73,
      "##c2": 74,
      "##e2": 75,
      "##82": 76,
      "##54": 77,
      "##a1": 78,
      "##71": 79,
      "##53": 80,
      "##e1": 81,
      "##a4": 82,
      "##d1": 83,
      "##91": 84,
      "##f2": 85,
      "##81": 86,
      "##94": 87,
      "##f1": 88,
      "##b1": 89,
      "##d4": 90,
      "##b6": 91,
      "##e4": 92,
      "##c4": 93,
      "##f4": 94,
      "##b4": 95,
      "##e3": 96,
      "##84": 97,
      "##a3": 98,
      "##c3": 99,
      "##93": 100,
      "##d3": 101,
      "##f3": 102,
      "##83": 103,
      "##77": 104,
      "##9d": 105,
      "##55": 106,
      "##b3": 107,
      "##c0": 108,
      "##ef": 109,
      "##e7": 110,
      "##aa": 111,
      "##eb": 112,
      "##cd": 113,
      "##ed": 114,
      "##97": 115,
      "##cf": 116,
      "##57": 117,
      "##af": 118,
      "##c7": 119,
      "##98": 120,
      "##ad": 121,
      "##9f": 122,
      "##bd": 123,
      "##e0": 124,
      "##5d": 125,
      "##e8": 126,
      "##c8": 127,
      "##a0": 128,
      "##5f": 129,
      "##90": 130,
      "##a8": 131,
      "##a7": 132,
      "##58": 133,
      "##cb": 134,
      "##9b": 135,
      "03": 136,
      "##ab": 137,
      "##5b": 138,
      "##26": 139,
      "##16": 140,
      "##0d": 141,
      "04": 142,
      "##fd": 143,
      "##7d": 144,
      "##e9": 145,
      "##cc": 146,
      "##8d": 147,
      "##34": 148,
      "##f7": 149,
      "##59": 150,
      "##ee": 151,
      "06": 152,
      "##22": 153,
      "##a9": 154,
      "00": 155,
      "##c9": 156,
      "##87": 157,
      "##fb": 158,
      "##8b": 159,
      "31": 160,
      "##44": 161,
      "##21": 162,
      "##07": 163,
      "##5a": 164,
      "36": 165,
      "##33": 166,
      "##ec": 167,
      "##0b": 168,
      "##5c": 169,
      "##ea": 170,
      "16": 171,
      "46": 172,
      "##24": 173,
      "26": 174,
      "66": 175,
      "61": 176,
      "74": 177,
      "f6": 178,
      "86": 179,
      "##99": 180,
      "76": 181,
      "##f8": 182,
      "##dd": 183,
      "56": 184,
      "d6": 185,
      "96": 186,
      "e6": 187,
      "c1": 188,
      "c6": 189,
      "02": 190,
      "a6": 191,
      "##f0": 192,
      "41": 193,
      "##ac": 194,
      "##b7": 195,
      "b6": 196,
      "##88": 197,
      "##e5": 198,
      "81": 199,
      "11": 200,
      "##41": 201,
      "f1": 202,
      "e1": 203,
      "71": 204,
      "a1": 205,
      "21": 206,
      "b1": 207,
      "51": 208,
      "91": 209,
      "d1": 210,
      "##23": 211,
      "##d7": 212,
      "64": 213,
      "14": 214,
      "##9c": 215,
      "54": 216,
      "34": 217,
      "##a5": 218,
      "bb": 219,
      "94": 220,
      "44": 221,
      "b4": 222,
      "24": 223,
      "##fc": 224,
      "84": 225,
      "e4": 226,
      "f4": 227,
      "a4": 228,
      "d4": 229,
      "c4": 230,
      "##ae": 231,
      "##f9": 232,
      "##7b": 233,
      "73": 234,
      "##5e": 235,
      "32": 236,
      "##db": 237,
      "##d0": 238,
      "72": 239,
      "13": 240,
      "c3": 241,
      "82": 242,
      "63": 243,
      "##70": 244,
      "12": 245,
      "53": 246,
      "17": 247,
      "42": 248,
      "b2": 249,
      "33": 250,
      "a2": 251,
      "0001": 252,
      "52": 253,
      "23": 254,
      "22": 255,
      "62": 256,
      "c2": 257,
      "43": 258,
      "e3": 259,
      "92": 260,
      "f2": 261,
      "83": 262,
      "e2": 263,
      "93": 264,
      "a3": 265,
      "d2": 266,
      "d3": 267,
      "0a": 268,
      "f3": 269,
      "b3": 270,
      "##d8": 271,
      "##b0": 272,
      "50": 273,
      "##78": 274,
      "100": 275,
      "##b8": 276,
      "##fe": 277,
      "##010": 278,
      "##fa": 279,
      "##f5": 280,
      "##ca": 281,
      "##9a": 282,
      "##c5": 283,
      "##9e": 284,
      "##95": 285,
      "##ce": 286,
      "9d": 287,
      "6d": 288,
      "0d": 289,
      "18": 290,
      "fd": 291,
      "2d": 292,
      "07": 293,
      "3d": 294,
      "e7": 295,
      "1d": 296,
      "68": 297,
      "cd": 298,
      "eb": 299,
      "0b": 300,
      "bd": 301,
      "f7": 302,
      "27": 303,
      "97": 304,
      "4d": 305,
      "ad": 306,
      "dd": 307,
      "7d": 308,
      "2b": 309,
      "37": 310,
      "ed": 311,
      "8d": 312,
      "d8": 313,
      "67": 314,
      "77": 315,
      "57": 316,
      "c7": 317,
      "5d": 318,
      "87": 319,
      "48": 320,
      "47": 321,
      "d7": 322,
      "2f": 323,
      "38": 324,
      "28": 325,
      "a7": 326,
      "88": 327,
      "08": 328,
      "b7": 329,
      "3b": 330,
      "98": 331,
      "78": 332,
      "db": 333,
      "6b": 334,
      "7b": 335,
      "a8": 336,
      "4b": 337,
      "ff": 338,
      "1b": 339,
      "b8": 340,
      "6f": 341,
      "fb": 342,
      "65": 343,
      "ef": 344,
      "20": 345,
      "8b": 346,
      "ab": 347,
      "f8": 348,
      "58": 349,
      "5b": 350,
      "cb": 351,
      "e8": 352,
      "9b": 353,
      "c8": 354,
      "af": 355,
      "69": 356,
      "05": 357,
      "0c": 358,
      "0101": 359,
      "10": 360,
      "d0": 361,
      "0f": 362,
      "cf": 363,
      "30": 364,
      "df": 365,
      "2e": 366,
      "080": 367,
      "70": 368,
      "2c": 369,
      "1f": 370,
      "09": 371,
      "6e": 372,
      "e9": 373,
      "a0": 374,
      "7f": 375,
      "4f": 376,
      "39": 377,
      "e0": 378,
      "c0": 379,
      "5f": 380,
      "3f": 381,
      "fc": 382,
      "9f": 383,
      "8f": 384,
      "bf": 385,
      "80": 386,
      "40": 387,
      "1c": 388,
      "6c": 389,
      "59": 390,
      "90": 391,
      "f0": 392,
      "a9": 393,
      "01bb": 394,
      "cc": 395,
      "49": 396,
      "b0": 397,
      "60": 398,
      "89": 399,
      "79": 400,
      "f9": 401,
      "19": 402,
      "29": 403,
      "99": 404,
      "ac": 405,
      "c9": 406,
      "bc": 407,
      "d9": 408,
      "9c": 409,
      "35": 410,
      "3c": 411,
      "dc": 412,
      "ec": 413,
      "b9": 414,
      "4c": 415,
      "5c": 416,
      "7c": 417,
      "8c": 418,
      "fe": 419,
      "0e": 420,
      "##05": 421,
      "4e": 422,
      "aa": 423,
      "2a": 424,
      "3a": 425,
      "75": 426,
      "3e": 427,
      "ee": 428,
      "080a": 429,
      "55": 430,
      "1e": 431,
      "ae": 432,
      "1a": 433,
      "de": 434,
      "7e": 435,
      "8e": 436,
      "0108": 437,
      "5e": 438,
      "be": 439,
      "9e": 440,
      "ce": 441,
      "45": 442,
      "4a": 443,
      "7a": 444,
      "ca": 445,
      "fa": 446,
      "da": 447,
      "ea": 448,
      "5a": 449,
      "9a": 450,
      "6a": 451,
      "8a": 452,
      "d5": 453,
      "ba": 454,
      "25": 455,
      "15": 456,
      "b5": 457,
      "85": 458,
      "f5": 459,
      "a5": 460,
      "95": 461,
      "0100": 462,
      "c5": 463,
      "e5": 464,
      "##75": 465,
      "##79": 466,
      "##09": 467,
      "##0a": 468,
      "##0f": 469,
      "##7a": 470,
      "##0c": 471,
      "##85": 472,
      "##8f": 473,
      "##89": 474,
      "##8e": 475,
      "##8c": 476,
      "##7c": 477,
      "##7f": 478,
      "##be": 479,
      "##8a": 480,
      "##d5": 481,
      "##0e": 482,
      "##b5": 483,
      "8010": 484,
      "##bf": 485,
      "##d9": 486,
      "##7e": 487,
      "##bc": 488,
      "##b9": 489,
      "##ba": 490,
      "##da": 491,
      "##df": 492,
      "##dc": 493,
      "##de": 494,
      "##000": 495,
      "##30": 496,
      "001": 497,
      "6f6": 498,
      "0050": 499,
      "##2e": 500,
      "##20": 501,
      "003": 502,
      "636": 503,
      "##3a": 504,
      "##37": 505,
      "##38": 506,
      "696": 507,
      "##2d": 508,
      "303": 509,
      "##39": 510,
      "##35": 511,
      "002": 512,
      "##3d": 513,
      "##3b": 514,
      "0303": 515,
      "##2c": 516,
      "##2f": 517,
      "##3f": 518,
      "##27": 519,
      "##3e": 520,
      "##3c": 521,
      "##25": 522,
      "746": 523,
      "##29": 524,
      "##28": 525,
      "##018": 526,
      "##2b": 527,
      "##2a": 528,
      "656": 529,
      "616": 530,
      "bb2": 531,
      "##17": 532,
      "726": 533,
      "1703": 534,
      "##43": 535,
      "1004": 536,
      "6e6": 537,
      "2e6": 538,
      "646": 539,
      "##13": 540,
      "1000": 541,
      "004": 542,
      "##10": 543,
      "676": 544,
      "##48": 545,
      "##40": 546,
      "3a2": 547,
      "6c6": 548,
      "##d0a": 549,
      "##45": 550,
      "##14": 551,
      "204": 552,
      "300": 553,
      "##18": 554,
      "##47": 555,
      "5010": 556,
      "##42": 557,
      "##1a": 558,
      "##15": 559,
      "##1b": 560,
      "##1f": 561,
      "##12": 562,
      "##19": 563,
      "##1c": 564,
      "##49": 565,
      "##4f": 566,
      "##4e": 567,
      "##4d": 568,
      "736": 569,
      "6d6": 570,
      "##11": 571,
      "##4a": 572,
      "##4c": 573,
      "##4b": 574,
      "##1d": 575,
      "##020": 576,
      "##1e": 577,
      "0a4": 578,
      "##001": 579,
      "101": 580,
      "006": 581,
      "050": 582,
      "203": 583,
      "036": 584,
      "##0d0": 585,
      "2d6": 586,
      "0a01": 587,
      "756": 588,
      "0300": 589,
      "706": 590,
      "436": 591,
      "206": 592,
      "##504": 593,
      "0010": 594,
      "323": 595,
      "301": 596,
      "302": 597,
      "c00": 598,
      "180": 599,
      "666": 600,
      "434": 601,
      "0301": 602,
      "686": 603,
      "049d": 604,
      "bbb": 605,
      "008": 606,
      "353": 607,
      "##51d": 608,
      "652": 609,
      "##313": 610,
      "##bdf": 611,
      "766": 612,
      "308": 613,
      "c1ef": 614,
      "6e2": 615,
      "732": 616,
      "0a2": 617,
      "626": 618,
      "2f6": 619,
      "c02": 620,
      "##746": 621,
      "##777": 622,
      "0a1": 623,
      "0a00": 624,
      "373": 625,
      "703": 626,
      "016": 627,
      "0d0a": 628,
      "2f2": 629,
      "8018": 630,
      "##e30": 631,
      "##7d5": 632,
      "082": 633,
      "##a30": 634,
      "##830": 635,
      "4f4": 636,
      "bb1": 637,
      "##c20": 638,
      "333": 639,
      "636f": 640,
      "##b41": 641,
      "0603": 642,
      "536": 643,
      "##726": 644,
      "2d4": 645,
      "6d2": 646,
      "0a6": 647,
      "0355": 648,
      "632": 649,
      "##fff": 650,
      "##b30": 651,
      "322": 652,
      "076": 653,
      "##930": 654,
      "416": 655,
      "202": 656,
      "6b6": 657,
      "336": 658,
      "304": 659,
      "7a6": 660,
      "026": 661,
      "##d30": 662,
      "##72e": 663,
      "##570": 664,
      "e08": 665,
      "066": 666,
      "##730": 667,
      "##a0b": 668,
      "##92a": 669,
      "2d2": 670,
      "##030": 671,
      "##e3a": 672,
      "446": 673,
      "653": 674,
      "352": 675,
      "776": 676,
      "534": 677,
      "976": 678,
      "021": 679,
      "306": 680,
      "##f33": 681,
      "702": 682,
      "474": 683,
      "056": 684,
      "##312": 685,
      "eb1": 686,
      "##970": 687,
      "c01": 688,
      "1d2": 689,
      "2a2": 690,
      "##310": 691,
      "502": 692,
      "046": 693,
      "382": 694,
      "##e17": 695,
      "bb6": 696,
      "##c30": 697,
      "796": 698,
      "##92e": 699,
      "##f75": 700,
      "6f6d": 701,
      "##f30": 702,
      "782": 703,
      "332": 704,
      "6f2": 705,
      "##578": 706,
      "786": 707,
      "1d1": 708,
      "c3af": 709,
      "##920": 710,
      "821": 711,
      "##a0d": 712,
      "476": 713,
      "456": 714,
      "086": 715,
      "4c6": 716,
      "3a6": 717,
      "032": 718,
      "266": 719,
      "7d6": 720,
      "4d6": 721,
      "##8b8": 722,
      "801": 723,
      "##737": 724,
      "##5ae": 725,
      "##070": 726,
      "6c2": 727,
      "##720": 728,
      "##0b5": 729,
      "##717": 730,
      "802": 731,
      "1003": 732,
      "##e78": 733,
      "316": 734,
      "722": 735,
      "454": 736,
      "##937": 737,
      "a00": 738,
      "##f3f": 739,
      "022": 740,
      "106": 741,
      "##075": 742,
      "496": 743,
      "##732": 744,
      "##c3a": 745,
      "3b2": 746,
      "##0df": 747,
      "##b05": 748,
      "096": 749,
      "181": 750,
      "##595": 751,
      "3a20": 752,
      "##a0f": 753,
      "5f6": 754,
      "##727": 755,
      "366": 756,
      "##517": 757,
      "346": 758,
      "0004": 759,
      "##ffe": 760,
      "##a75": 761,
      "##f70": 762,
      "##555": 763,
      "9d6": 764,
      "##f78": 765,
      "444": 766,
      "##0de": 767,
      "##317": 768,
      "0c6": 769,
      "##943": 770,
      "##f7e": 771,
      "374": 772,
      "##c0a": 773,
      "2c6": 774,
      "532": 775,
      "9d2": 776,
      "484": 777,
      "526": 778,
      "574": 779,
      "##83a": 780,
      "##bde": 781,
      "ef1": 782,
      "##d0f": 783,
      "504": 784,
      "##ffc": 785,
      "f36": 786,
      "##575": 787,
      "9a6": 788,
      "104": 789,
      "200": 790,
      "052": 791,
      "##917": 792,
      "576": 793,
      "232": 794,
      "##775": 795,
      "##f35": 796,
      "##a35": 797,
      "102": 798,
      "506": 799,
      "466": 800,
      "##d38": 801,
      "##50d": 802,
      "##cd9": 803,
      "##a85": 804,
      "##d0e": 805,
      "##e70": 806,
      "326": 807,
      "0b1": 808,
      "546": 809,
      "286": 810,
      "##e42": 811,
      "##241": 812,
      "ef6": 813,
      "##c17": 814,
      "2bb": 815,
      "##d70": 816,
      "##d75": 817,
      "##aa0": 818,
      "##875": 819,
      "132": 820,
      "##e7d": 821,
      "544": 822,
      "356": 823,
      "##558": 824,
      "##fbc": 825,
      "##a17": 826,
      "##889": 827,
      "##ff0": 828,
      "##a07": 829,
      "##0dc": 830,
      "##24f": 831,
      "a02": 832,
      "##f7f": 833,
      "5b2": 834,
      "##c4f": 835,
      "932": 836,
      "##945": 837,
      "##aa7": 838,
      "##e35": 839,
      "##e41": 840,
      "##88e": 841,
      "9d1": 842,
      "282": 843,
      "##838": 844,
      "##a9a": 845,
      "##316": 846,
      "##51a": 847,
      "1b1": 848,
      "##914": 849,
      "452": 850,
      "##723": 851,
      "##c0d": 852,
      "##a38": 853,
      "8a2": 854,
      "##f7a": 855,
      "##a3a": 856,
      "af6": 857,
      "##72d": 858,
      "566": 859,
      "486": 860,
      "##bda": 861,
      "3d6": 862,
      "081": 863,
      "##0d7": 864,
      "ef2": 865,
      "##c79": 866,
      "##94f": 867,
      "##530": 868,
      "0b6": 869,
      "376": 870,
      "##90a": 871,
      "##aba": 872,
      "##330": 873,
      "##bdb": 874,
      "##edd": 875,
      "##fde": 876,
      "##a0c": 877,
      "##713": 878,
      "981": 879,
      "386": 880,
      "##a3f": 881,
      "682": 882,
      "##92f": 883,
      "##fda": 884,
      "0f6": 885,
      "4d4": 886,
      "##af0": 887,
      "##243": 888,
      "##aca": 889,
      "6a6": 890,
      "##a34": 891,
      "##557": 892,
      "146": 893,
      "6572": 894,
      "3d2": 895,
      "##0db": 896,
      "a32": 897,
      "dd1": 898,
      "##870": 899,
      "##ada": 900,
      "##975": 901,
      "##58c": 902,
      "##92c": 903,
      "406": 904,
      "##58d": 905,
      "##a0a": 906,
      "##0d8": 907,
      "##ac5": 908,
      "126": 909,
      "8c6": 910,
      "3f6": 911,
      "276": 912,
      "##c45": 913,
      "##f3c": 914,
      "##230": 915,
      "##716": 916,
      "##944": 917,
      "##714": 918,
      "##c95": 919,
      "##f37": 920,
      "##31f": 921,
      "##c8d": 922,
      "##516": 923,
      "##506": 924,
      "##833": 925,
      "##afc": 926,
      "bf1": 927,
      "##9d7": 928,
      "##e8b": 929,
      "ff2": 930,
      "##d8c": 931,
      "##e75": 932,
      "##711": 933,
      "f16": 934,
      "396": 935,
      "##fbf": 936,
      "##d7f": 937,
      "2b1": 938,
      "c03": 939,
      "##d33": 940,
      "c04": 941,
      "##5db": 942,
      "8e2": 943,
      "##59a": 944,
      "##245": 945,
      "##f0f": 946,
      "##a33": 947,
      "e06": 948,
      "##c44": 949,
      "816": 950,
      "##0d5": 951,
      "##87e": 952,
      "622": 953,
      "##0dd": 954,
      "##efe": 955,
      "##bd7": 956,
      "186": 957,
      "##fdc": 958,
      "##e39": 959,
      "##93a": 960,
      "503": 961,
      "##0da": 962,
      "##31c": 963,
      "##d35": 964,
      "##579": 965,
      "##bd9": 966,
      "##314": 967,
      "##a8a": 968,
      "744": 969,
      "##ffd": 970,
      "##b3c": 971,
      "7e2": 972,
      "##d39": 973,
      "##bdd": 974,
      "##91f": 975,
      "##933": 976,
      "##fbe": 977,
      "3bb": 978,
      "##8de": 979,
      "##c0c": 980,
      "##97a": 981,
      "##87a": 982,
      "##927": 983,
      "0d2": 984,
      "##a37": 985,
      "182": 986,
      "##a87": 987,
      "##7bf": 988,
      "0d6": 989,
      "##ad9": 990,
      "##f39": 991,
      "##ed8": 992,
      "586": 993,
      "##af5": 994,
      "281": 995,
      "ea6": 996,
      "ae2": 997,
      "##ffb": 998,
      "##c05": 999,
      "##cd0": 1000,
      "##fdf": 1001,
      "##e05": 1002,
      "e32": 1003,
      "2f1": 1004,
      "##d78": 1005,
      "af2": 1006,
      "##ff8": 1007,
      "##f8f": 1008,
      "4f2": 1009,
      "##c33": 1010,
      "116": 1011,
      "##722": 1012,
      "##ddd": 1013,
      "##abc": 1014,
      "##af9": 1015,
      "4e6": 1016,
      "##c7f": 1017,
      "##d89": 1018,
      "0f2": 1019,
      "136": 1020,
      "bb4": 1021,
      "##247": 1022,
      "##705": 1023,
      "##ffa": 1024,
      "##333": 1025,
      "##aaa": 1026,
      "##c48": 1027,
      "##835": 1028,
      "##55f": 1029,
      "##e3d": 1030,
      "cbb": 1031,
      "##24e": 1032,
      "##92d": 1033,
      "##ad8": 1034,
      "6b2": 1035,
      "##72f": 1036,
      "##837": 1037,
      "##f0c": 1038,
      "##93d": 1039,
      "##ff7": 1040,
      "##e0f": 1041,
      "##e79": 1042,
      "832": 1043,
      "##f3e": 1044,
      "##c09": 1045,
      "##8bf": 1046,
      "384": 1047,
      "##af7": 1048,
      "##907": 1049,
      "##c07": 1050,
      "##f8a": 1051,
      "##bd8": 1052,
      "##e3b": 1053,
      "5f2": 1054,
      "0f1": 1055,
      "ac6": 1056,
      "##71f": 1057,
      "236": 1058,
      "836": 1059,
      "##b7f": 1060,
      "##dd9": 1061,
      "##c37": 1062,
      "##90d": 1063,
      "##99a": 1064,
      "##d34": 1065,
      "##91b": 1066,
      "##978": 1067,
      "ec6": 1068,
      "752": 1069,
      "##240": 1070,
      "##bd0": 1071,
      "##e38": 1072,
      "##c47": 1073,
      "##b37": 1074,
      "3b6": 1075,
      "##311": 1076,
      "##eb5": 1077,
      "##ddc": 1078,
      "df1": 1079,
      "##90f": 1080,
      "6f6e": 1081,
      "##a09": 1082,
      "##afb": 1083,
      "##e10": 1084,
      "##9f9": 1085,
      "##c1e": 1086,
      "##83e": 1087,
      "##d8e": 1088,
      "##c7b": 1089,
      "##a7b": 1090,
      "##eee": 1091,
      "3030": 1092,
      "##559": 1093,
      "##c75": 1094,
      "##249": 1095,
      "##925": 1096,
      "##77f": 1097,
      "##ff2": 1098,
      "##a70": 1099,
      "##efc": 1100,
      "##87c": 1101,
      "fe2": 1102,
      "e46": 1103,
      "##dd7": 1104,
      "##ff9": 1105,
      "##f7c": 1106,
      "##5df": 1107,
      "##e1f": 1108,
      "f76": 1109,
      "##5ca": 1110,
      "2e2": 1111,
      "2b2": 1112,
      "##935": 1113,
      "216": 1114,
      "1b6": 1115,
      "##24a": 1116,
      "fc6": 1117,
      "b32": 1118,
      "##834": 1119,
      "226": 1120,
      "##bd5": 1121,
      "##ff4": 1122,
      "##d8a": 1123,
      "8b2": 1124,
      "##ccc": 1125,
      "##97e": 1126,
      "##c26": 1127,
      "1b2": 1128,
      "##ebd": 1129,
      "##abf": 1130,
      "a86": 1131,
      "d56": 1132,
      "582": 1133,
      "##770": 1134,
      "##e4f": 1135,
      "##b70": 1136,
      "1e2": 1137,
      "##cdf": 1138,
      "ff1": 1139,
      "##a7f": 1140,
      "##fd7": 1141,
      "##f34": 1142,
      "##839": 1143,
      "##7de": 1144,
      "##d7b": 1145,
      "##e7a": 1146,
      "##585": 1147,
      "##70f": 1148,
      "##93e": 1149,
      "##d3b": 1150,
      "a46": 1151,
      "##5f7": 1152,
      "1f2": 1153,
      "##88c": 1154,
      "##73a": 1155,
      "cd6": 1156,
      "##bdc": 1157,
      "##ff1": 1158,
      "##909": 1159,
      "##e3c": 1160,
      "##ef5": 1161,
      "##fb8": 1162,
      "##938": 1163,
      "432": 1164,
      "##ff5": 1165,
      "##24b": 1166,
      "##efd": 1167,
      "##d0c": 1168,
      "##87f": 1169,
      "##c8a": 1170,
      "208": 1171,
      "##7df": 1172,
      "fbb": 1173,
      "6a2": 1174,
      "df2": 1175,
      "##71e": 1176,
      "##979": 1177,
      "##0d9": 1178,
      "##e1a": 1179,
      "876": 1180,
      "8b1": 1181,
      "296": 1182,
      "852": 1183,
      "856": 1184,
      "246": 1185,
      "##8d0": 1186,
      "3f1": 1187,
      "##57a": 1188,
      "##b78": 1189,
      "482": 1190,
      "806": 1191,
      "e96": 1192,
      "##f9a": 1193,
      "896": 1194,
      "##5bf": 1195,
      "##cb7": 1196,
      "##f7b": 1197,
      "252": 1198,
      "##b3e": 1199,
      "##ddf": 1200,
      "##5bc": 1201,
      "##e33": 1202,
      "##e0a": 1203,
      "0e6": 1204,
      "fe6": 1205,
      "##248": 1206,
      "##83f": 1207,
      "##ef9": 1208,
      "##e1d": 1209,
      "##c7e": 1210,
      "##97b": 1211,
      "##ff3": 1212,
      "c06": 1213,
      "##51f": 1214,
      "##e44": 1215,
      "a56": 1216,
      "##ee5": 1217,
      "##d37": 1218,
      "##5dd": 1219,
      "##f3d": 1220,
      "##d3e": 1221,
      "4d2": 1222,
      "cf1": 1223,
      "##72c": 1224,
      "##a8b": 1225,
      "cd1": 1226,
      "426": 1227,
      "df6": 1228,
      "##f9e": 1229,
      "c76": 1230,
      "##adf": 1231,
      "##995": 1232,
      "##e95": 1233,
      "##a05": 1234,
      "##514": 1235,
      "##e3f": 1236,
      "##c0e": 1237,
      "##cfb": 1238,
      "166": 1239,
      "##ef0": 1240,
      "##9fb": 1241,
      "##d05": 1242,
      "##515": 1243,
      "##cd8": 1244,
      "##318": 1245,
      "##94e": 1246,
      "##5fe": 1247,
      "##934": 1248,
      "##a3b": 1249,
      "634": 1250,
      "a06": 1251,
      "##55c": 1252,
      "##242": 1253,
      "5f1": 1254,
      "##b75": 1255,
      "##e48": 1256,
      "3e2": 1257,
      "##919": 1258,
      "##d7a": 1259,
      "##d7e": 1260,
      "##ddb": 1261,
      "866": 1262,
      "cf6": 1263,
      "##adc": 1264,
      "fb2": 1265,
      "354": 1266,
      "##d3d": 1267,
      "##5b0": 1268,
      "e81": 1269,
      "##db5": 1270,
      "##9fd": 1271,
      "##b7b": 1272,
      "##afa": 1273,
      "##939": 1274,
      "##e7f": 1275,
      "d52": 1276,
      "##5dc": 1277,
      "##7db": 1278,
      "##f95": 1279,
      "054": 1280,
      "##5fa": 1281,
      "##fd8": 1282,
      "381": 1283,
      "##879": 1284,
      "##efb": 1285,
      "##c14": 1286,
      "##aa9": 1287,
      "556": 1288,
      "##f85": 1289,
      "##e3e": 1290,
      "##a78": 1291,
      "af1": 1292,
      "4f6": 1293,
      "##db8": 1294,
      "0d1": 1295,
      "##a7e": 1296,
      "##9c5": 1297,
      "##db9": 1298,
      "##5de": 1299,
      "e66": 1300,
      "##a3c": 1301,
      "1bb": 1302,
      "##910": 1303,
      "##9fc": 1304,
      "##77a": 1305,
      "ee6": 1306,
      "##aa8": 1307,
      "7b1": 1308,
      "##97f": 1309,
      "e74": 1310,
      "a81": 1311,
      "##eea": 1312,
      "##51b": 1313,
      "##edc": 1314,
      "##91a": 1315,
      "##878": 1316,
      "8d2": 1317,
      "dbb": 1318,
      "f66": 1319,
      "##dbf": 1320,
      "##e7c": 1321,
      "284": 1322,
      "##ece": 1323,
      "##b39": 1324,
      "##5f8": 1325,
      "##dbe": 1326,
      "334": 1327,
      "##5a5": 1328,
      "##d79": 1329,
      "##8df": 1330,
      "##a7d": 1331,
      "##55d": 1332,
      "##c70": 1333,
      "##512": 1334,
      "##f79": 1335,
      "4b6": 1336,
      "0e2": 1337,
      "##98c": 1338,
      "e76": 1339,
      "4f1": 1340,
      "##83d": 1341,
      "dc6": 1342,
      "##c34": 1343,
      "##ad5": 1344,
      "##502": 1345,
      "936": 1346,
      "##fba": 1347,
      "##edf": 1348,
      "##71c": 1349,
      "##942": 1350,
      "##a9c": 1351,
      "d06": 1352,
      "9d4": 1353,
      "846": 1354,
      "##b3b": 1355,
      "##ab5": 1356,
      "##e7b": 1357,
      "##929": 1358,
      "##7dd": 1359,
      "##31e": 1360,
      "##a3d": 1361,
      "##f0e": 1362,
      "##dd0": 1363,
      "##fb5": 1364,
      "##24d": 1365,
      "##b3f": 1366,
      "d16": 1367,
      "##e16": 1368,
      "c52": 1369,
      "d32": 1370,
      "##d3f": 1371,
      "##fdd": 1372,
      "516": 1373,
      "##589": 1374,
      "##f8c": 1375,
      "##c11": 1376,
      "##70c": 1377,
      "##ade": 1378,
      "##f09": 1379,
      "##aae": 1380,
      "##e0b": 1381,
      "##587": 1382,
      "##ed7": 1383,
      "156": 1384,
      "ebb": 1385,
      "901": 1386,
      "##71b": 1387,
      "##fdb": 1388,
      "##8db": 1389,
      "##9f7": 1390,
      "##ef7": 1391,
      "##5fd": 1392,
      "##72a": 1393,
      "103": 1394,
      "fd6": 1395,
      "196": 1396,
      "##a88": 1397,
      "##b7a": 1398,
      "##5d5": 1399,
      "##9f8": 1400,
      "4a4": 1401,
      "##779": 1402,
      "##f8e": 1403,
      "##5d9": 1404,
      "##c1c": 1405,
      "804": 1406,
      "##ed5": 1407,
      "##d8f": 1408,
      "b06": 1409,
      "##57e": 1410,
      "##a8f": 1411,
      "cd2": 1412,
      "##c78": 1413,
      "##ab8": 1414,
      "b36": 1415,
      "##98b": 1416,
      "##97d": 1417,
      "##7b9": 1418,
      "##9f5": 1419,
      "##abe": 1420,
      "##9df": 1421,
      "##93f": 1422,
      "d76": 1423,
      "##92b": 1424,
      "ed6": 1425,
      "##fb7": 1426,
      "982": 1427,
      "##a3e": 1428,
      "0b2": 1429,
      "##b7e": 1430,
      "##5f0": 1431,
      "f82": 1432,
      "a52": 1433,
      "##cfe": 1434,
      "##98a": 1435,
      "##510": 1436,
      "##c4e": 1437,
      "4d1": 1438,
      "552": 1439,
      "##e47": 1440,
      "1c6": 1441,
      "##51e": 1442,
      "##948": 1443,
      "##e09": 1444,
      "##58a": 1445,
      "##add": 1446,
      "##cbf": 1447,
      "5d2": 1448,
      "d96": 1449,
      "##c0b": 1450,
      "##cbc": 1451,
      "##e49": 1452,
      "##d85": 1453,
      "##924": 1454,
      "ff6": 1455,
      "##f88": 1456,
      "1f1": 1457,
      "##7be": 1458,
      "##a7a": 1459,
      "##5fc": 1460,
      "##cd7": 1461,
      "##aab": 1462,
      "5e2": 1463,
      "##513": 1464,
      "##b7c": 1465,
      "##88a": 1466,
      "fb6": 1467,
      "1f6": 1468,
      "882": 1469,
      "##c1f": 1470,
      "874": 1471,
      "##70a": 1472,
      "##518": 1473,
      "##cf9": 1474,
      "176": 1475,
      "ad1": 1476,
      "##77b": 1477,
      "d82": 1478,
      "##b35": 1479,
      "9b2": 1480,
      "##cd5": 1481,
      "##af8": 1482,
      "##d7c": 1483,
      "##83c": 1484,
      "##adb": 1485,
      "8f6": 1486,
      "4a6": 1487,
      "##cfa": 1488,
      "##fb0": 1489,
      "4e2": 1490,
      "##f0a": 1491,
      "##e07": 1492,
      "##cfc": 1493,
      "##ebc": 1494,
      "##f3b": 1495,
      "716": 1496,
      "##cf8": 1497,
      "##a39": 1498,
      "996": 1499,
      "##f38": 1500,
      "1a6": 1501,
      "##8dc": 1502,
      "ed1": 1503,
      "b16": 1504,
      "##efa": 1505,
      "##9bc": 1506,
      "3c6": 1507,
      "##b3d": 1508,
      "##58f": 1509,
      "##98f": 1510,
      "##c7c": 1511,
      "##940": 1512,
      "##e0d": 1513,
      "##a8d": 1514,
      "5bb": 1515,
      "d46": 1516,
      "##888": 1517,
      "##9d9": 1518,
      "##dda": 1519,
      "##e7e": 1520,
      "0500": 1521,
      "##fd9": 1522,
      "cf2": 1523,
      "##c0f": 1524,
      "##8bc": 1525,
      "##9fa": 1526,
      "##e43": 1527,
      "7f1": 1528,
      "##8ba": 1529,
      "##fb9": 1530,
      "##cbe": 1531,
      "6d1": 1532,
      "##728": 1533,
      "f52": 1534,
      "##e37": 1535,
      "d36": 1536,
      "##90b": 1537,
      "##9bf": 1538,
      "a76": 1539,
      "##721": 1540,
      "e36": 1541,
      "##c9e": 1542,
      "##a79": 1543,
      "##949": 1544,
      "##f89": 1545,
      "##7d8": 1546,
      "bd2": 1547,
      "##ad0": 1548,
      "5a6": 1549,
      "256": 1550,
      "##55a": 1551,
      "966": 1552,
      "##94a": 1553,
      "##afd": 1554,
      "##b34": 1555,
      "##eb7": 1556,
      "##778": 1557,
      "##913": 1558,
      "956": 1559,
      "##31b": 1560,
      "##f3a": 1561,
      "b76": 1562,
      "##c3b": 1563,
      "##e88": 1564,
      "##c49": 1565,
      "403": 1566,
      "##57c": 1567,
      "##e14": 1568,
      "##9db": 1569,
      "bd1": 1570,
      "##eec": 1571,
      "7d2": 1572,
      "##e1e": 1573,
      "##fd0": 1574,
      "##916": 1575,
      "508": 1576,
      "##dde": 1577,
      "##cfd": 1578,
      "##a7c": 1579,
      "9f2": 1580,
      "##c3f": 1581,
      "##319": 1582,
      "##b79": 1583,
      "##57f": 1584,
      "##d3c": 1585,
      "##cdc": 1586,
      "##724": 1587,
      "##5f5": 1588,
      "3b1": 1589,
      "##cdd": 1590,
      "681": 1591,
      "926": 1592,
      "##eae": 1593,
      "##5f9": 1594,
      "##aa5": 1595,
      "##a5e": 1596,
      "7b6": 1597,
      "108": 1598,
      "##9fe": 1599,
      "##941": 1600,
      "f32": 1601,
      "##c13": 1602,
      "##ea5": 1603,
      "##588": 1604,
      "##99e": 1605,
      "##aaf": 1606,
      "##c8c": 1607,
      "##a95": 1608,
      "cb2": 1609,
      "##ebe": 1610,
      "##7d7": 1611,
      "##afe": 1612,
      "##5ce": 1613,
      "##ebf": 1614,
      "##5ba": 1615,
      "##7da": 1616,
      "8d1": 1617,
      "##5be": 1618,
      "##83b": 1619,
      "##ef8": 1620,
      "##5c5": 1621,
      "##709": 1622,
      "781": 1623,
      "596": 1624,
      "##9d5": 1625,
      "4bb": 1626,
      "0bb": 1627,
      "##98e": 1628,
      "##fc5": 1629,
      "6f1": 1630,
      "##5d8": 1631,
      "##c1b": 1632,
      "##94d": 1633,
      "be6": 1634,
      "##94c": 1635,
      "cb1": 1636,
      "af4": 1637,
      "##5d7": 1638,
      "##ede": 1639,
      "##e12": 1640,
      "##5b7": 1641,
      "##c42": 1642,
      "##9f0": 1643,
      "bc6": 1644,
      "##cda": 1645,
      "##e4c": 1646,
      "1a2": 1647,
      "##b33": 1648,
      "##8da": 1649,
      "952": 1650,
      "7b2": 1651,
      "##c35": 1652,
      "##c10": 1653,
      "##315": 1654,
      "##c7d": 1655,
      "##719": 1656,
      "e26": 1657,
      "a04": 1658,
      "##94b": 1659,
      "##712": 1660,
      "##ab7": 1661,
      "8f1": 1662,
      "eb2": 1663,
      "fa2": 1664,
      "##e34": 1665,
      "abb": 1666,
      "##7d9": 1667,
      "##905": 1668,
      "de6": 1669,
      "152": 1670,
      "##733": 1671,
      "##cf5": 1672,
      "##cde": 1673,
      "ad2": 1674,
      "##90c": 1675,
      "##72b": 1676,
      "##dba": 1677,
      "##5b5": 1678,
      "##a89": 1679,
      "ca2": 1680,
      "##7ba": 1681,
      "eb6": 1682,
      "##9dd": 1683,
      "8b6": 1684,
      "581": 1685,
      "##58b": 1686,
      "8bb": 1687,
      "##cf7": 1688,
      "##e13": 1689,
      "##9ca": 1690,
      "##71d": 1691,
      "ab1": 1692,
      "##eca": 1693,
      "##c3e": 1694,
      "de2": 1695,
      "##23a": 1696,
      "3f2": 1697,
      "##77c": 1698,
      "##9ce": 1699,
      "9b1": 1700,
      "fd1": 1701,
      "##d3a": 1702,
      "##710": 1703,
      "##c16": 1704,
      "##c4c": 1705,
      "946": 1706,
      "c66": 1707,
      "##8be": 1708,
      "##e0e": 1709,
      "2f4": 1710,
      "##ab9": 1711,
      "##b38": 1712,
      "##928": 1713,
      "##98d": 1714,
      "e04": 1715,
      "222": 1716,
      "##7b8": 1717,
      "##a99": 1718,
      "##71a": 1719,
      "##a9e": 1720,
      "##97c": 1721,
      "##9b7": 1722,
      "f06": 1723,
      "##e15": 1724,
      "##985": 1725,
      "##923": 1726,
      "##885": 1727,
      "##e87": 1728,
      "##e40": 1729,
      "fa6": 1730,
      "##f05": 1731,
      "##7bc": 1732,
      "##9da": 1733,
      "##ab0": 1734,
      "##c85": 1735,
      "##7b5": 1736,
      "4b2": 1737,
      "5e6": 1738,
      "##57d": 1739,
      "881": 1740,
      "bd6": 1741,
      "##999": 1742,
      "ab6": 1743,
      "ed2": 1744,
      "3e6": 1745,
      "##77e": 1746,
      "fb1": 1747,
      "##e4b": 1748,
      "b52": 1749,
      "##e45": 1750,
      "c16": 1751,
      "da6": 1752,
      "e82": 1753,
      "##c1a": 1754,
      "db6": 1755,
      "##57b": 1756,
      "##a8e": 1757,
      "c36": 1758,
      "##eb0": 1759,
      "##987": 1760,
      "c81": 1761,
      "b82": 1762,
      "##c8f": 1763,
      "##ad7": 1764,
      "##cca": 1765,
      "##edb": 1766,
      "9f1": 1767,
      "##ace": 1768,
      "##9b0": 1769,
      "##c19": 1770,
      "a36": 1771,
      "d26": 1772,
      "##c15": 1773,
      "##8b9": 1774,
      "##b3a": 1775,
      "7e6": 1776,
      "a82": 1777,
      "7d1": 1778,
      "##715": 1779,
      "##cb9": 1780,
      "c26": 1781,
      "##fca": 1782,
      "f46": 1783,
      "##77d": 1784,
      "##989": 1785,
      "144": 1786,
      "2b6": 1787,
      "##fce": 1788,
      "##cce": 1789,
      "##7dc": 1790,
      "9b6": 1791,
      "##5ac": 1792,
      "##c39": 1793,
      "fd2": 1794,
      "##cb8": 1795,
      "##7d0": 1796,
      "c56": 1797,
      "be2": 1798,
      "##a8c": 1799,
      "##fd5": 1800,
      "##9d0": 1801,
      "##51c": 1802,
      "##dd5": 1803,
      "##eac": 1804,
      "c96": 1805,
      "##e1c": 1806,
      "##c4d": 1807,
      "b56": 1808,
      "##93b": 1809,
      "##5fb": 1810,
      "##eb9": 1811,
      "7f6": 1812,
      "##c9c": 1813,
      "##c8e": 1814,
      "##c3c": 1815,
      "5a2": 1816,
      "##9d8": 1817,
      "##91e": 1818,
      "##c2f": 1819,
      "##e4e": 1820,
      "aa2": 1821,
      "dd6": 1822,
      "##7b0": 1823,
      "c86": 1824,
      "##31a": 1825,
      "a16": 1826,
      "274": 1827,
      "cc6": 1828,
      "##5b9": 1829,
      "5b6": 1830,
      "##dbc": 1831,
      "##31d": 1832,
      "6bb": 1833,
      "a03": 1834,
      "7bb": 1835,
      "##aac": 1836,
      "##9de": 1837,
      "b96": 1838,
      "##912": 1839,
      "##c43": 1840,
      "##8b0": 1841,
      "##93c": 1842,
      "916": 1843,
      "##e18": 1844,
      "ba2": 1845,
      "ba6": 1846,
      "da2": 1847,
      "##a1a": 1848,
      "##922": 1849,
      "ae6": 1850,
      "f81": 1851,
      "2a6": 1852,
      "9a2": 1853,
      "906": 1854,
      "1e6": 1855,
      "##c88": 1856,
      "##5b8": 1857,
      "##e8e": 1858,
      "##e1b": 1859,
      "##aad": 1860,
      "##58e": 1861,
      "##5d0": 1862,
      "2d1": 1863,
      "##8b5": 1864,
      "ad6": 1865,
      "##ed9": 1866,
      "3d1": 1867,
      "cb6": 1868,
      "##ed0": 1869,
      "b81": 1870,
      "a66": 1871,
      "##c1d": 1872,
      "9bb": 1873,
      "f96": 1874,
      "##dd8": 1875,
      "d54": 1876,
      "df4": 1877,
      "##e9a": 1878,
      "##9be": 1879,
      "##8b7": 1880,
      "##8d9": 1881,
      "9e2": 1882,
      "##c4a": 1883,
      "##9ba": 1884,
      "ef4": 1885,
      "##e85": 1886,
      "##c12": 1887,
      "##59e": 1888,
      "b66": 1889,
      "##e8f": 1890,
      "##24c": 1891,
      "481": 1892,
      "##947": 1893,
      "##e11": 1894,
      "d86": 1895,
      "##9b8": 1896,
      "ce6": 1897,
      "##db0": 1898,
      "##d09": 1899,
      "7a2": 1900,
      "##eba": 1901,
      "##cb5": 1902,
      "##87b": 1903,
      "##079": 1904,
      "##9b9": 1905,
      "##55e": 1906,
      "826": 1907,
      "##599": 1908,
      "##c40": 1909,
      "ca6": 1910,
      "##c99": 1911,
      "##c7a": 1912,
      "700": 1913,
      "b86": 1914,
      "##729": 1915,
      "bf6": 1916,
      "##9dc": 1917,
      "##511": 1918,
      "##cc9": 1919,
      "c84": 1920,
      "##b0a": 1921,
      "##70e": 1922,
      "##a0e": 1923,
      "603": 1924,
      "##91c": 1925,
      "##e5e": 1926,
      "dd2": 1927,
      "7f2": 1928,
      "f56": 1929,
      "##e19": 1930,
      "e54": 1931,
      "4b1": 1932,
      "##e99": 1933,
      "##718": 1934,
      "##c4b": 1935,
      "##88f": 1936,
      "##519": 1937,
      "##e9e": 1938,
      "##c3d": 1939,
      "4a2": 1940,
      "ee2": 1941,
      "##e9c": 1942,
      "##55b": 1943,
      "##e4d": 1944,
      "##c9a": 1945,
      "##988": 1946,
      "074": 1947,
      "c82": 1948,
      "bf2": 1949,
      "ea2": 1950,
      "##cf0": 1951,
      "##c38": 1952,
      "##5da": 1953,
      "db2": 1954,
      "aa6": 1955,
      "e86": 1956,
      "##cba": 1957,
      "##8dd": 1958,
      "##c87": 1959,
      "402": 1960,
      "db1": 1961,
      "##725": 1962,
      "986": 1963,
      "e56": 1964,
      "##911": 1965,
      "##cdb": 1966,
      "9e6": 1967,
      "##8d7": 1968,
      "1f4": 1969,
      "6b1": 1970,
      "5b1": 1971,
      "##eb8": 1972,
      "d66": 1973,
      "606": 1974,
      "7c6": 1975,
      "a26": 1976,
      "##33a": 1977,
      "721": 1978,
      "##e8d": 1979,
      "e16": 1980,
      "##8d8": 1981,
      "##eda": 1982,
      "b46": 1983,
      "##926": 1984,
      "5d6": 1985,
      "c32": 1986,
      "##99c": 1987,
      "##e8a": 1988,
      "5d1": 1989,
      "##9b5": 1990,
      "5c6": 1991,
      "a96": 1992,
      "ce2": 1993,
      "##59c": 1994,
      "##918": 1995,
      "1005": 1996,
      "8d6": 1997,
      "1d6": 1998,
      "##921": 1999,
      "##c18": 2000,
      "8a6": 2001,
      "##c41": 2002,
      "886": 2003,
      "d81": 2004,
      "##8d5": 2005,
      "608": 2006,
      "##cb0": 2007,
      "##90e": 2008,
      "f86": 2009,
      "c46": 2010,
      "##91d": 2011,
      "##e4a": 2012,
      "8f2": 2013,
      "9c6": 2014,
      "184": 2015,
      "9f6": 2016,
      "##e0c": 2017,
      "##c89": 2018,
      "##c8b": 2019,
      "##078": 2020,
      "ab2": 2021,
      "##cc5": 2022,
      "##0b7": 2023,
      "8e6": 2024,
      "a21": 2025,
      "##e8c": 2026,
      "b26": 2027,
      "##78e": 2028,
      "e52": 2029,
      "f26": 2030,
      "##915": 2031,
      "##e89": 2032,
      "174": 2033,
      "141": 2034,
      "##ec5": 2035,
      "121": 2036,
      "0105": 2037,
      "##b85": 2038,
      "e03": 2039,
      "344": 2040,
      "221": 2041,
      "201": 2042,
      "##c2a": 2043,
      "921": 2044,
      "1a4": 2045,
      "ff4": 2046,
      "903": 2047,
      "541": 2048,
      "554": 2049,
      "704": 2050,
      "##50a": 2051,
      "##73e": 2052,
      "e02": 2053,
      "654": 2054,
      "6d4": 2055,
      "c22": 2056,
      "a01": 2057,
      "##73c": 2058,
      "##50c": 2059,
      "##c22": 2060,
      "##07a": 2061,
      "5d4": 2062,
      "c41": 2063,
      "241": 2064,
      "##0b0": 2065,
      "e00": 2066,
      "341": 2067,
      "##73f": 2068,
      "522": 2069,
      "244": 2070,
      "##78a": 2071,
      "604": 2072,
      "b34": 2073,
      "3d4": 2074,
      "134": 2075,
      "##b49": 2076,
      "##07f": 2077,
      "##731": 2078,
      "a84": 2079,
      "##b45": 2080,
      "##73b": 2081,
      "f41": 2082,
      "##785": 2083,
      "0d4": 2084,
      "##789": 2085,
      "0f4": 2086,
      "3a4": 2087,
      "400": 2088,
      "d22": 2089,
      "e21": 2090,
      "6f4": 2091,
      "##07e": 2092,
      "##535": 2093,
      "922": 2094,
      "822": 2095,
      "422": 2096,
      "##73d": 2097,
      "f03": 2098,
      "404": 2099,
      "##505": 2100,
      "2a4": 2101,
      "##b48": 2102,
      "644": 2103,
      "d21": 2104,
      "734": 2105,
      "##a1d": 2106,
      "321": 2107,
      "##c2c": 2108,
      "841": 2109,
      "fa4": 2110,
      "##739": 2111,
      "f74": 2112,
      "##78f": 2113,
      "b74": 2114,
      "122": 2115,
      "621": 2116,
      "408": 2117,
      "674": 2118,
      "##c2b": 2119,
      "bf4": 2120,
      "854": 2121,
      "254": 2122,
      "a74": 2123,
      "e34": 2124,
      "7d4": 2125,
      "ed4": 2126,
      "##a15": 2127,
      "##735": 2128,
      "##b42": 2129,
      "##07b": 2130,
      "da4": 2131,
      "##b0e": 2132,
      "##b0c": 2133,
      "c44": 2134,
      "9a4": 2135,
      "784": 2136,
      "##50e": 2137,
      "##c2d": 2138,
      "##53b": 2139,
      "##c27": 2140,
      "##07c": 2141,
      "d08": 2142,
      "a08": 2143,
      "f04": 2144,
      "ad4": 2145,
      "941": 2146,
      "800": 2147,
      "##a16": 2148,
      "754": 2149,
      "1d4": 2150,
      "974": 2151,
      "50c1": 2152,
      "##b44": 2153,
      "a41": 2154,
      "e22": 2155,
      "##507": 2156,
      "a22": 2157,
      "b21": 2158,
      "##50b": 2159,
      "##534": 2160,
      "584": 2161,
      "b44": 2162,
      "f02": 2163,
      "b04": 2164,
      "bd4": 2165,
      "808": 2166,
      "##a1e": 2167,
      "cf4": 2168,
      "##0bf": 2169,
      "##a14": 2170,
      "ea4": 2171,
      "##c21": 2172,
      "##c23": 2173,
      "##b8f": 2174,
      "d41": 2175,
      "934": 2176,
      "##a13": 2177,
      "9f4": 2178,
      "421": 2179,
      "c08": 2180,
      "aa4": 2181,
      "902": 2182,
      "##b4c": 2183,
      "##0bc": 2184,
      "084": 2185,
      "500": 2186,
      "d03": 2187,
      "234": 2188,
      "fd4": 2189,
      "a44": 2190,
      "##b0f": 2191,
      "f54": 2192,
      "641": 2193,
      "5f4": 2194,
      "##0b9": 2195,
      "d02": 2196,
      "##a1b": 2197,
      "984": 2198,
      "5a4": 2199,
      "##b43": 2200,
      "##b4e": 2201,
      "6a4": 2202,
      "##734": 2203,
      "##a12": 2204,
      "##0b8": 2205,
      "ba4": 2206,
      "##50f": 2207,
      "7f4": 2208,
      "b22": 2209,
      "dd4": 2210,
      "d04": 2211,
      "e41": 2212,
      "f08": 2213,
      "0035": 2214,
      "f21": 2215,
      "774": 2216,
      "834": 2217,
      "803": 2218,
      "a54": 2219,
      "3f4": 2220,
      "f34": 2221,
      "f22": 2222,
      "c34": 2223,
      "844": 2224,
      "8a4": 2225,
      "##53d": 2226,
      "944": 2227,
      "##78c": 2228,
      "708": 2229,
      "##c28": 2230,
      "a34": 2231,
      "f44": 2232,
      "##509": 2233,
      "##0ba": 2234,
      "##b4b": 2235,
      "ca4": 2236,
      "c21": 2237,
      "##804": 2238,
      "##b4d": 2239,
      "f84": 2240,
      "908": 2241,
      "d74": 2242,
      "441": 2243,
      "8f4": 2244,
      "##33d": 2245,
      "e01": 2246,
      "904": 2247,
      "##c2e": 2248,
      "521": 2249,
      "b84": 2250,
      "b03": 2251,
      "d34": 2252,
      "##a19": 2253,
      "d44": 2254,
      "##b8e": 2255,
      "c74": 2256,
      "##c25": 2257,
      "##b4f": 2258,
      "684": 2259,
      "7a4": 2260,
      "##b47": 2261,
      "##738": 2262,
      "##53c": 2263,
      "##b09": 2264,
      "##b4a": 2265,
      "954": 2266,
      "0002": 2267,
      "##a1f": 2268,
      "##a1c": 2269,
      "b02": 2270,
      "b54": 2271,
      "##0be": 2272,
      "d84": 2273,
      "e44": 2274,
      "##b8c": 2275,
      "##335": 2276,
      "##b89": 2277,
      "154": 2278,
      "##c29": 2279,
      "8d4": 2280,
      "##23e": 2281,
      "##a10": 2282,
      "##c24": 2283,
      "cd4": 2284,
      "b41": 2285,
      "##b40": 2286,
      "e84": 2287,
      "b08": 2288,
      "##a18": 2289,
      "600": 2290,
      "602": 2291,
      "##806": 2292,
      "##508": 2293,
      "##a11": 2294,
      "##b8a": 2295,
      "c54": 2296,
      "##80d": 2297,
      "884": 2298,
      "f00": 2299,
      "##53e": 2300,
      "401": 2301,
      "501": 2302,
      "##533": 2303,
      "d00": 2304,
      "d01": 2305,
      "##539": 2306,
      "##33b": 2307,
      "##538": 2308,
      "##23b": 2309,
      "1001": 2310,
      "##338": 2311,
      "##805": 2312,
      "##23d": 2313,
      "b00": 2314,
      "##239": 2315,
      "##80a": 2316,
      "2e63": 2317,
      "##235": 2318,
      "900": 2319,
      "##337": 2320,
      "##339": 2321,
      "##802": 2322,
      "##238": 2323,
      "##537": 2324,
      "##33f": 2325,
      "##808": 2326,
      "##33e": 2327,
      "##80f": 2328,
      "##237": 2329,
      "##53f": 2330,
      "##80b": 2331,
      "0030": 2332,
      "701": 2333,
      "##53a": 2334,
      "##23c": 2335,
      "##23f": 2336,
      "f01": 2337,
      "##33c": 2338,
      "##80c": 2339,
      "##807": 2340,
      "b01": 2341,
      "##80e": 2342,
      "##809": 2343,
      "50c3": 2344,
      "601": 2345,
      "0020": 2346,
      "1603": 2347,
      "2020": 2348,
      "ef00": 2349,
      "5504": 2350,
      "0c00": 2351,
      "0402": 2352,
      "0005": 2353,
      "6e74": 2354,
      "2e31": 2355,
      "8000": 2356,
      "50bb": 2357,
      "7374": 2358,
      "0003": 2359,
      "0201": 2360,
      "7465": 2361,
      "1800": 2362,
      "551d": 2363,
      "0200": 2364,
      "0b00": 2365,
      "7469": 2366,
      "0017": 2367,
      "1006": 2368,
      "5018": 2369,
      "6874": 2370,
      "6174": 2371,
      "6963": 2372,
      "0302": 2373,
      "af00": 2374,
      "0401": 2375,
      "7474": 2376,
      "312e": 2377,
      "3500": 2378,
      "d894": 2379,
      "6d61": 2380,
      "2f31": 2381,
      "0102": 2382,
      "300d": 2383,
      "656e": 2384,
      "7470": 2385,
      "50eb": 2386,
      "0601": 2387,
      "6d00": 2388,
      "3230": 2389,
      "bb26": 2390,
      "616c": 2391,
      "bb27": 2392,
      "ebe0": 2393,
      "c000": 2394,
      "ebdf": 2395,
      "3082": 2396,
      "00c0": 2397,
      "6365": 2398,
      "c00c": 2399,
      "6574": 2400,
      "0363": 2401,
      "0403": 2402,
      "d600": 2403,
      "6e65": 2404,
      "7265": 2405,
      "6573": 2406,
      "676f": 2407,
      "696e": 2408,
      "2000": 2409,
      "01c0": 2410,
      "7274": 2411,
      "000c": 2412,
      "1801": 2413,
      "3000": 2414,
      "0505": 2415,
      "4341": 2416,
      "6765": 2417,
      "2b06": 2418,
      "8180": 2419,
      "6361": 2420,
      "6f6f": 2421,
      "7777": 2422,
      "d500": 2423,
      "8201": 2424,
      "03fe": 2425,
      "03ff": 2426,
      "6469": 2427,
      "001c": 2428,
      "0400": 2429,
      "e7d6": 2430,
      "696f": 2431,
      "6372": 2432,
      "3031": 2433,
      "6c65": 2434,
      "2f2f": 2435,
      "1002": 2436,
      "703a": 2437,
      "0013": 2438,
      "3a2f": 2439,
      "6f72": 2440,
      "00d0": 2441,
      "0608": 2442,
      "9400": 2443,
      "000a": 2444,
      "a0f6": 2445,
      "0016": 2446,
      "0507": 2447,
      "1300": 2448,
      "0b41": 2449,
      "0a43": 2450,
      "6563": 2451,
      "6967": 2452,
      "082b": 2453,
      "bb28": 2454,
      "180b": 2455,
      "726f": 2456,
      "0103": 2457,
      "0008": 2458,
      "0204": 2459,
      "e7d5": 2460,
      "0018": 2461,
      "1c00": 2462,
      "6c69": 2463,
      "7365": 2464,
      "e088": 2465,
      "6465": 2466,
      "2032": 2467,
      "3020": 2468,
      "3235": 2469,
      "3130": 2470,
      "0313": 2471,
      "742d": 2472,
      "7269": 2473,
      "1400": 2474,
      "0040": 2475,
      "000b": 2476,
      "36f6": 2477,
      "0202": 2478,
      "8648": 2479,
      "6164": 2480,
      "0304": 2481,
      "0609": 2482,
      "7573": 2483,
      "6c6f": 2484,
      "86f7": 2485,
      "0116": 2486,
      "6e67": 2487,
      "4000": 2488,
      "5000": 2489,
      "0055": 2490,
      "0305": 2491,
      "aa00": 2492,
      "6964": 2493,
      "436f": 2494,
      "2e30": 2495,
      "2a86": 2496,
      "3636": 2497,
      "0104": 2498,
      "6769": 2499,
      "0006": 2500,
      "0d01": 2501,
      "0405": 2502,
      "7420": 2503,
      "0a2c": 2504,
      "0d06": 2505,
      "1700": 2506,
      "94d8": 2507,
      "4886": 2508,
      "3139": 2509,
      "092a": 2510,
      "2e32": 2511,
      "bb25": 2512,
      "2f00": 2513,
      "ff00": 2514,
      "2c81": 2515,
      "616e": 2516,
      "fc97": 2517,
      "6e63": 2518,
      "2c20": 2519,
      "7665": 2520,
      "c3b2": 2521,
      "f70d": 2522,
      "742e": 2523,
      "6170": 2524,
      "7400": 2525,
      "6167": 2526,
      "7472": 2527,
      "8001": 2528,
      "6564": 2529,
      "6172": 2530,
      "3001": 2531,
      "d000": 2532,
      "502f": 2533,
      "0080": 2534,
      "5450": 2535,
      "00aa": 2536,
      "00ff": 2537,
      "05b4": 2538,
      "0800": 2539,
      "9766": 2540,
      "fde9": 2541,
      "fd80": 2542,
      "1100": 2543,
      "97fd": 2544,
      "7363": 2545,
      "1403": 2546,
      "7276": 2547,
      "6368": 2548,
      "2d61": 2549,
      "2043": 2550,
      "00a0": 2551,
      "3137": 2552,
      "6974": 2553,
      "10b5": 2554,
      "5553": 2555,
      "6173": 2556,
      "0012": 2557,
      "6000": 2558,
      "2d2d": 2559,
      "7468": 2560,
      "6f74": 2561,
      "0009": 2562,
      "7461": 2563,
      "6667": 2564,
      "e9f1": 2565,
      "b5e9": 2566,
      "bba0": 2567,
      "69eb": 2568,
      "d097": 2569,
      "55aa": 2570,
      "802a": 2571,
      "616d": 2572,
      "676c": 2573,
      "1a0b": 2574,
      "32fd": 2575,
      "6f33": 2576,
      "aa55": 2577,
      "3369": 2578,
      "f132": 2579,
      "3131": 2580,
      "9c00": 2581,
      "eb10": 2582,
      "6f63": 2583,
      "bbe0": 2584,
      "3009": 2585,
      "6163": 2586,
      "653a": 2587,
      "6973": 2588,
      "6f67": 2589,
      "1302": 2590,
      "010b": 2591,
      "7669": 2592,
      "1010": 2593,
      "2030": 2594,
      "5454": 2595,
      "f601": 2596,
      "0600": 2597,
      "0906": 2598,
      "726c": 2599,
      "1009": 2600,
      "7074": 2601,
      "6d65": 2602,
      "4854": 2603,
      "ffff": 2604,
      "2300": 2605,
      "6d2f": 2606,
      "01ff": 2607,
      "a000": 2608,
      "2053": 2609,
      "352e": 2610,
      "0130": 2611,
      "2047": 2612,
      "0a13": 2613,
      "3136": 2614,
      "6f73": 2615,
      "0014": 2616,
      "732d": 2617,
      "040a": 2618,
      "000e": 2619,
      "4143": 2620,
      "ac00": 2621,
      "0007": 2622,
      "3133": 2623,
      "6561": 2624,
      "6464": 2625,
      "0028": 2626,
      "3120": 2627,
      "3300": 2628,
      "b000": 2629,
      "6e73": 2630,
      "ff01": 2631,
      "6f64": 2632,
      "6570": 2633,
      "f000": 2634,
      "3535": 2635,
      "310b": 2636,
      "8801": 2637,
      "7373": 2638,
      "0406": 2639,
      "3233": 2640,
      "0a53": 2641,
      "3530": 2642,
      "0b30": 2643,
      "b200": 2644,
      "7572": 2645,
      "0e00": 2646,
      "0021": 2647,
      "322e": 2648,
      "e000": 2649,
      "0613": 2650,
      "7275": 2651,
      "0029": 2652,
      "646e": 2653,
      "543a": 2654,
      "002f": 2655,
      "f6cf": 2656,
      "000d": 2657,
      "3830": 2658,
      "6865": 2659,
      "1200": 2660,
      "3132": 2661,
      "0b05": 2662,
      "a003": 2663,
      "617a": 2664,
      "3032": 2665,
      "6e61": 2666,
      "3a31": 2667,
      "0208": 2668,
      "7069": 2669,
      "0106": 2670,
      "0015": 2671,
      "0308": 2672,
      "050a": 2673,
      "02e7": 2674,
      "f6d0": 2675,
      "6374": 2676,
      "009c": 2677,
      "01e7": 2678,
      "5354": 2679,
      "fee7": 2680,
      "0038": 2681,
      "7a6f": 2682,
      "ffe7": 2683,
      "88a6": 2684,
      "036e": 2685,
      "6d82": 2686,
      "9000": 2687,
      "0043": 2688,
      "0340": 2689,
      "0023": 2690,
      "c7fd": 2691,
      "3330": 2692,
      "5365": 2693,
      "1d00": 2694,
      "3930": 2695,
      "8011": 2696,
      "6f00": 2697,
      "2800": 2698,
      "6965": 2699,
      "0501": 2700,
      "6d6c": 2701,
      "c02f": 2702,
      "05ae": 2703,
      "0033": 2704,
      "001d": 2705,
      "2049": 2706,
      "7000": 2707,
      "170d": 2708,
      "7370": 2709,
      "2c82": 2710,
      "0042": 2711,
      "0230": 2712,
      "48b8": 2713,
      "6e2e": 2714,
      "bccf": 2715,
      "686f": 2716,
      "652d": 2717,
      "0120": 2718,
      "0203": 2719,
      "732e": 2720,
      "3100": 2721,
      "6461": 2722,
      "4365": 2723,
      "6861": 2724,
      "2f63": 2725,
      "1804": 2726,
      "6520": 2727,
      "2048": 2728,
      "3638": 2729,
      "6f75": 2730,
      "743a": 2731,
      "6261": 2732,
      "7565": 2733,
      "2031": 2734,
      "650d": 2735,
      "b404": 2736,
      "2100": 2737,
      "7303": 2738,
      "2e67": 2739,
      "204f": 2740,
      "00ac": 2741,
      "0418": 2742,
      "1500": 2743,
      "3900": 2744,
      "0d00": 2745,
      "00c4": 2746,
      "2d31": 2747,
      "e950": 2748,
      "0404": 2749,
      "b890": 2750,
      "310d": 2751,
      "6c61": 2752,
      "2c00": 2753,
      "204d": 2754,
      "001a": 2755,
      "ff04": 2756,
      "901a": 2757,
      "3337": 2758,
      "00b0": 2759,
      "7369": 2760,
      "0011": 2761,
      "3138": 2762,
      "0046": 2763,
      "301d": 2764,
      "6f62": 2765,
      "696d": 2766,
      "496e": 2767,
      "303a": 2768,
      "3135": 2769,
      "3036": 2770,
      "00f0": 2771,
      "6669": 2772,
      "656c": 2773,
      "3630": 2774,
      "7368": 2775,
      "2e64": 2776,
      "6364": 2777,
      "1080": 2778,
      "0416": 2779,
      "6373": 2780,
      "302e": 2781,
      "0255": 2782,
      "1d06": 2783,
      "5331": 2784,
      "3232": 2785,
      "652e": 2786,
      "4f4e": 2787,
      "0a0f": 2788,
      "4657": 2789,
      "4363": 2790,
      "6c00": 2791,
      "0410": 2792,
      "0f00": 2793,
      "3634": 2794,
      "6961": 2795,
      "0140": 2796,
      "300e": 2797,
      "4018": 2798,
      "0438": 2799,
      "6e3a": 2800,
      "2d43": 2801,
      "6e2d": 2802,
      "6e20": 2803,
      "0900": 2804,
      "0414": 2805,
      "2a2e": 2806,
      "ebe1": 2807,
      "01fc": 2808,
      "636c": 2809,
      "c030": 2810,
      "0039": 2811,
      "021a": 2812,
      "12e3": 2813,
      "6400": 2814,
      "2b00": 2815,
      "0019": 2816,
      "7773": 2817,
      "1301": 2818,
      "fd00": 2819,
      "8400": 2820,
      "0a44": 2821,
      "0e06": 2822,
      "4552": 2823,
      "3033": 2824,
      "9d00": 2825,
      "c002": 2826,
      "7261": 2827,
      "7473": 2828,
      "6565": 2829,
      "6562": 2830,
      "8900": 2831,
      "6363": 2832,
      "0060": 2833,
      "746d": 2834,
      "3037": 2835,
      "7574": 2836,
      "0a0d": 2837,
      "0180": 2838,
      "0703": 2839,
      "2900": 2840,
      "4500": 2841,
      "2068": 2842,
      "6970": 2843,
      "772e": 2844,
      "3b20": 2845,
      "1600": 2846,
      "2d73": 2847,
      "0044": 2848,
      "56e7": 2849,
      "c02b": 2850,
      "7061": 2851,
      "cfad": 2852,
      "00b4": 2853,
      "7364": 2854,
      "7d64": 2855,
      "0110": 2856,
      "1007": 2857,
      "0a4c": 2858,
      "646f": 2859,
      "4f53": 2860,
      "0382": 2861,
      "4163": 2862,
      "0a48": 2863,
      "3700": 2864,
      "702f": 2865,
      "0150": 2866,
      "50fc": 2867,
      "3430": 2868,
      "3035": 2869,
      "3d31": 2870,
      "3034": 2871,
      "7500": 2872,
      "00e0": 2873,
      "1900": 2874,
      "3932": 2875,
      "98ec": 2876,
      "0a41": 2877,
      "2d00": 2878,
      "6e64": 2879,
      "3c00": 2880,
      "3200": 2881,
      "4001": 2882,
      "13c0": 2883,
      "0186": 2884,
      "9a69": 2885,
      "4696": 2886,
      "003c": 2887,
      "01f3": 2888,
      "14e9": 2889,
      "004c": 2890,
      "a69a": 2891,
      "434f": 2892,
      "786d": 2893,
      "6e6f": 2894,
      "206d": 2895,
      "4745": 2896,
      "c013": 2897,
      "0a55": 2898,
      "0045": 2899,
      "0730": 2900,
      "3534": 2901,
      "001e": 2902,
      "0041": 2903,
      "a699": 2904,
      "4d6f": 2905,
      "cfae": 2906,
      "c014": 2907,
      "1014": 2908,
      "3730": 2909,
      "301e": 2910,
      "3536": 2911,
      "b401": 2912,
      "6e00": 2913,
      "706f": 2914,
      "1d20": 2915,
      "8204": 2916,
      "7800": 2917,
      "6578": 2918,
      "3038": 2919,
      "7065": 2920,
      "3746": 2921,
      "e900": 2922,
      "6966": 2923,
      "643a": 2924,
      "bbbc": 2925,
      "0210": 2926,
      "6f6c": 2927,
      "100e": 2928,
      "000f": 2929,
      "302f": 2930,
      "01cd": 2931,
      "636b": 2932,
      "0024": 2933,
      "8a00": 2934,
      "0a45": 2935,
      "6473": 2936,
      "1680": 2937,
      "e300": 2938,
      "101b": 2939,
      "782d": 2940,
      "0f01": 2941,
      "1b00": 2942,
      "305a": 2943,
      "3800": 2944,
      "6178": 2945,
      "4400": 2946,
      "653d": 2947,
      "706c": 2948,
      "382e": 2949,
      "756c": 2950,
      "0667": 2951,
      "7300": 2952,
      "696c": 2953,
      "4e3a": 2954,
      "d617": 2955,
      "3081": 2956,
      "3134": 2957,
      "6100": 2958,
      "6c6c": 2959,
      "2041": 2960,
      "4469": 2961,
      "00e5": 2962,
      "fa00": 2963,
      "4676": 2964,
      "9100": 2965,
      "002b": 2966,
      "2075": 2967,
      "7072": 2968,
      "6503": 2969,
      "6c30": 2970,
      "1a00": 2971,
      "2c80": 2972,
      "1a50": 2973,
      "cf01": 2974,
      "2a00": 2975,
      "1015": 2976,
      "6467": 2977,
      "6177": 2978,
      "f010": 2979,
      "7475": 2980,
      "025f": 2981,
      "012c": 2982,
      "4e54": 2983,
      "f312": 2984,
      "1373": 2985,
      "d0a3": 2986,
      "0c01": 2987,
      "4200": 2988,
      "c800": 2989,
      "7070": 2990,
      "6131": 2991,
      "1604": 2992,
      "1011": 2993,
      "3a00": 2994,
      "0806": 2995,
      "6943": 2996,
      "656f": 2997,
      "4f4b": 2998,
      "632e": 2999,
      "0170": 3000,
      "6576": 3001,
      "c600": 3002,
      "c02c": 3003,
      "d616": 3004,
      "8f00": 3005,
      "2663": 3006,
      "0069": 3007,
      "045f": 3008,
      "0a07": 3009,
      "4b0d": 3010,
      "4300": 3011,
      "0048": 3012,
      "6b65": 3013,
      "3339": 3014,
      "8500": 3015,
      "d0a4": 3016,
      "372e": 3017,
      "7765": 3018,
      "100c": 3019,
      "0606": 3020,
      "3657": 3021,
      "7267": 3022,
      "2e61": 3023,
      "6169": 3024,
      "0d31": 3025,
      "746f": 3026,
      "2bc0": 3027,
      "3b00": 3028,
      "8218": 3029,
      "5696": 3030,
      "2e6e": 3031,
      "50c7": 3032,
      "3231": 3033,
      "8800": 3034,
      "3532": 3035,
      "0a84": 3036,
      "0a30": 3037,
      "0868": 3038,
      "302d": 3039,
      "0022": 3040,
      "1101": 3041,
      "bb87": 3042,
      "7463": 3043,
      "1e17": 3044,
      "666f": 3045,
      "a001": 3046,
      "2e73": 3047,
      "d0a5": 3048,
      "3a64": 3049,
      "0047": 3050,
      "a8c0": 3051,
      "7970": 3052,
      "2200": 3053,
      "3039": 3054,
      "4100": 3055,
      "3533": 3056,
      "4461": 3057,
      "e657": 3058,
      "6331": 3059,
      "1306": 3060,
      "0701": 3061,
      "6900": 3062,
      "a698": 3063,
      "3331": 3064,
      "100a": 3065,
      "040b": 3066,
      "1e00": 3067,
      "001b": 3068,
      "004a": 3069,
      "0031": 3070,
      "100b": 3071,
      "0434": 3072,
      "0408": 3073,
      "4616": 3074,
      "726e": 3075,
      "0025": 3076,
      "2004": 3077,
      "2e00": 3078,
      "733a": 3079,
      "5345": 3080,
      "d001": 3081,
      "652f": 3082,
      "0090": 3083,
      "100d": 3084,
      "5a30": 3085,
      "7562": 3086,
      "3016": 3087,
      "0700": 3088,
      "6d6f": 3089,
      "0034": 3090,
      "7b00": 3091,
      "7479": 3092,
      "010f": 3093,
      "7656": 3094,
      "312d": 3095,
      "0137": 3096,
      "0307": 3097,
      "4a00": 3098,
      "4104": 3099,
      "5e00": 3100,
      "bb00": 3101,
      "3931": 3102,
      "cc00": 3103,
      "342e": 3104,
      "05a0": 3105,
      "7920": 3106,
      "7c00": 3107,
      "007b": 3108,
      "6976": 3109,
      "0436": 3110,
      "7379": 3111,
      "4d54": 3112,
      "30c0": 3113,
      "003d": 3114,
      "2cc0": 3115,
      "6566": 3116,
      "6832": 3117,
      "bb85": 3118,
      "9200": 3119,
      "0268": 3120,
      "2700": 3121,
      "673a": 3122,
      "00a3": 3123,
      "540d": 3124,
      "1d0f": 3125,
      "dc00": 3126,
      "03fd": 3127,
      "4d00": 3128,
      "0b13": 3129,
      "1803": 3130,
      "101d": 3131,
      "1630": 3132,
      "4030": 3133,
      "e746": 3134,
      "003e": 3135,
      "c0a8": 3136,
      "0e42": 3137,
      "3014": 3138,
      "6c2e": 3139,
      "cca8": 3140,
      "8700": 3141,
      "3a30": 3142,
      "2028": 3143,
      "1406": 3144,
      "0220": 3145,
      "a002": 3146,
      "1008": 3147,
      "5030": 3148,
      "bb86": 3149,
      "7073": 3150,
      "6e6e": 3151,
      "474d": 3152,
      "cca9": 3153,
      "7001": 3154,
      "6b69": 3155,
      "0a86": 3156,
      "2600": 3157,
      "001f": 3158,
      "9643": 3159,
      "5740": 3160,
      "3600": 3161,
      "6265": 3162,
      "392e": 3163,
      "d893": 3164,
      "5550": 3165,
      "1d1f": 3166,
      "1503": 3167,
      "1706": 3168,
      "0a0c": 3169,
      "7320": 3170,
      "702e": 3171,
      "702d": 3172,
      "722d": 3173,
      "180c": 3174,
      "2d4c": 3175,
      "c400": 3176,
      "7570": 3177,
      "1f00": 3178,
      "301f": 3179,
      "2400": 3180,
      "0084": 3181,
      "2046": 3182,
      "43a2": 3183,
      "4e00": 3184,
      "3220": 3185,
      "93a4": 3186,
      "1f04": 3187,
      "a206": 3188,
      "6700": 3189,
      "101c": 3190,
      "6600": 3191,
      "6c3a": 3192,
      "3d00": 3193,
      "9a00": 3194,
      "6800": 3195,
      "4646": 3196,
      "0122": 3197,
      "8300": 3198,
      "5800": 3199,
      "1f06": 3200,
      "8203": 3201,
      "4c00": 3202,
      "742f": 3203,
      "7600": 3204,
      "0078": 3205,
      "756e": 3206,
      "0a85": 3207,
      "1830": 3208,
      "0ca1": 3209,
      "9800": 3210,
      "5a00": 3211,
      "4600": 3212,
      "00fb": 3213,
      "0a83": 3214,
      "26f6": 3215,
      "6c20": 3216,
      "2304": 3217,
      "6b00": 3218,
      "02d6": 3219,
      "4241": 3220,
      "a800": 3221,
      "4120": 3222,
      "5420": 3223,
      "e0d0": 3224,
      "2696": 3225,
      "3738": 3226,
      "2052": 3227,
      "a0d0": 3228,
      "cf93": 3229,
      "0804": 3230,
      "0032": 3231,
      "2500": 3232,
      "9646": 3233,
      "e636": 3234,
      "0083": 3235,
      "5a17": 3236,
      "676e": 3237,
      "6479": 3238,
      "00ed": 3239,
      "101a": 3240,
      "2001": 3241,
      "2f72": 3242,
      "3720": 3243,
      "0160": 3244,
      "2f30": 3245,
      "007a": 3246,
      "5048": 3247,
      "7279": 3248,
      "2010": 3249,
      "e800": 3250,
      "7220": 3251,
      "626c": 3252,
      "3d30": 3253,
      "100f": 3254,
      "0205": 3255,
      "7569": 3256,
      "0a02": 3257,
      "ea00": 3258,
      "6972": 3259,
      "a9cc": 3260,
      "cd00": 3261,
      "6d30": 3262,
      "002d": 3263,
      "0036": 3264,
      "8205": 3265,
      "2f64": 3266,
      "7264": 3267,
      "0c02": 3268,
      "9636": 3269,
      "3400": 3270,
      "7383": 3271,
      "6531": 3272,
      "0958": 3273,
      "6a00": 3274,
      "5500": 3275,
      "010a": 3276,
      "16d6": 3277,
      "5900": 3278,
      "d313": 3279,
      "d0a0": 3280,
      "60d0": 3281,
      "c100": 3282,
      "8200": 3283,
      "a200": 3284,
      "025a": 3285,
      "0757": 3286,
      "4645": 3287,
      "632d": 3288,
      "ab00": 3289,
      "e302": 3290,
      "cf00": 3291,
      "8014": 3292,
      "1020": 3293,
      "a300": 3294,
      "5300": 3295,
      "7700": 3296,
      "93a5": 3297,
      "a207": 3298,
      "5c00": 3299,
      "a100": 3300,
      "5449": 3301,
      "f800": 3302,
      "5726": 3303,
      "a012": 3304,
      "ae00": 3305,
      "2f73": 3306,
      "3656": 3307,
      "006e": 3308,
      "9900": 3309,
      "1746": 3310,
      "8600": 3311,
      "7100": 3312,
      "2f77": 3313,
      "4348": 3314,
      "01a3": 3315,
      "1d0e": 3316,
      "6431": 3317,
      "6f2e": 3318,
      "cfac": 3319,
      "96e6": 3320,
      "3335": 3321,
      "0503": 3322,
      "f900": 3323,
      "6500": 3324,
      "0961": 3325,
      "003b": 3326,
      "4700": 3327,
      "8e00": 3328,
      "da00": 3329,
      "1050": 3330,
      "6c2d": 3331,
      "6774": 3332,
      "c300": 3333,
      "9e00": 3334,
      "d200": 3335,
      "00fe": 3336,
      "5001": 3337,
      "0e04": 3338,
      "8c00": 3339,
      "b600": 3340,
      "1d23": 3341,
      "3731": 3342,
      "2726": 3343,
      "076c": 3344,
      "0037": 3345,
      "3836": 3346,
      "6375": 3347,
      "0702": 3348,
      "0361": 3349,
      "796d": 3350,
      "d937": 3351,
      "4558": 3352,
      "1880": 3353,
      "2d65": 3354,
      "6d69": 3355,
      "bd00": 3356,
      "792e": 3357,
      "612e": 3358,
      "bb23": 3359,
      "bbcb": 3360,
      "bbf4": 3361,
      "2074": 3362,
      "7a69": 3363,
      "e200": 3364,
      "009d": 3365,
      "2d32": 3366,
      "3013": 3367,
      "3732": 3368,
      "ebde": 3369,
      "7f00": 3370,
      "0310": 3371,
      "5200": 3372,
      "2d64": 3373,
      "c009": 3374,
      "9700": 3375,
      "0026": 3376,
      "2f35": 3377,
      "932b": 3378,
      "6132": 3379,
      "5626": 3380,
      "002a": 3381,
      "2aa0": 3382,
      "1030": 3383,
      "6001": 3384,
      "3838": 3385,
      "0a82": 3386,
      "0076": 3387,
      "7874": 3388,
      "2061": 3389,
      "0068": 3390,
      "e100": 3391,
      "6e69": 3392,
      "612d": 3393,
      "003f": 3394,
      "7200": 3395,
      "051a": 3396,
      "002c": 3397,
      "8100": 3398,
      "2532": 3399,
      "332e": 3400,
      "6420": 3401,
      "4747": 3402,
      "5600": 3403,
      "3737": 3404,
      "2230": 3405,
      "3a32": 3406,
      "f6e6": 3407,
      "9500": 3408,
      "7d00": 3409,
      "0805": 3410,
      "a889": 3411,
      "8040": 3412,
      "b700": 3413,
      "c2f6": 3414,
      "8b00": 3415,
      "3635": 3416,
      "4154": 3417,
      "6300": 3418,
      "3637": 3419,
      "343a": 3420,
      "2d41": 3421,
      "494f": 3422,
      "0661": 3423,
      "656d": 3424,
      "09c0": 3425,
      "c200": 3426,
      "1d13": 3427,
      "6f70": 3428,
      "4800": 3429,
      "00fd": 3430,
      "d800": 3431,
      "7a00": 3432,
      "6200": 3433,
      "3320": 3434,
      "36e6": 3435,
      "ca00": 3436,
      "2d63": 3437,
      "3e00": 3438,
      "7273": 3439,
      "2050": 3440,
      "fe00": 3441,
      "a500": 3442,
      "0113": 3443,
      "f100": 3444,
      "4f00": 3445,
      "c500": 3446,
      "4900": 3447,
      "4656": 3448,
      "3f00": 3449,
      "526f": 3450,
      "4141": 3451,
      "0ae7": 3452,
      "8747": 3453,
      "322d": 3454,
      "50d0": 3455,
      "9600": 3456,
      "eb00": 3457,
      "dd00": 3458,
      "c00a": 3459,
      "3a38": 3460,
      "6136": 3461,
      "3531": 3462,
      "958d": 3463,
      "6c0d": 3464,
      "0801": 3465,
      "f300": 3466,
      "0ac0": 3467,
      "0087": 3468,
      "32d3": 3469,
      "2055": 3470,
      "3539": 3471,
      "bc00": 3472,
      "7564": 3473,
      "5100": 3474,
      "484f": 3475,
      "6c62": 3476,
      "0154": 3477,
      "4f43": 3478,
      "5472": 3479,
      "1204": 3480,
      "ec00": 3481,
      "5b00": 3482,
      "5363": 3483,
      "4b00": 3484,
      "5f00": 3485,
      "fc00": 3486,
      "2e35": 3487,
      "002e": 3488,
      "723a": 3489,
      "5400": 3490,
      "c840": 3491,
      "5998": 3492,
      "6466": 3493,
      "003a": 3494,
      "9300": 3495,
      "a382": 3496,
      "6b61": 3497,
      "3f7e": 3498,
      "b400": 3499,
      "09d7": 3500,
      "6e50": 3501,
      "f200": 3502,
      "d595": 3503,
      "7769": 3504,
      "1530": 3505,
      "486f": 3506,
      "a203": 3507,
      "2323": 3508,
      "1806": 3509,
      "ba00": 3510,
      "6696": 3511,
      "cac5": 3512,
      "1017": 3513,
      "5645": 3514,
      "0a08": 3515,
      "9f00": 3516,
      "cb00": 3517,
      "1636": 3518,
      "0a98": 3519,
      "1737": 3520,
      "0a9a": 3521,
      "202f": 3522,
      "2f6f": 3523,
      "a600": 3524,
      "c001": 3525,
      "0119": 3526,
      "4617": 3527,
      "6903": 3528,
      "0053": 3529,
      "40b1": 3530,
      "01a0": 3531,
      "7361": 3532,
      "0780": 3533,
      "bb24": 3534,
      "8d00": 3535,
      "206e": 3536,
      "ee00": 3537,
      "00dc": 3538,
      "be00": 3539,
      "c7fe": 3540,
      "02f3": 3541,
      "f600": 3542,
      "3208": 3543,
      "4c4f": 3544,
      "5854": 3545,
      "5341": 3546,
      "a900": 3547,
      "053d": 3548,
      "5d00": 3549,
      "df00": 3550,
      "1303": 3551,
      "3831": 3552,
      "4c65": 3553,
      "626f": 3554,
      "a700": 3555,
      "a400": 3556,
      "b900": 3557,
      "e096": 3558,
      "d493": 3559,
      "9001": 3560,
      "00f5": 3561,
      "058c": 3562,
      "3115": 3563,
      "6f77": 3564,
      "f500": 3565,
      "6e03": 3566,
      "683a": 3567,
      "0331": 3568,
      "6472": 3569,
      "5700": 3570,
      "2d30": 3571,
      "1026": 3572,
      "6f3f": 3573,
      "7210": 3574,
      "4554": 3575,
      "b300": 3576,
      "f160": 3577,
      "7e00": 3578,
      "a030": 3579,
      "0085": 3580,
      "0643": 3581,
      "981c": 3582,
      "7696": 3583,
      "6773": 3584,
      "b105": 3585,
      "5452": 3586,
      "2d6d": 3587,
      "456f": 3588,
      "a187": 3589,
      "c700": 3590,
      "d945": 3591,
      "db00": 3592,
      "f700": 3593,
      "f6f6": 3594,
      "6c73": 3595,
      "02d3": 3596,
      "e3a2": 3597,
      "2fc0": 3598,
      "bd59": 3599,
      "bbda": 3600,
      "616b": 3601,
      "1013": 3602,
      "b100": 3603,
      "6869": 3604,
      "0027": 3605,
      "3234": 3606,
      "28ee": 3607,
      "bbca": 3608,
      "0377": 3609,
      "78c2": 3610,
      "6732": 3611,
      "524f": 3612,
      "3237": 3613,
      "12d3": 3614,
      "bbe4": 3615,
      "362e": 3616,
      "7900": 3617,
      "8c6d": 3618,
      "2504": 3619,
      "8da1": 3620,
      "87e0": 3621,
      "736f": 3622,
      "4303": 3623,
      "dfbc": 3624,
      "4845": 3625,
      "4f4c": 3626,
      "00fc": 3627,
      "0049": 3628,
      "2e78": 3629,
      "d300": 3630,
      "1c26": 3631,
      "59bd": 3632,
      "bb14": 3633,
      "96d9": 3634,
      "37c8": 3635,
      "7e28": 3636,
      "0070": 3637,
      "e400": 3638,
      "6c79": 3639,
      "eed4": 3640,
      "1d25": 3641,
      "6d8c": 3642,
      "e500": 3643,
      "d400": 3644,
      "ad00": 3645,
      "4175": 3646,
      "8cd9": 3647,
      "6e2f": 3648,
      "622e": 3649,
      "0604": 3650,
      "b800": 3651,
      "e914": 3652,
      "204a": 3653,
      "00f3": 3654,
      "c900": 3655,
      "e700": 3656,
      "d700": 3657,
      "9b00": 3658,
      "bbdf": 3659,
      "452d": 3660,
      "130c": 3661,
      "bbd1": 3662,
      "4c3a": 3663,
      "0074": 3664,
      "1040": 3665,
      "e600": 3666,
      "fb00": 3667,
      "3017": 3668,
      "bf00": 3669,
      "2d54": 3670,
      "706e": 3671,
      "f400": 3672,
      "0131": 3673,
      "0117": 3674,
      "22b6": 3675,
      "0056": 3676,
      "de41": 3677,
      "6f20": 3678,
      "ce00": 3679,
      "d100": 3680,
      "1016": 3681,
      "5479": 3682,
      "2d6f": 3683,
      "8494": 3684,
      "202d": 3685,
      "7736": 3686,
      "1018": 3687,
      "4765": 3688,
      "6c74": 3689,
      "4361": 3690,
      "3833": 3691,
      "3238": 3692,
      "bbd9": 3693,
      "0149": 3694,
      "3002": 3695,
      "1316": 3696,
      "6d2e": 3697,
      "6383": 3698,
      "ed00": 3699,
      "1f49": 3700,
      "6370": 3701,
      "de00": 3702,
      "2d67": 3703,
      "1805": 3704,
      "3742": 3705,
      "0975": 3706,
      "bbcc": 3707,
      "38f1": 3708,
      "bbc9": 3709,
      "3843": 3710,
      "1882": 3711,
      "0111": 3712,
      "01f5": 3713,
      "476f": 3714,
      "1ae7": 3715,
      "1353": 3716,
      "2920": 3717,
      "00db": 3718,
      "bbc2": 3719,
      "5256": 3720,
      "0a80": 3721,
      "3433": 3722,
      "8780": 3723,
      "fc96": 3724,
      "e004": 3725,
      "bb13": 3726,
      "2063": 3727,
      "6d70": 3728,
      "3050": 3729,
      "bb80": 3730,
      "4130": 3731,
      "456e": 3732,
      "0280": 3733,
      "52d6": 3734,
      "6761": 3735,
      "3e30": 3736,
      "04e5": 3737,
      "b500": 3738,
      "bbdd": 3739,
      "a6f6": 3740,
      "d900": 3741,
      "d0f0": 3742,
      "a024": 3743,
      "5737": 3744,
      "476c": 3745,
      "004b": 3746,
      "bbc0": 3747,
      "2f67": 3748,
      "3c80": 3749,
      "0107": 3750,
      "3a34": 3751,
      "6035": 3752,
      "3334": 3753,
      "3080": 3754,
      "bbc8": 3755,
      "9616": 3756,
      "7270": 3757,
      "f726": 3758,
      "0a50": 3759,
      "5616": 3760,
      "4167": 3761,
      "269f": 3762,
      "9075": 3763,
      "0072": 3764,
      "0124": 3765,
      "0a10": 3766,
      "2d39": 3767,
      "bbd2": 3768,
      "014d": 3769,
      "4610": 3770,
      "95bb": 3771,
      "a346": 3772,
      "bba1": 3773,
      "3466": 3774,
      "2d20": 3775,
      "0190": 3776,
      "523a": 3777,
      "6470": 3778,
      "bbcd": 3779,
      "0051": 3780,
      "cfaf": 3781,
      "2656": 3782,
      "e4ca": 3783,
      "6480": 3784,
      "2054": 3785,
      "dfae": 3786,
      "0a20": 3787,
      "bb84": 3788,
      "00ca": 3789,
      "4561": 3790,
      "00eb": 3791,
      "5723": 3792,
      "6e70": 3793,
      "bb9a": 3794,
      "0a63": 3795,
      "00f6": 3796,
      "0128": 3797,
      "6d73": 3798,
      "c932": 3799,
      "fc03": 3800,
      "1012": 3801,
      "3908": 3802,
      "2e74": 3803,
      "6306": 3804,
      "1653": 3805,
      "3003": 3806,
      "0058": 3807,
      "3b71": 3808,
      "ff02": 3809,
      "3103": 3810,
      "3736": 3811,
      "6362": 3812,
      "c613": 3813,
      "6343": 3814,
      "0c6b": 3815,
      "8557": 3816,
      "0239": 3817,
      "6f7a": 3818,
      "6436": 3819,
      "0159": 3820,
      "9e7d": 3821,
      "202a": 3822,
      "0306": 3823,
      "6d75": 3824,
      "0165": 3825,
      "0380": 3826,
      "3a35": 3827,
      "e7c6": 3828,
      "00e6": 3829,
      "0064": 3830,
      "004e": 3831,
      "0461": 3832,
      "0151": 3833,
      "d6f7": 3834,
      "7402": 3835,
      "663a": 3836,
      "0c44": 3837,
      "1fea": 3838,
      "1638": 3839,
      "5756": 3840,
      "1930": 3841,
      "1058": 3842,
      "46d0": 3843,
      "697a": 3844,
      "713d": 3845,
      "5727": 3846,
      "00f2": 3847,
      "8e2a": 3848,
      "8206": 3849,
      "1310": 3850,
      "9f46": 3851,
      "4010": 3852,
      "5c90": 3853,
      "622d": 3854,
      "4546": 3855,
      "204c": 3856,
      "3677": 3857,
      "2f68": 3858,
      "3029": 3859,
      "6030": 3860,
      "0f63": 3861,
      "0a61": 3862,
      "3266": 3863,
      "2c8d": 3864,
      "bb9c": 3865,
      "e6e6": 3866,
      "1437": 3867,
      "04c0": 3868,
      "0062": 3869,
      "8a5f": 3870,
      "ae2c": 3871,
      "00d6": 3872,
      "0063": 3873,
      "ae90": 3874,
      "3119": 3875,
      "2069": 3876,
      "3436": 3877,
      "388e": 3878,
      "4c61": 3879,
      "3011": 3880,
      "5302": 3881,
      "7464": 3882,
      "56c6": 3883,
      "4132": 3884,
      "0157": 3885,
      "1fda": 3886,
      "63dc": 3887,
      "d646": 3888,
      "3832": 3889,
      "0065": 3890,
      "1330": 3891,
      "4545": 3892,
      "eedd": 3893,
      "011c": 3894,
      "4e50": 3895,
      "c595": 3896,
      "2f1f": 3897,
      "7575": 3898,
      "3439": 3899,
      "3006": 3900,
      "2456": 3901,
      "0077": 3902,
      "6010": 3903,
      "57eb": 3904,
      "2730": 3905,
      "a3c6": 3906,
      "3435": 3907,
      "00e3": 3908,
      "7927": 3909,
      "bbc5": 3910,
      "10ff": 3911,
      "3775": 3912,
      "f496": 3913,
      "0221": 3914,
      "46d6": 3915,
      "6c01": 3916,
      "00e1": 3917,
      "6875": 3918,
      "9625": 3919,
      "00da": 3920,
      "0a87": 3921,
      "68a0": 3922,
      "0061": 3923,
      "3079": 3924,
      "8383": 3925,
      "0089": 3926,
      "036d": 3927,
      "d303": 3928,
      "fe82": 3929,
      "13c2": 3930,
      "2332": 3931,
      "bbd7": 3932,
      "642e": 3933,
      "9746": 3934,
      "4080": 3935,
      "9674": 3936,
      "e54a": 3937,
      "7d68": 3938,
      "b937": 3939,
      "3332": 3940,
      "daba": 3941,
      "de78": 3942,
      "2045": 3943,
      "4a47": 3944,
      "705a": 3945,
      "1106": 3946,
      "8363": 3947,
      "204e": 3948,
      "45db": 3949,
      "94c9": 3950,
      "cae0": 3951,
      "27fb": 3952,
      "6d63": 3953,
      "dcd0": 3954,
      "0a28": 3955,
      "0580": 3956,
      "410f": 3957,
      "0908": 3958,
      "f070": 3959,
      "0417": 3960,
      "2044": 3961,
      "5ae4": 3962,
      "0fe6": 3963,
      "bbd0": 3964,
      "65b3": 3965,
      "2b85": 3966,
      "c22f": 3967,
      "d0de": 3968,
      "bbe1": 3969,
      "eb91": 3970,
      "b323": 3971,
      "1516": 3972,
      "9181": 3973,
      "f6e7": 3974,
      "010c": 3975,
      "744d": 3976,
      "012f": 3977,
      "7714": 3978,
      "3336": 3979,
      "0133": 3980,
      "379e": 3981,
      "0066": 3982,
      "0713": 3983,
      "3538": 3984,
      "6f66": 3985,
      "011b": 3986,
      "743d": 3987,
      "5573": 3988,
      "a04e": 3989,
      "e353": 3990,
      "bbd3": 3991,
      "6665": 3992,
      "0054": 3993,
      "130a": 3994,
      "5080": 3995,
      "4343": 3996,
      "7005": 3997,
      "44b0": 3998,
      "1777": 3999,
      "bbee": 4000,
      "3bb9": 4001,
      "2057": 4002,
      "ba1a": 4003,
      "587a": 4004,
      "b0df": 4005,
      "3a73": 4006,
      "c2ca": 4007,
      "0088": 4008,
      "313a": 4009,
      "dd04": 4010,
      "0326": 4011,
      "056c": 4012,
      "3025": 4013,
      "00f1": 4014,
      "3026": 4015,
      "823e": 4016,
      "3a3a": 4017,
      "632b": 4018,
      "bbe7": 4019,
      "0109": 4020,
      "d91f": 4021,
      "5f74": 4022,
      "4350": 4023,
      "012e": 4024,
      "638e": 4025,
      "c1fc": 4026,
      "8302": 4027,
      "31c0": 4028,
      "90df": 4029,
      "17a6": 4030,
      "b001": 4031,
      "5180": 4032,
      "dbe2": 4033,
      "8162": 4034,
      "5c95": 4035,
      "bbcf": 4036,
      "8ed8": 4037,
      "0582": 4038,
      "bc45": 4039,
      "43a3": 4040,
      "3012": 4041,
      "d8bf": 4042,
      "7477": 4043,
      "e298": 4044,
      "dd5c": 4045,
      "1307": 4046,
      "98de": 4047,
      "62c1": 4048,
      "ea63": 4049,
      "3333": 4050,
      "c2d9": 4051,
      "3236": 4052,
      "6346": 4053,
      "7560": 4054,
      "5312": 4055,
      "4dc7": 4056,
      "6661": 4057,
      "4613": 4058,
      "7375": 4059,
      "e747": 4060,
      "4875": 4061,
      "14c0": 4062,
      "595a": 4063,
      "3820": 4064,
      "32e2": 4065,
      "bf10": 4066,
      "26d5": 4067,
      "bbad": 4068,
      "9623": 4069,
      "014a": 4070,
      "7661": 4071,
      "5765": 4072,
      "fb0a": 4073,
      "16e6": 4074,
      "3744": 4075,
      "4543": 4076,
      "00ee": 4077,
      "2d68": 4078,
      "5646": 4079,
      "732f": 4080,
      "6674": 4081,
      "bbc6": 4082,
      "4660": 4083,
      "0112": 4084,
      "026e": 4085,
      "af37": 4086,
      "444f": 4087,
      "3620": 4088,
      "180f": 4089,
      "6269": 4090,
      "bbd8": 4091,
      "0407": 4092,
      "953b": 4093,
      "6e2c": 4094,
      "00e7": 4095,
      "c696": 4096,
      "0136": 4097,
      "006f": 4098,
      "506e": 4099,
      "6272": 4100,
      "2e70": 4101,
      "6176": 4102,
      "60ae": 4103,
      "bbd4": 4104,
      "c650": 4105,
      "03b2": 4106,
      "2657": 4107,
      "2e6d": 4108,
      "2e39": 4109,
      "672e": 4110,
      "1c80": 4111,
      "534e": 4112,
      "1077": 4113,
      "bbe6": 4114,
      "3239": 4115,
      "d396": 4116,
      "006a": 4117,
      "3c2f": 4118,
      "6304": 4119,
      "bbc3": 4120,
      "4a75": 4121,
      "782f": 4122,
      "3438": 4123,
      "2f78": 4124,
      "0127": 4125,
      "0422": 4126,
      "00e4": 4127,
      "333a": 4128,
      "810c": 4129,
      "00a6": 4130,
      "00c6": 4131,
      "00d5": 4132,
      "3008": 4133,
      "3550": 4134,
      "007c": 4135,
      "3010": 4136,
      "4801": 4137,
      "f636": 4138,
      "012b": 4139,
      "bbe3": 4140,
      "3201": 4141,
      "0118": 4142,
      "1901": 4143,
      "8656": 4144,
      "a326": 4145,
      "96f6": 4146,
      "2303": 4147,
      "6453": 4148,
      "0059": 4149,
      "5369": 4150,
      "3046": 4151,
      "76c6": 4152,
      "01d0": 4153,
      "00fa": 4154,
      "7331": 4155,
      "6c2c": 4156,
      "bbdb": 4157,
      "2f70": 4158,
      "5036": 4159,
      "3a0d": 4160,
      "8002": 4161,
      "3023": 4162,
      "6666": 4163,
      "00e8": 4164,
      "1617": 4165,
      "7761": 4166,
      "4732": 4167,
      "006b": 4168,
      "bb12": 4169,
      "5361": 4170,
      "3616": 4171,
      "004d": 4172,
      "010d": 4173,
      "bbe5": 4174,
      "342d": 4175,
      "3338": 4176,
      "8202": 4177,
      "0830": 4178,
      "bbb6": 4179,
      "7880": 4180,
      "756d": 4181,
      "a2f2": 4182,
      "bbd6": 4183,
      "007f": 4184,
      "e656": 4185,
      "f001": 4186,
      "bbdc": 4187,
      "1676": 4188,
      "6f76": 4189,
      "5050": 4190,
      "0282": 4191,
      "ef3c": 4192,
      "005c": 4193,
      "0272": 4194,
      "2d4d": 4195,
      "2e72": 4196,
      "3501": 4197,
      "0480": 4198,
      "3180": 4199,
      "1a30": 4200,
      "3646": 4201,
      "00ea": 4202,
      "7263": 4203,
      "0a57": 4204,
      "8580": 4205,
      "0073": 4206,
      "f676": 4207,
      "076f": 4208,
      "bbaa": 4209,
      "bb88": 4210,
      "3301": 4211,
      "4730": 4212,
      "00cc": 4213,
      "3044": 4214,
      "00f9": 4215,
      "016c": 4216,
      "6166": 4217,
      "0168": 4218,
      "3110": 4219,
      "bbab": 4220,
      "3165": 4221,
      "6179": 4222,
      "fde7": 4223,
      "6f78": 4224,
      "bb9b": 4225,
      "00d4": 4226,
      "bba2": 4227,
      "0497": 4228,
      "32d7": 4229,
      "bbbb": 4230,
      "6781": 4231,
      "4c69": 4232,
      "0350": 4233,
      "383a": 4234,
      "bbce": 4235,
      "5020": 4236,
      "2880": 4237,
      "2f2a": 4238,
      "bbb4": 4239,
      "0a09": 4240,
      "6303": 4241,
      "0470": 4242,
      "5353": 4243,
      "bbd5": 4244,
      "3706": 4245,
      "656b": 4246,
      "02e4": 4247,
      "643d": 4248,
      "0052": 4249,
      "6616": 4250,
      "a06e": 4251,
      "0156": 4252,
      "00df": 4253,
      "3113": 4254,
      "5348": 4255,
      "bbb2": 4256,
      "3041": 4257,
      "8012": 4258,
      "2d77": 4259,
      "0057": 4260,
      "0813": 4261,
      "0a4e": 4262,
      "013b": 4263,
      "01c9": 4264,
      "3c01": 4265,
      "a436": 4266,
      "bbb8": 4267,
      "3632": 4268,
      "ec01": 4269,
      "b601": 4270,
      "0ff0": 4271,
      "00f7": 4272,
      "e617": 4273,
      "1d50": 4274,
      "00ef": 4275,
      "2066": 4276,
      "2070": 4277,
      "206b": 4278,
      "2036": 4279,
      "16c6": 4280,
      "6369": 4281,
      "2072": 4282,
      "76f6": 4283,
      "0610": 4284,
      "00dd": 4285,
      "4544": 4286,
      "00f8": 4287,
      "bba7": 4288,
      "008c": 4289,
      "bbe2": 4290,
      "3018": 4291,
      "2f32": 4292,
      "00d2": 4293,
      "00d7": 4294,
      "7903": 4295,
      "4841": 4296,
      "6c64": 4297,
      "3019": 4298,
      "bb8f": 4299,
      "0143": 4300,
      "3631": 4301,
      "3d22": 4302,
      "42d4": 4303,
      "5706": 4304,
      "5534": 4305,
      "bbb5": 4306,
      "00d3": 4307,
      "1076": 4308,
      "1802": 4309,
      "aa01": 4310,
      "a711": 4311,
      "2d45": 4312,
      "6f2d": 4313,
      "7403": 4314,
      "005a": 4315,
      "0312": 4316,
      "736c": 4317,
      "00f4": 4318,
      "3431": 4319,
      "1019": 4320,
      "0d32": 4321,
      "0086": 4322,
      "0290": 4323,
      "a555": 4324,
      "00e9": 4325,
      "3935": 4326,
      "2080": 4327,
      "0138": 4328,
      "50e4": 4329,
      "8401": 4330,
      "bb3c": 4331,
      "b2e9": 4332,
      "4280": 4333,
      "d780": 4334,
      "b2bb": 4335,
      "4c01": 4336,
      "3696": 4337,
      "7204": 4338,
      "075b": 4339,
      "0a58": 4340,
      "00de": 4341,
      "959a": 4342,
      "7380": 4343,
      "013f": 4344,
      "4650": 4345,
      "011f": 4346,
      "2d6e": 4347,
      "0f80": 4348,
      "101f": 4349,
      "bbc1": 4350,
      "cbb1": 4351,
      "4231": 4352,
      "4f4d": 4353,
      "3686": 4354,
      "796e": 4355,
      "bb97": 4356,
      "3164": 4357,
      "9fdc": 4358,
      "6569": 4359,
      "4530": 4360,
      "0134": 4361,
      "1814": 4362,
      "bbc4": 4363,
      "5652": 4364,
      "3116": 4365,
      "bb98": 4366,
      "1104": 4367,
      "2073": 4368,
      "3f69": 4369,
      "013e": 4370,
      "89c2": 4371,
      "2e65": 4372,
      "2062": 4373,
      "642d": 4374,
      "4d41": 4375,
      "cd7f": 4376,
      "10d0": 4377,
      "147d": 4378,
      "013d": 4379,
      "8aa7": 4380,
      "7430": 4381,
      "00b8": 4382,
      "bbde": 4383,
      "fe3a": 4384,
      "3303": 4385,
      "8a2a": 4386,
      "0114": 4387,
      "b880": 4388,
      "3bef": 4389,
      "ed89": 4390,
      "3aca": 4391,
      "3520": 4392,
      "1646": 4393,
      "7652": 4394,
      "0067": 4395,
      "2033": 4396,
      "13e3": 4397,
      "bb99": 4398,
      "302b": 4399,
      "0a54": 4400,
      "6463": 4401,
      "bbeb": 4402,
      "4697": 4403,
      "4302": 4404,
      "b1c5": 4405,
      "3ca7": 4406,
      "7870": 4407,
      "0af0": 4408,
      "6579": 4409,
      "9656": 4410,
      "b6af": 4411,
      "bbed": 4412,
      "f1cb": 4413,
      "bb81": 4414,
      "7075": 4415,
      "3939": 4416,
      "6575": 4417,
      "9a0a": 4418,
      "00ec": 4419,
      "586d": 4420,
      "bbea": 4421,
      "2d70": 4422,
      "fe80": 4423,
      "24f1": 4424,
      "013c": 4425,
      "0092": 4426,
      "1c01": 4427,
      "2a2f": 4428,
      "c099": 4429,
      "3043": 4430,
      "014c": 4431,
      "9880": 4432,
      "3122": 4433,
      "4f44": 4434,
      "bcb7": 4435,
      "1201": 4436,
      "46e7": 4437,
      "3a75": 4438,
      "8901": 4439,
      "612f": 4440,
      "02e3": 4441,
      "10b3": 4442,
      "726d": 4443,
      "f880": 4444,
      "6b6f": 4445,
      "c656": 4446,
      "7f81": 4447,
      "0427": 4448,
      "4d4f": 4449,
      "00b6": 4450,
      "44fe": 4451,
      "52f3": 4452,
      "6634": 4453,
      "300c": 4454,
      "b183": 4455,
      "3437": 4456,
      "0075": 4457,
      "2e69": 4458,
      "bba6": 4459,
      "0e01": 4460,
      "a7a5": 4461,
      "4946": 4462,
      "3c8a": 4463,
      "3726": 4464,
      "6d31": 4465,
      "4e9f": 4466,
      "2636": 4467,
      "0132": 4468,
      "8ecd": 4469,
      "bb9f": 4470,
      "dca7": 4471,
      "6768": 4472,
      "010e": 4473,
      "9958": 4474,
      "2180": 4475,
      "436c": 4476,
      "6f6b": 4477,
      "0309": 4478,
      "692e": 4479,
      "6abc": 4480,
      "c76a": 4481,
      "3834": 4482,
      "0a16": 4483,
      "332d": 4484,
      "722e": 4485,
      "ab80": 4486,
      "04d6": 4487,
      "11a2": 4488,
      "5617": 4489,
      "4f20": 4490,
      "b189": 4491,
      "ca3f": 4492,
      "0126": 4493,
      "32e3": 4494,
      "378e": 4495,
      "0123": 4496,
      "652c": 4497,
      "b344": 4498,
      "d24e": 4499,
      "8756": 4500,
      "5f24": 4501,
      "6275": 4502,
      "0125": 4503,
      "2627": 4504,
      "011d": 4505,
      "0443": 4506,
      "0145": 4507,
      "bbe8": 4508,
      "2ab3": 4509,
      "00b3": 4510,
      "0153": 4511,
      "5707": 4512,
      "6657": 4513,
      "4453": 4514,
      "3a8a": 4515,
      "76f0": 4516,
      "5a80": 4517,
      "1480": 4518,
      "9036": 4519,
      "2fcc": 4520,
      "81a8": 4521,
      "0167": 4522,
      "3543": 4523,
      "553c": 4524,
      "3a33": 4525,
      "0a4d": 4526,
      "768f": 4527,
      "0c0c": 4528,
      "00c8": 4529,
      "2380": 4530,
      "0147": 4531,
      "3028": 4532,
      "313b": 4533,
      "1a80": 4534,
      "c2c7": 4535,
      "d531": 4536,
      "6995": 4537,
      "008f": 4538,
      "2e6a": 4539,
      "3045": 4540,
      "7280": 4541,
      "6650": 4542,
      "56d6": 4543,
      "8b01": 4544,
      "b78a": 4545,
      "5324": 4546,
      "3551": 4547,
      "3465": 4548,
      "a2b1": 4549,
      "0a81": 4550,
      "0c80": 4551,
      "0adc": 4552,
      "44b6": 4553,
      "011a": 4554,
      "16c0": 4555,
      "00e2": 4556,
      "a7d5": 4557,
      "e43b": 4558,
      "030a": 4559,
      "bba9": 4560,
      "faf0": 4561,
      "a855": 4562,
      "6e78": 4563,
      "3537": 4564,
      "3064": 4565,
      "013a": 4566,
      "bb8e": 4567,
      "0a88": 4568,
      "2c01": 4569,
      "2a30": 4570,
      "2c04": 4571,
      "0152": 4572,
      "b010": 4573,
      "34e3": 4574,
      "6c0a": 4575,
      "004f": 4576,
      "a050": 4577,
      "3633": 4578,
      "101e": 4579,
      "3a80": 4580,
      "2d62": 4581,
      "00d8": 4582,
      "0144": 4583,
      "fc80": 4584,
      "2077": 4585,
      "4578": 4586,
      "0a9d": 4587,
      "180e": 4588,
      "d656": 4589,
      "bbe9": 4590,
      "414e": 4591,
      "0502": 4592,
      "0286": 4593,
      "a416": 4594,
      "bba5": 4595,
      "0320": 4596,
      "1180": 4597,
      "3617": 4598,
      "0139": 4599,
      "0a64": 4600,
      "8050": 4601,
      "8746": 4602,
      "4029": 4603,
      "0a7f": 4604,
      "35ee": 4605,
      "5746": 4606,
      "0650": 4607,
      "53a2": 4608,
      "e313": 4609,
      "009e": 4610,
      "bb8c": 4611,
      "1d11": 4612,
      "4401": 4613,
      "023c": 4614,
      "863e": 4615,
      "6263": 4616,
      "7730": 4617,
      "014b": 4618,
      "0146": 4619,
      "0082": 4620,
      "0129": 4621,
      "df74": 4622,
      "6d64": 4623,
      "7561": 4624,
      "3306": 4625,
      "0880": 4626,
      "bb92": 4627,
      "4702": 4628,
      "8080": 4629,
      "00d9": 4630,
      "2022": 4631,
      "c580": 4632,
      "3653": 4633,
      "304d": 4634,
      "6401": 4635,
      "4b01": 4636,
      "0a06": 4637,
      "bbbe": 4638,
      "7550": 4639,
      "205b": 4640,
      "5f68": 4641,
      "14d0": 4642,
      "3733": 4643,
      "0135": 4644,
      "6501": 4645,
      "bbaf": 4646,
      "736d": 4647,
      "0115": 4648,
      "6135": 4649,
      "0420": 4650,
      "bb8a": 4651,
      "6e75": 4652,
      "4536": 4653,
      "2e62": 4654,
      "0164": 4655,
      "c042": 4656,
      "666c": 4657,
      "9780": 4658,
      "e502": 4659,
      "300f": 4660,
      "1b30": 4661,
      "6672": 4662,
      "4d61": 4663,
      "6d0d": 4664,
      "0481": 4665,
      "6a80": 4666,
      "012d": 4667,
      "1312": 4668,
      "005e": 4669,
      "bbba": 4670,
      "0a67": 4671,
      "bbf3": 4672,
      "3801": 4673,
      "f150": 4674,
      "bb9d": 4675,
      "6162": 4676,
      "011e": 4677,
      "6537": 4678,
      "bb1a": 4679,
      "bbb7": 4680,
      "5053": 4681,
      "012a": 4682,
      "1b80": 4683,
      "624f": 4684,
      "4c6f": 4685,
      "f626": 4686,
      "6a70": 4687,
      "5950": 4688,
      "0555": 4689,
      "3432": 4690,
      "0148": 4691,
      "bbbd": 4692,
      "2d33": 4693,
      "0250": 4694,
      "2f43": 4695,
      "0863": 4696,
      "2f80": 4697,
      "3a72": 4698,
      "32d6": 4699,
      "4445": 4700,
      "5253": 4701,
      "7580": 4702,
      "56e6": 4703,
      "2850": 4704,
      "2d35": 4705,
      "1780": 4706,
      "7482": 4707,
      "0564": 4708,
      "0097": 4709,
      "6404": 4710,
      "f646": 4711,
      "d0a6": 4712,
      "0141": 4713,
      "0142": 4714,
      "008b": 4715,
      "0455": 4716,
      "e880": 4717,
      "d776": 4718,
      "005b": 4719,
      "bbb0": 4720,
      "6d2d": 4721,
      "5766": 4722,
      "a3d1": 4723,
      "3e80": 4724,
      "bbec": 4725,
      "5666": 4726,
      "6550": 4727,
      "70c0": 4728,
      "d107": 4729,
      "0c06": 4730,
      "0a0b": 4731,
      "b8ac": 4732,
      "d627": 4733,
      "2f54": 4734,
      "5506": 4735,
      "bba4": 4736,
      "440f": 4737,
      "42d3": 4738,
      "7030": 4739,
      "6334": 4740,
      "f480": 4741,
      "06e5": 4742,
      "014f": 4743,
      "5637": 4744,
      "6962": 4745,
      "2601": 4746,
      "c080": 4747,
      "0263": 4748,
      "b616": 4749,
      "4e80": 4750,
      "303b": 4751,
      "1727": 4752,
      "746c": 4753,
      "2b80": 4754,
      "f201": 4755,
      "5332": 4756,
      "0158": 4757,
      "dcc1": 4758,
      "311b": 4759,
      "bbb1": 4760,
      "7476": 4761,
      "1314": 4762,
      "2bbc": 4763,
      "014e": 4764,
      "0ec7": 4765,
      "1333": 4766,
      "ad80": 4767,
      "007e": 4768,
      "2673": 4769,
      "4b80": 4770,
      "ee80": 4771,
      "0a68": 4772,
      "d080": 4773,
      "bbac": 4774,
      "0909": 4775,
      "2d34": 4776,
      "6301": 4777,
      "ef80": 4778,
      "4443": 4779,
      "3962": 4780,
      "bb83": 4781,
      "3434": 4782,
      "bba3": 4783,
      "2617": 4784,
      "2e01": 4785,
      "a280": 4786,
      "9dd9": 4787,
      "6656": 4788,
      "0ae6": 4789,
      "f737": 4790,
      "6344": 4791,
      "015d": 4792,
      "323a": 4793,
      "3835": 4794,
      "6279": 4795,
      "9c01": 4796,
      "0a35": 4797,
      "e901": 4798,
      "5732": 4799,
      "4601": 4800,
      "2750": 4801,
      "9f80": 4802,
      "db01": 4803,
      "f008": 4804,
      "7480": 4805,
      "5480": 4806,
      "8384": 4807,
      "6775": 4808,
      "4180": 4809,
      "0605": 4810,
      "7301": 4811,
      "4680": 4812,
      "1906": 4813,
      "bbb3": 4814,
      "4f80": 4815,
      "696b": 4816,
      "2830": 4817,
      "c012": 4818,
      "bbc7": 4819,
      "2d72": 4820,
      "ff80": 4821,
      "23a2": 4822,
      "2065": 4823,
      "2863": 4824,
      "5465": 4825,
      "060a": 4826,
      "0098": 4827,
      "a080": 4828,
      "2506": 4829,
      "1206": 4830,
      "4301": 4831,
      "2711": 4832,
      "7042": 4833,
      "ed8a": 4834,
      "3063": 4835,
      "6631": 4836,
      "c02a": 4837,
      "8464": 4838,
      "2406": 4839,
      "380d": 4840,
      "10fa": 4841,
      "776f": 4842,
      "bba8": 4843,
      "9d50": 4844,
      "f101": 4845,
      "5642": 4846,
      "3350": 4847,
      "742c": 4848,
      "042c": 4849,
      "2064": 4850,
      "0373": 4851,
      "b060": 4852,
      "bb01": 4853,
      "302a": 4854,
      "bb96": 4855,
      "cc01": 4856,
      "2e38": 4857,
      "6720": 4858,
      "2e33": 4859,
      "1311": 4860,
      "2e6f": 4861,
      "a646": 4862,
      "0240": 4863,
      "be17": 4864,
      "16b6": 4865,
      "0099": 4866,
      "0323": 4867,
      "311a": 4868,
      "6c53": 4869,
      "f746": 4870,
      "4330": 4871,
      "5b2f": 4872,
      "7462": 4873,
      "304c": 4874,
      "009f": 4875,
      "3101": 4876,
      "93c2": 4877,
      "3049": 4878,
      "0769": 4879,
      "2301": 4880,
      "8650": 4881,
      "0573": 4882,
      "1701": 4883,
      "7961": 4884,
      "36c6": 4885,
      "2e68": 4886,
      "3980": 4887,
      "a687": 4888,
      "416d": 4889,
      "bb50": 4890,
      "83cc": 4891,
      "bb22": 4892,
      "3938": 4893,
      "4460": 4894,
      "6e76": 4895,
      "820f": 4896,
      "c173": 4897,
      "1c37": 4898,
      "1b01": 4899,
      "7c01": 4900,
      "4245": 4901,
      "26e3": 4902,
      "c617": 4903,
      "302c": 4904,
      "b380": 4905,
      "5680": 4906,
      "6567": 4907,
      "200d": 4908,
      "9d71": 4909,
      "6e6c": 4910,
      "e080": 4911,
      "5374": 4912,
      "7467": 4913,
      "8687": 4914,
      "2c65": 4915,
      "0332": 4916,
      "e350": 4917,
      "9b80": 4918,
      "2756": 4919,
      "009a": 4920,
      "4652": 4921,
      "8280": 4922,
      "3661": 4923,
      "a550": 4924,
      "114f": 4925,
      "0d50": 4926,
      "e001": 4927,
      "1ad8": 4928,
      "5350": 4929,
      "3936": 4930,
      "1082": 4931,
      "1280": 4932,
      "6e31": 4933,
      "0093": 4934,
      "3601": 4935,
      "005f": 4936,
      "3162": 4937,
      "4205": 4938,
      "0f32": 4939,
      "0a3c": 4940,
      "dc01": 4941,
      "0c03": 4942,
      "8301": 4943,
      "1194": 4944,
      "2801": 4945,
      "0680": 4946,
      "d757": 4947,
      "7080": 4948,
      "1212": 4949,
      "0185": 4950,
      "5380": 4951,
      "1343": 4952,
      "bbf9": 4953,
      "bb9e": 4954,
      "6b2e": 4955,
      "0508": 4956,
      "6577": 4957,
      "bb94": 4958,
      "3880": 4959,
      "6d67": 4960,
      "4541": 4961,
      "7b01": 4962,
      "2b01": 4963,
      "dfed": 4964,
      "820b": 4965,
      "0506": 4966,
      "ec80": 4967,
      "ae01": 4968,
      "5c01": 4969,
      "2067": 4970,
      "f736": 4971,
      "9704": 4972,
      "6532": 4973,
      "de50": 4974,
      "8630": 4975,
      "5636": 4976,
      "682e": 4977,
      "02f0": 4978,
      "3735": 4979,
      "008a": 4980,
      "2e75": 4981,
      "693e": 4982,
      "6601": 4983,
      "0585": 4984,
      "c280": 4985,
      "0a0a": 4986,
      "1060": 4987,
      "2480": 4988,
      "0351": 4989,
      "bbb9": 4990,
      "0565": 4991,
      "0e10": 4992,
      "fa80": 4993,
      "4c0a": 4994,
      "2580": 4995,
      "3446": 4996,
      "3040": 4997,
      "00b7": 4998,
      "9580": 4999,
      "1401": 5000,
      "a880": 5001,
      "a535": 5002,
      "cc80": 5003,
      "006d": 5004,
      "f766": 5005,
      "0330": 5006,
      "0365": 5007,
      "3024": 5008,
      "f6e3": 5009,
      "7653": 5010,
      "3680": 5011,
      "5055": 5012,
      "1980": 5013,
      "2d38": 5014,
      "0e80": 5015,
      "6680": 5016,
      "ff50": 5017,
      "bb66": 5018,
      "c02e": 5019,
      "c6f6": 5020,
      "0a15": 5021,
      "bb17": 5022,
      "bb95": 5023,
      "9680": 5024,
      "2083": 5025,
      "01b0": 5026,
      "b080": 5027,
      "0a40": 5028,
      "2a80": 5029,
      "00ba": 5030,
      "6175": 5031,
      "bb08": 5032,
      "7673": 5033,
      "0166": 5034,
      "42e6": 5035,
      "0121": 5036,
      "2c61": 5037,
      "25d6": 5038,
      "4780": 5039,
      "cd01": 5040,
      "a401": 5041,
      "2306": 5042,
      "e280": 5043,
      "3246": 5044,
      "46c7": 5045,
      "2829": 5046,
      "6a30": 5047,
      "8c01": 5048,
      "4669": 5049,
      "9d27": 5050,
      "5040": 5051,
      "0a12": 5052,
      "f647": 5053,
      "006c": 5054,
      "2f0d": 5055,
      "3a6c": 5056,
      "65c0": 5057,
      "0482": 5058,
      "00bb": 5059,
      "0980": 5060,
      "f580": 5061,
      "ed80": 5062,
      "2280": 5063,
      "6d2c": 5064,
      "ac6f": 5065,
      "2680": 5066,
      "8101": 5067,
      "0512": 5068,
      "00bf": 5069,
      "3a01": 5070,
      "3663": 5071,
      "1580": 5072,
      "f501": 5073,
      "1c48": 5074,
      "726b": 5075,
      "6403": 5076,
      "e333": 5077,
      "8880": 5078,
      "bbef": 5079,
      "0597": 5080,
      "da80": 5081,
      "4644": 5082,
      "220d": 5083,
      "04c6": 5084,
      "3485": 5085,
      "3125": 5086,
      "8480": 5087,
      "0a36": 5088,
      "a380": 5089,
      "0742": 5090,
      "05f2": 5091,
      "50c2": 5092,
      "3837": 5093,
      "b31f": 5094,
      "7266": 5095,
      "6c80": 5096,
      "0096": 5097,
      "0aa2": 5098,
      "b4b2": 5099,
      "bb91": 5100,
      "0445": 5101,
      "670d": 5102,
      "8313": 5103,
      "5657": 5104,
      "018f": 5105,
      "9080": 5106,
      "3639": 5107,
      "102a": 5108,
      "b334": 5109,
      "6b03": 5110,
      "7650": 5111,
      "f6d6": 5112,
      "372d": 5113,
      "26d6": 5114,
      "0a6d": 5115,
      "005d": 5116,
      "c636": 5117,
      "b780": 5118,
      "7974": 5119,
      "80a0": 5120,
      "3562": 5121,
      "a847": 5122,
      "6e3d": 5123,
      "6232": 5124,
      "1940": 5125,
      "6f2f": 5126,
      "353a": 5127,
      "9d80": 5128,
      "820e": 5129,
      "5532": 5130,
      "5201": 5131,
      "3b01": 5132,
      "2d50": 5133,
      "3839": 5134,
      "03ab": 5135,
      "e036": 5136,
      "c801": 5137,
      "682d": 5138,
      "3060": 5139,
      "df80": 5140,
      "10f9": 5141,
      "106c": 5142,
      "ea03": 5143,
      "4793": 5144,
      "7180": 5145,
      "6801": 5146,
      "5f64": 5147,
      "9701": 5148,
      "98d0": 5149,
      "4345": 5150,
      "393a": 5151,
      "0198": 5152,
      "9cdf": 5153,
      "e732": 5154,
      "5741": 5155,
      "413b": 5156,
      "6872": 5157,
      "7578": 5158,
      "5401": 5159,
      "3515": 5160,
      "7f80": 5161,
      "33be": 5162,
      "4f63": 5163,
      "2c68": 5164,
      "2780": 5165,
      "6280": 5166,
      "6209": 5167,
      "1443": 5168,
      "0530": 5169,
      "5e80": 5170,
      "6e66": 5171,
      "3765": 5172,
      "2b37": 5173,
      "c11f": 5174,
      "fffe": 5175,
      "6772": 5176,
      "4480": 5177,
      "b16c": 5178,
      "5f75": 5179,
      "6638": 5180,
      "bb3e": 5181,
      "e201": 5182,
      "1c20": 5183,
      "1133": 5184,
      "6329": 5185,
      "0591": 5186,
      "697e": 5187,
      "0390": 5188,
      "12c0": 5189,
      "7601": 5190,
      "303d": 5191,
      "4afc": 5192,
      "ba80": 5193,
      "af80": 5194,
      "5b5b": 5195,
      "2f9c": 5196,
      "2a3f": 5197,
      "017c": 5198,
      "00a4": 5199,
      "3717": 5200,
      "b201": 5201,
      "4436": 5202,
      "d657": 5203,
      "bb89": 5204,
      "e673": 5205,
      "3933": 5206,
      "0207": 5207,
      "4145": 5208,
      "de80": 5209,
      "e480": 5210,
      "40d0": 5211,
      "9e8b": 5212,
      "bbae": 5213,
      "0afb": 5214,
      "2630": 5215,
      "bb82": 5216,
      "312f": 5217,
      "4502": 5218,
      "5265": 5219,
      "52e3": 5220,
      "e380": 5221,
      "be80": 5222,
      "7b73": 5223,
      "42c0": 5224,
      "206f": 5225,
      "e401": 5226,
      "8ffc": 5227,
      "2806": 5228,
      "3a66": 5229,
      "3b80": 5230,
      "ca80": 5231,
      "2369": 5232,
      "35c1": 5233,
      "5769": 5234,
      "6676": 5235,
      "4944": 5236,
      "fc7f": 5237,
      "ce80": 5238,
      "c680": 5239,
      "a204": 5240,
      "c301": 5241,
      "4c50": 5242,
      "8c80": 5243,
      "06f7": 5244,
      "bb05": 5245,
      "3580": 5246,
      "3734": 5247,
      "82b4": 5248,
      "a310": 5249,
      "6d01": 5250,
      "e301": 5251,
      "403d": 5252,
      "a980": 5253,
      "7203": 5254,
      "b150": 5255,
      "c980": 5256,
      "0808": 5257,
      "9df9": 5258,
      "82d3": 5259,
      "2e79": 5260,
      "763a": 5261,
      "33a2": 5262,
      "5335": 5263,
      "9676": 5264,
      "c401": 5265,
      "eb80": 5266,
      "2056": 5267,
      "b480": 5268,
      "1e30": 5269,
      "6571": 5270,
      "0aea": 5271,
      "c6fc": 5272,
      "ccaa": 5273,
      "bb8d": 5274,
      "9d01": 5275,
      "2f6c": 5276,
      "6663": 5277,
      "0c09": 5278,
      "e150": 5279,
      "02d2": 5280,
      "00a5": 5281,
      "3280": 5282,
      "1bab": 5283,
      "292a": 5284,
      "203c": 5285,
      "782e": 5286,
      "3740": 5287,
      "4142": 5288,
      "7175": 5289,
      "7e1d": 5290,
      "c780": 5291,
      "ac01": 5292,
      "b002": 5293,
      "6535": 5294,
      "6320": 5295,
      "00ad": 5296,
      "f280": 5297,
      "2910": 5298,
      "2e6c": 5299,
      "d35b": 5300,
      "7401": 5301,
      "3846": 5302,
      "d18d": 5303,
      "2d75": 5304,
      "8d2f": 5305,
      "9212": 5306,
      "3f80": 5307,
      "c6e8": 5308,
      "3650": 5309,
      "4444": 5310,
      "c480": 5311,
      "b040": 5312,
      "4531": 5313,
      "d280": 5314,
      "9566": 5315,
      "4701": 5316,
      "f680": 5317,
      "2d69": 5318,
      "7333": 5319,
      "2bbf": 5320,
      "2a0d": 5321,
      "b580": 5322,
      "6082": 5323,
      "0a11": 5324,
      "3901": 5325,
      "1e41": 5326,
      "0803": 5327,
      "03d4": 5328,
      "2616": 5329,
      "8272": 5330,
      "8680": 5331,
      "1643": 5332,
      "0a19": 5333,
      "d401": 5334,
      "008e": 5335,
      "6c03": 5336,
      "0260": 5337,
      "e310": 5338,
      "7444": 5339,
      "702c": 5340,
      "c501": 5341,
      "bbf2": 5342,
      "6d44": 5343,
      "8052": 5344,
      "1af5": 5345,
      "b280": 5346,
      "5722": 5347,
      "0556": 5348,
      "f380": 5349,
      "0c61": 5350,
      "5c80": 5351,
      "0656": 5352,
      "7a50": 5353,
      "e89d": 5354,
      "3061": 5355,
      "3d80": 5356,
      "0f30": 5357,
      "0094": 5358,
      "3042": 5359,
      "2a01": 5360,
      "a7ff": 5361,
      "02c0": 5362,
      "2550": 5363,
      "03a2": 5364,
      "e730": 5365,
      "503a": 5366,
      "8d80": 5367,
      "ae80": 5368,
      "3149": 5369,
      "bb90": 5370,
      "8150": 5371,
      "5b23": 5372,
      "249c": 5373,
      "0550": 5374,
      "f080": 5375,
      "0a51": 5376,
      "d010": 5377,
      "2d55": 5378,
      "4476": 5379,
      "4164": 5380,
      "9e80": 5381,
      "25a0": 5382,
      "e180": 5383,
      "02ff": 5384,
      "1b1e": 5385,
      "0767": 5386,
      "0630": 5387,
      "4501": 5388,
      "a580": 5389,
      "ce58": 5390,
      "e646": 5391,
      "0aff": 5392,
      "8595": 5393,
      "fe88": 5394,
      "82c4": 5395,
      "0a37": 5396,
      "83b5": 5397,
      "4366": 5398,
      "016d": 5399,
      "bb1b": 5400,
      "9480": 5401,
      "896d": 5402,
      "1247": 5403,
      "8138": 5404,
      "4ffe": 5405,
      "7d01": 5406,
      "0a59": 5407,
      "0f50": 5408,
      "af50": 5409,
      "b73b": 5410,
      "4550": 5411,
      "113f": 5412,
      "27d5": 5413,
      "1036": 5414,
      "0adb": 5415,
      "9280": 5416,
      "0726": 5417,
      "3021": 5418,
      "5280": 5419,
      "7680": 5420,
      "1daa": 5421,
      "12b7": 5422,
      "0163": 5423,
      "1e80": 5424,
      "ac73": 5425,
      "6f80": 5426,
      "7177": 5427,
      "4e4f": 5428,
      "3e53": 5429,
      "9c80": 5430,
      "e96c": 5431,
      "00c7": 5432,
      "eece": 5433,
      "d601": 5434,
      "21ac": 5435,
      "22e6": 5436,
      "7a01": 5437,
      "8a01": 5438,
      "3401": 5439,
      "aed1": 5440,
      "4cb2": 5441,
      "c45b": 5442,
      "2766": 5443,
      "e980": 5444,
      "7a80": 5445,
      "5720": 5446,
      "5b93": 5447,
      "1ed3": 5448,
      "2d80": 5449,
      "6f54": 5450,
      "4672": 5451,
      "0616": 5452,
      "db83": 5453,
      "8a80": 5454,
      "2530": 5455,
      "b8db": 5456,
      "4d50": 5457,
      "00d1": 5458,
      "350d": 5459,
      "a3c1": 5460,
      "2215": 5461,
      "686d": 5462,
      "4880": 5463,
      "971e": 5464,
      "a480": 5465,
      "5330": 5466,
      "3665": 5467,
      "b6a8": 5468,
      "3920": 5469,
      "d98a": 5470,
      "9398": 5471,
      "6ab3": 5472,
      "5b25": 5473,
      "66b8": 5474,
      "8f80": 5475,
      "4203": 5476,
      "3739": 5477,
      "ed5e": 5478,
      "3e0a": 5479,
      "fea2": 5480,
      "bc80": 5481,
      "d880": 5482,
      "fc6a": 5483,
      "9ce8": 5484,
      "0a47": 5485,
      "aa75": 5486,
      "6980": 5487,
      "1fb6": 5488,
      "4353": 5489,
      "7ac0": 5490,
      "7a65": 5491,
      "aaaa": 5492,
      "7302": 5493,
      "4144": 5494,
      "1808": 5495,
      "4703": 5496,
      "4152": 5497,
      "4e71": 5498,
      "0191": 5499,
      "4630": 5500,
      "aac6": 5501,
      "a701": 5502,
      "0b50": 5503,
      "aa80": 5504,
      "2086": 5505,
      "3206": 5506,
      "4e01": 5507,
      "bbfa": 5508,
      "b680": 5509,
      "1ec0": 5510,
      "c931": 5511,
      "05cd": 5512,
      "0b80": 5513,
      "3209": 5514,
      "8e80": 5515,
      "46c6": 5516,
      "e801": 5517,
      "3c72": 5518,
      "b5bc": 5519,
      "2e80": 5520,
      "e19b": 5521,
      "3bae": 5522,
      "8a20": 5523,
      "cd80": 5524,
      "8e01": 5525,
      "c017": 5526,
      "582d": 5527,
      "8950": 5528,
      "0765": 5529,
      "3882": 5530,
      "e680": 5531,
      "8210": 5532,
      "d180": 5533,
      "677a": 5534,
      "cc86": 5535,
      "0a62": 5536,
      "8769": 5537,
      "4e65": 5538,
      "f777": 5539,
      "bb93": 5540,
      "43b2": 5541,
      "c026": 5542,
      "0a8b": 5543,
      "c00f": 5544,
      "0fa0": 5545,
      "d680": 5546,
      "5736": 5547,
      "a85b": 5548,
      "e101": 5549,
      "1736": 5550,
      "bb16": 5551,
      "373a": 5552,
      "0b01": 5553,
      "3480": 5554,
      "ca01": 5555,
      "5880": 5556,
      "29ee": 5557,
      "d6e0": 5558,
      "7189": 5559,
      "6040": 5560,
      "13d3": 5561,
      "290f": 5562,
      "22b4": 5563,
      "5d80": 5564,
      "0aa8": 5565,
      "36c0": 5566,
      "bd80": 5567,
      "0384": 5568,
      "ff2b": 5569,
      "e011": 5570,
      "df01": 5571,
      "0a93": 5572,
      "f780": 5573,
      "bbfc": 5574,
      "c24a": 5575,
      "dc80": 5576,
      "5ec9": 5577,
      "692c": 5578,
      "c4e8": 5579,
      "6880": 5580,
      "859d": 5581,
      "1a01": 5582,
      "e3c6": 5583,
      "be05": 5584,
      "0a2f": 5585,
      "00af": 5586,
      "008d": 5587,
      "2a3a": 5588,
      "2d74": 5589,
      "5882": 5590,
      "7772": 5591,
      "4772": 5592,
      "3eb5": 5593,
      "e7a9": 5594,
      "ce50": 5595,
      "7e80": 5596,
      "bb8b": 5597,
      "12fe": 5598,
      "bc22": 5599,
      "9980": 5600,
      "5469": 5601,
      "8b80": 5602,
      "ff30": 5603,
      "792f": 5604,
      "2401": 5605,
      "e321": 5606,
      "6e6b": 5607,
      "ac80": 5608,
      "e780": 5609,
      "5d49": 5610,
      "6080": 5611,
      "8bdf": 5612,
      "f113": 5613,
      "016a": 5614,
      "3ef4": 5615,
      "3f01": 5616,
      "7f04": 5617,
      "e677": 5618,
      "c616": 5619,
      "7ee9": 5620,
      "9d9d": 5621,
      "030c": 5622,
      "bca7": 5623,
      "4980": 5624,
      "4659": 5625,
      "b180": 5626,
      "a736": 5627,
      "9e01": 5628,
      "075f": 5629,
      "1f3f": 5630,
      "8060": 5631,
      "c697": 5632,
      "0763": 5633,
      "32c0": 5634,
      "a180": 5635,
      "0473": 5636,
      "d310": 5637,
      "d480": 5638,
      "3937": 5639,
      "6380": 5640,
      "0189": 5641,
      "8980": 5642,
      "b973": 5643,
      "5780": 5644,
      "a626": 5645,
      "7706": 5646,
      "7980": 5647,
      "6b72": 5648,
      "c180": 5649,
      "7d4f": 5650,
      "6130": 5651,
      "dfef": 5652,
      "c4b4": 5653,
      "1601": 5654,
      "6201": 5655,
      "76b1": 5656,
      "50e3": 5657,
      "5379": 5658,
      "00a7": 5659,
      "6850": 5660,
      "7330": 5661,
      "7d80": 5662,
      "4750": 5663,
      "2f69": 5664,
      "9a80": 5665,
      "7b80": 5666,
      "e216": 5667,
      "3150": 5668,
      "4752": 5669,
      "1272": 5670,
      "9380": 5671,
      "d201": 5672,
      "04ac": 5673,
      "0664": 5674,
      "bbff": 5675,
      "bbfb": 5676,
      "73a2": 5677,
      "5d87": 5678,
      "b517": 5679,
      "7d38": 5680,
      "f2f6": 5681,
      "f41c": 5682,
      "9757": 5683,
      "400c": 5684,
      "05b0": 5685,
      "3380": 5686,
      "544e": 5687,
      "8380": 5688,
      "b25d": 5689,
      "c011": 5690,
      "e3c2": 5691,
      "a101": 5692,
      "686e": 5693,
      "6d06": 5694,
      "c880": 5695,
      "90fa": 5696,
      "4150": 5697,
      "a901": 5698,
      "c19d": 5699,
      "3dd7": 5700,
      "c150": 5701,
      "ee01": 5702,
      "3e3c": 5703,
      "ba01": 5704,
      "414b": 5705,
      "ef50": 5706,
      "bd50": 5707,
      "0161": 5708,
      "e93d": 5709,
      "c746": 5710,
      "29bc": 5711,
      "d980": 5712,
      "0291": 5713,
      "7c80": 5714,
      "167d": 5715,
      "6978": 5716,
      "7376": 5717,
      "73c0": 5718,
      "d87e": 5719,
      "6430": 5720,
      "c11b": 5721,
      "820d": 5722,
      "1f80": 5723,
      "69c5": 5724,
      "2683": 5725,
      "97b2": 5726,
      "4c80": 5727,
      "3780": 5728,
      "1b2f": 5729,
      "5468": 5730,
      "e550": 5731,
      "d901": 5732,
      "2250": 5733,
      "7780": 5734,
      "5150": 5735,
      "f115": 5736,
      "4243": 5737,
      "2205": 5738,
      "a801": 5739,
      "7231": 5740,
      "2a20": 5741,
      "fb80": 5742,
      "3e01": 5743,
      "534c": 5744,
      "1f27": 5745,
      "5562": 5746,
      "00c9": 5747,
      "4930": 5748,
      "1450": 5749,
      "faca": 5750,
      "9550": 5751,
      "bf80": 5752,
      "e250": 5753,
      "6632": 5754,
      "00a2": 5755,
      "bbf7": 5756,
      "1380": 5757,
      "4020": 5758,
      "0873": 5759,
      "534d": 5760,
      "0071": 5761,
      "4431": 5762,
      "4272": 5763,
      "2d36": 5764,
      "d592": 5765,
      "6350": 5766,
      "c02d": 5767,
      "18ff": 5768,
      "d850": 5769,
      "2a29": 5770,
      "d09e": 5771,
      "15a2": 5772,
      "2f98": 5773,
      "c5b1": 5774,
      "983e": 5775,
      "83d0": 5776,
      "8214": 5777,
      "0095": 5778,
      "1c47": 5779,
      "03c0": 5780,
      "d544": 5781,
      "6c02": 5782,
      "7973": 5783,
      "56e2": 5784,
      "0f29": 5785,
      "0960": 5786,
      "06e7": 5787,
      "a680": 5788,
      "4b45": 5789,
      "e701": 5790,
      "6f03": 5791,
      "0081": 5792,
      "3b30": 5793,
      "46f7": 5794,
      "5313": 5795,
      "03cc": 5796,
      "ed01": 5797,
      "4580": 5798,
      "76dd": 5799,
      "be01": 5800,
      "4172": 5801,
      "0750": 5802,
      "2201": 5803,
      "9950": 5804,
      "7201": 5805,
      "00bc": 5806,
      "a150": 5807,
      "2533": 5808,
      "dd12": 5809,
      "4d80": 5810,
      "7820": 5811,
      "48fa": 5812,
      "fb01": 5813,
      "a219": 5814,
      "1045": 5815,
      "b7d5": 5816,
      "0468": 5817,
      "4830": 5818,
      "190a": 5819,
      "0687": 5820,
      "8211": 5821,
      "2906": 5822,
      "d950": 5823,
      "96c6": 5824,
      "0569": 5825,
      "ca84": 5826,
      "1047": 5827,
      "6854": 5828,
      "c687": 5829,
      "4a02": 5830,
      "9401": 5831,
      "d203": 5832,
      "0264": 5833,
      "015f": 5834,
      "d6c3": 5835,
      "f114": 5836,
      "6474": 5837,
      "5650": 5838,
      "1081": 5839,
      "2e66": 5840,
      "7101": 5841,
      "bf50": 5842,
      "148a": 5843,
      "8085": 5844,
      "7150": 5845,
      "0677": 5846,
      "c950": 5847,
      "6ec0": 5848,
      "6150": 5849,
      "626d": 5850,
      "f951": 5851,
      "636e": 5852,
      "3a50": 5853,
      "0820": 5854,
      "7c1c": 5855,
      "b050": 5856,
      "0155": 5857,
      "6c7b": 5858,
      "f401": 5859,
      "1903": 5860,
      "3950": 5861,
      "c101": 5862,
      "3934": 5863,
      "2980": 5864,
      "e6b7": 5865,
      "4d30": 5866,
      "89a8": 5867,
      "5101": 5868,
      "6953": 5869,
      "3420": 5870,
      "bcd8": 5871,
      "0079": 5872,
      "bb42": 5873,
      "0a42": 5874,
      "3362": 5875,
      "c040": 5876,
      "fcff": 5877,
      "0f54": 5878,
      "d301": 5879,
      "007d": 5880,
      "2b2a": 5881,
      "6b80": 5882,
      "4380": 5883,
      "a3c2": 5884,
      "10fe": 5885,
      "02d0": 5886,
      "1d01": 5887,
      "0697": 5888,
      "a301": 5889,
      "e450": 5890,
      "0657": 5891,
      "2701": 5892,
      "5072": 5893,
      "2150": 5894,
      "0fe0": 5895,
      "15c8": 5896,
      "b650": 5897,
      "130d": 5898,
      "6437": 5899,
      "6435": 5900,
      "0706": 5901,
      "f180": 5902,
      "45f6": 5903,
      "1696": 5904,
      "3022": 5905,
      "1e01": 5906,
      "1317": 5907,
      "7e01": 5908,
      "c2f7": 5909,
      "a010": 5910,
      "3406": 5911,
      "17d4": 5912,
      "3701": 5913,
      "1304": 5914,
      "0f06": 5915,
      "12e2": 5916,
      "cd50": 5917,
      "2da0": 5918,
      "bbfd": 5919,
      "1275": 5920,
      "0670": 5921,
      "f6e2": 5922,
      "110e": 5923,
      "6086": 5924,
      "f850": 5925,
      "6106": 5926,
      "6e3b": 5927,
      "6630": 5928,
      "2968": 5929,
      "0aef": 5930,
      "5320": 5931,
      "4a80": 5932,
      "dd50": 5933,
      "5f66": 5934,
      "a250": 5935,
      "8a23": 5936,
      "6103": 5937,
      "d250": 5938,
      "00be": 5939,
      "00c1": 5940,
      "0aa1": 5941,
      "0d80": 5942,
      "b657": 5943,
      "c010": 5944,
      "cb50": 5945,
      "5627": 5946,
      "7d50": 5947,
      "ee50": 5948,
      "b101": 5949,
      "732c": 5950,
      "b901": 5951,
      "e71b": 5952,
      "1d80": 5953,
      "7879": 5954,
      "7f01": 5955,
      "ad50": 5956,
      "8d50": 5957,
      "8d5d": 5958,
      "ea80": 5959,
      "1741": 5960,
      "cf80": 5961,
      "6002": 5962,
      "22d3": 5963,
      "0352": 5964,
      "4f50": 5965,
      "3d61": 5966,
      "03a0": 5967,
      "5d01": 5968,
      "a85e": 5969,
      "5580": 5970,
      "acd9": 5971,
      "043d": 5972,
      "9150": 5973,
      "6f61": 5974,
      "df50": 5975,
      "1b15": 5976,
      "2746": 5977,
      "2c21": 5978,
      "3d36": 5979,
      "4333": 5980,
      "53a6": 5981,
      "4970": 5982,
      "02e0": 5983,
      "ca04": 5984,
      "f901": 5985,
      "6230": 5986,
      "9180": 5987,
      "4f57": 5988,
      "bbf1": 5989,
      "0450": 5990,
      "4637": 5991,
      "5980": 5992,
      "291b": 5993,
      "5e01": 5994,
      "1637": 5995,
      "131e": 5996,
      "2650": 5997,
      "7306": 5998,
      "cb01": 5999,
      "c653": 6000,
      "d4c6": 6001,
      "b301": 6002,
      "6454": 6003,
      "d547": 6004,
      "de01": 6005,
      "0733": 6006,
      "da50": 6007,
      "0dae": 6008,
      "afc9": 6009,
      "2040": 6010,
      "4603": 6011,
      "0850": 6012,
      "0415": 6013,
      "9c2b": 6014,
      "d789": 6015,
      "00a9": 6016,
      "2353": 6017,
      "6e01": 6018,
      "5c50": 6019,
      "2b78": 6020,
      "fe50": 6021,
      "0617": 6022,
      "0442": 6023,
      "6580": 6024,
      "30a0": 6025,
      "5d4b": 6026,
      "fd50": 6027,
      "4a50": 6028,
      "e616": 6029,
      "0ada": 6030,
      "882d": 6031,
      "4950": 6032,
      "0a56": 6033,
      "26f7": 6034,
      "f637": 6035,
      "f6d2": 6036,
      "0a2b": 6037,
      "df43": 6038,
      "0b73": 6039,
      "d46c": 6040,
      "7774": 6041,
      "6101": 6042,
      "433d": 6043,
      "01ed": 6044,
      "00a1": 6045,
      "5250": 6046,
      "7501": 6047,
      "dae7": 6048,
      "301b": 6049,
      "7868": 6050,
      "36b0": 6051,
      "cb80": 6052,
      "5f01": 6053,
      "4d01": 6054,
      "8250": 6055,
      "7004": 6056,
      "f550": 6057,
      "30ff": 6058,
      "bb10": 6059,
      "4131": 6060,
      "c3e0": 6061,
      "0607": 6062,
      "6780": 6063,
      "2085": 6064,
      "5081": 6065,
      "2737": 6066,
      "23e0": 6067,
      "96e7": 6068,
      "dfb8": 6069,
      "5f80": 6070,
      "d060": 6071,
      "43e3": 6072,
      "fd01": 6073,
      "1647": 6074,
      "9804": 6075,
      "6a50": 6076,
      "7304": 6077,
      "bffc": 6078,
      "0474": 6079,
      "00cb": 6080,
      "06c6": 6081,
      "0af6": 6082,
      "040e": 6083,
      "c206": 6084,
      "1868": 6085,
      "a601": 6086,
      "9736": 6087,
      "4901": 6088,
      "0223": 6089,
      "2b30": 6090,
      "23e3": 6091,
      "d707": 6092,
      "00b2": 6093,
      "616f": 6094,
      "53e3": 6095,
      "5b50": 6096,
      "00a8": 6097,
      "0a91": 6098,
      "5601": 6099,
      "4903": 6100,
      "ac50": 6101,
      "0440": 6102,
      "3161": 6103,
      "d016": 6104,
      "bb0f": 6105,
      "3313": 6106,
      "8450": 6107,
      "2e50": 6108,
      "0a18": 6109,
      "abab": 6110,
      "5301": 6111,
      "9a01": 6112,
      "2d6c": 6113,
      "672d": 6114,
      "5787": 6115,
      "9d6f": 6116,
      "2c30": 6117,
      "92e6": 6118,
      "2b50": 6119,
      "b701": 6120,
      "041c": 6121,
      "6820": 6122,
      "1550": 6123,
      "1cc4": 6124,
      "d150": 6125,
      "633a": 6126,
      "05ff": 6127,
      "9201": 6128,
      "3561": 6129,
      "0fc0": 6130,
      "7930": 6131,
      "6e80": 6132,
      "fc01": 6133,
      "5702": 6134,
      "32c6": 6135,
      "066d": 6136,
      "c793": 6137,
      "ea01": 6138,
      "7865": 6139,
      "4036": 6140,
      "5456": 6141,
      "dd1e": 6142,
      "6d50": 6143,
      "cc95": 6144,
      "6207": 6145,
      "bb09": 6146,
      "030b": 6147,
      "7206": 6148,
      "cd55": 6149,
      "6530": 6150,
      "b750": 6151,
      "3d50": 6152,
      "8601": 6153,
      "4446": 6154,
      "048e": 6155,
      "0206": 6156,
      "2950": 6157,
      "fd78": 6158,
      "0570": 6159,
      "2096": 6160,
      "00ae": 6161,
      "18fa": 6162,
      "1726": 6163,
      "0091": 6164,
      "0c05": 6165,
      "4b30": 6166,
      "412e": 6167,
      "2014": 6168,
      "958a": 6169,
      "93e0": 6170,
      "a02d": 6171,
      "ca50": 6172,
      "740d": 6173,
      "2857": 6174,
      "66b3": 6175,
      "730a": 6176,
      "4555": 6177,
      "9e50": 6178,
      "0627": 6179,
      "dd80": 6180,
      "b501": 6181,
      "3066": 6182,
      "6f50": 6183,
      "6092": 6184,
      "2060": 6185,
      "d302": 6186,
      "3f06": 6187,
      "5f73": 6188,
      "1950": 6189,
      "0b7d": 6190,
      "2670": 6191,
      "8d01": 6192,
      "bb44": 6193,
      "4f54": 6194,
      "d696": 6195,
      "0a03": 6196,
      "5343": 6197,
      "e650": 6198,
      "4d0c": 6199,
      "7450": 6200,
      "01f0": 6201,
      "303e": 6202,
      "3070": 6203,
      "8393": 6204,
      "6a01": 6205,
      "1150": 6206,
      "4173": 6207,
      "300a": 6208,
      "0423": 6209,
      "2706": 6210,
      "26c6": 6211,
      "2d06": 6212,
      "af01": 6213,
      "bb74": 6214,
      "6c75": 6215,
      "0c0d": 6216,
      "3c0a": 6217,
      "3a06": 6218,
      "1e50": 6219,
      "5701": 6220,
      "3d32": 6221,
      "3346": 6222,
      "b801": 6223,
      "8320": 6224,
      "e804": 6225,
      "6c2b": 6226,
      "131c": 6227,
      "72e6": 6228,
      "8212": 6229,
      "518d": 6230,
      "363a": 6231,
      "3261": 6232,
      "00c3": 6233,
      "00bd": 6234,
      "a450": 6235,
      "730d": 6236,
      "5261": 6237,
      "a780": 6238,
      "f701": 6239,
      "0383": 6240,
      "1c50": 6241,
      "1e23": 6242,
      "bb07": 6243,
      "f650": 6244,
      "1bf1": 6245,
      "8e50": 6246,
      "dd01": 6247,
      "ec50": 6248,
      "d050": 6249,
      "ea50": 6250,
      "6165": 6251,
      "f0d0": 6252,
      "382f": 6253,
      "8750": 6254,
      "6180": 6255,
      "5801": 6256,
      "dee9": 6257,
      "7801": 6258,
      "e2d6": 6259,
      "a950": 6260,
      "fc50": 6261,
      "eff6": 6262,
      "c601": 6263,
      "f6e8": 6264,
      "a86d": 6265,
      "0aa7": 6266,
      "5e50": 6267,
      "8617": 6268,
      "f980": 6269,
      "0673": 6270,
      "b450": 6271,
      "310f": 6272,
      "9d38": 6273,
      "7657": 6274,
      "00c2": 6275,
      "416f": 6276,
      "e750": 6277,
      "6250": 6278,
      "5b80": 6279,
      "3127": 6280,
      "73a7": 6281,
      "b850": 6282,
      "2501": 6283,
      "8e95": 6284,
      "2b86": 6285,
      "6950": 6286,
      "056d": 6287,
      "392c": 6288,
      "4442": 6289,
      "05f8": 6290,
      "293a": 6291,
      "bd01": 6292,
      "374e": 6293,
      "6c33": 6294,
      "536f": 6295,
      "50cc": 6296,
      "cd57": 6297,
      "4d4c": 6298,
      "2d01": 6299,
      "9901": 6300,
      "4742": 6301,
      "8629": 6302,
      "46f6": 6303,
      "310a": 6304,
      "bb57": 6305,
      "0162": 6306,
      "1071": 6307,
      "1840": 6308,
      "c620": 6309,
      "1732": 6310,
      "0a04": 6311,
      "6c34": 6312,
      "1313": 6313,
      "33a3": 6314,
      "d550": 6315,
      "22b3": 6316,
      "c037": 6317,
      "2736": 6318,
      "bb35": 6319,
      "0464": 6320,
      "2268": 6321,
      "aa50": 6322,
      "0561": 6323,
      "f6e0": 6324,
      "b250": 6325,
      "9617": 6326,
      "5245": 6327,
      "0646": 6328,
      "74c0": 6329,
      "6336": 6330,
      "9d8b": 6331,
      "772d": 6332,
      "4c06": 6333,
      "7350": 6334,
      "2f8d": 6335,
      "1b06": 6336,
      "2350": 6337,
      "4292": 6338,
      "e3c7": 6339,
      "02c2": 6340,
      "c850": 6341,
      "1d30": 6342,
      "bc50": 6343,
      "f368": 6344,
      "6b50": 6345,
      "020d": 6346,
      "1abf": 6347,
      "8c50": 6348,
      "05f4": 6349,
      "e676": 6350,
      "9350": 6351,
      "16bb": 6352,
      "bb7a": 6353,
      "bbf6": 6354,
      "7750": 6355,
      "00b9": 6356,
      "015c": 6357,
      "9601": 6358,
      "e010": 6359,
      "7031": 6360,
      "2fa0": 6361,
      "b980": 6362,
      "4050": 6363,
      "c9a0": 6364,
      "5750": 6365,
      "fefe": 6366,
      "7250": 6367,
      "4368": 6368,
      "c450": 6369,
      "b713": 6370,
      "6147": 6371,
      "a850": 6372,
      "bbbf": 6373,
      "1467": 6374,
      "bf01": 6375,
      "85c0": 6376,
      "ad01": 6377,
      "0641": 6378,
      "1430": 6379,
      "bb77": 6380,
      "8552": 6381,
      "0247": 6382,
      "2793": 6383,
      "6b01": 6384,
      "1750": 6385,
      "bbf8": 6386,
      "7366": 6387,
      "820c": 6388,
      "3142": 6389,
      "1161": 6390,
      "3d33": 6391,
      "9d2f": 6392,
      "762d": 6393,
      "08a6": 6394,
      "0637": 6395,
      "c380": 6396,
      "8501": 6397,
      "0370": 6398,
      "3850": 6399,
      "f801": 6400,
      "00cf": 6401,
      "f950": 6402,
      "e04f": 6403,
      "bbf0": 6404,
      "18a6": 6405,
      "8183": 6406,
      "020c": 6407,
      "ed50": 6408,
      "4230": 6409,
      "9801": 6410,
      "368c": 6411,
      "cd54": 6412,
      "fb50": 6413,
      "7120": 6414,
      "da01": 6415,
      "4532": 6416,
      "4686": 6417,
      "03b0": 6418,
      "0492": 6419,
      "b17f": 6420,
      "7861": 6421,
      "90fd": 6422,
      "6a63": 6423,
      "f367": 6424,
      "532f": 6425,
      "2220": 6426,
      "6c06": 6427,
      "5a50": 6428,
      "460d": 6429,
      "0a94": 6430,
      "6862": 6431,
      "7c30": 6432,
      "632c": 6433,
      "009b": 6434,
      "8217": 6435,
      "1850": 6436,
      "2b1b": 6437,
      "5665": 6438,
      "bb76": 6439,
      "2e77": 6440,
      "0a33": 6441,
      "6542": 6442,
      "fe01": 6443,
      "036f": 6444,
      "2021": 6445,
      "bb73": 6446,
      "66c6": 6447,
      "1f01": 6448,
      "b204": 6449,
      "6701": 6450,
      "9650": 6451,
      "d650": 6452,
      "4a01": 6453,
      "8550": 6454,
      "f686": 6455,
      "3d01": 6456,
      "6231": 6457,
      "bb2a": 6458,
      "0809": 6459,
      "d380": 6460,
      "c701": 6461,
      "7050": 6462,
      "8140": 6463,
      "c202": 6464,
      "8213": 6465,
      "04a2": 6466,
      "4733": 6467,
      "3243": 6468,
      "f350": 6469,
      "2f06": 6470,
      "f366": 6471,
      "6462": 6472,
      "f617": 6473,
      "aaab": 6474,
      "7950": 6475,
      "1c68": 6476,
      "ba50": 6477,
      "e3a7": 6478,
      "e601": 6479,
      "4647": 6480,
      "00cd": 6481,
      "b950": 6482,
      "c201": 6483,
      "5901": 6484,
      "3126": 6485,
      "692f": 6486,
      "080d": 6487,
      "3b54": 6488,
      "5661": 6489,
      "9a50": 6490,
      "1e06": 6491,
      "c025": 6492,
      "bc01": 6493,
      "0a8f": 6494,
      "5730": 6495,
      "21d0": 6496,
      "6050": 6497,
      "4626": 6498,
      "7230": 6499,
      "c3b3": 6500,
      "1350": 6501,
      "8701": 6502,
      "200a": 6503,
      "6f69": 6504,
      "bb7f": 6505,
      "3058": 6506,
      "be50": 6507,
      "6264": 6508,
      "2c50": 6509,
      "f756": 6510,
      "5333": 6511,
      "2b1a": 6512,
      "e10d": 6513,
      "4d42": 6514,
      "a650": 6515,
      "d697": 6516,
      "4101": 6517,
      "0ae8": 6518,
      "00b5": 6519,
      "db80": 6520,
      "4037": 6521,
      "1b65": 6522,
      "a032": 6523,
      "6f09": 6524,
      "3e20": 6525,
      "6f68": 6526,
      "05df": 6527,
      "c350": 6528,
      "a02b": 6529,
      "bb7c": 6530,
      "6c3b": 6531,
      "efb2": 6532,
      "1370": 6533,
      "3207": 6534,
      "031c": 6535,
      "6e30": 6536,
      "d801": 6537,
      "ffed": 6538,
      "bfde": 6539,
      "0fbe": 6540,
      "6236": 6541,
      "c04d": 6542,
      "00c5": 6543,
      "05fa": 6544,
      "6538": 6545,
      "796f": 6546,
      "6c66": 6547,
      "6a73": 6548,
      "7063": 6549,
      "2450": 6550,
      "0211": 6551,
      "362c": 6552,
      "4201": 6553,
      "2d52": 6554,
      "0af4": 6555,
      "0222": 6556,
      "4638": 6557,
      "40ed": 6558,
      "1f50": 6559,
      "0a65": 6560,
      "d7ac": 6561,
      "4f01": 6562,
      "cd6d": 6563,
      "bf90": 6564,
      "3861": 6565,
      "1823": 6566,
      "0705": 6567,
      "076e": 6568,
      "3068": 6569,
      "0adf": 6570,
      "1819": 6571,
      "e580": 6572,
      "27b1": 6573,
      "c050": 6574,
      "8207": 6575,
      "8618": 6576,
      "3d38": 6577,
      "7663": 6578,
      "01e0": 6579,
      "fa01": 6580,
      "ef29": 6581,
      "7068": 6582,
      "a501": 6583,
      "6679": 6584,
      "414d": 6585,
      "d350": 6586,
      "5bc7": 6587,
      "054e": 6588,
      "0690": 6589,
      "80ae": 6590,
      "b656": 6591,
      "1363": 6592,
      "9acf": 6593,
      "0c4f": 6594,
      "e7de": 6595,
      "9b50": 6596,
      "0af7": 6597,
      "0c30": 6598,
      "9b01": 6599,
      "3e50": 6600,
      "1250": 6601,
      "6476": 6602,
      "060c": 6603,
      "4c20": 6604,
      "2d53": 6605,
      "076d": 6606,
      "052b": 6607,
      "f687": 6608,
      "147e": 6609,
      "4726": 6610,
      "4f52": 6611,
      "7850": 6612,
      "0174": 6613,
      "555f": 6614,
      "4250": 6615,
      "9250": 6616,
      "86fd": 6617,
      "7a61": 6618,
      "9ec8": 6619,
      "6d80": 6620,
      "0fd7": 6621,
      "24cb": 6622,
      "362d": 6623,
      "9301": 6624,
      "03fc": 6625,
      "0950": 6626,
      "32e6": 6627,
      "d701": 6628,
      "c045": 6629,
      "9c50": 6630,
      "ce01": 6631,
      "cf13": 6632,
      "1414": 6633,
      "8b50": 6634,
      "0529": 6635,
      "9450": 6636,
      "0ec0": 6637,
      "3102": 6638,
      "0d22": 6639,
      "0a46": 6640,
      "8f01": 6641,
      "7372": 6642,
      "02a0": 6643,
      "06b6": 6644,
      "3086": 6645,
      "a202": 6646,
      "d456": 6647,
      "0a1e": 6648,
      "0ae9": 6649,
      "d913": 6650,
      "f369": 6651,
      "2a4a": 6652,
      "6901": 6653,
      "4346": 6654,
      "4170": 6655,
      "4520": 6656,
      "ef98": 6657,
      "c657": 6658,
      "c024": 6659,
      "9750": 6660,
      "4061": 6661,
      "d53b": 6662,
      "3114": 6663,
      "a201": 6664,
      "8215": 6665,
      "bb4d": 6666,
      "0578": 6667,
      "1ff0": 6668,
      "2006": 6669,
      "2717": 6670,
      "e5b4": 6671,
      "0270": 6672,
      "32a0": 6673,
      "0aeb": 6674,
      "f450": 6675,
      "70d0": 6676,
      "6736": 6677,
      "4707": 6678,
      "d981": 6679,
      "42d7": 6680,
      "bb0b": 6681,
      "30de": 6682,
      "2716": 6683,
      "00b1": 6684,
      "66df": 6685,
      "3250": 6686,
      "e8bc": 6687,
      "2606": 6688,
      "7078": 6689,
      "390d": 6690,
      "0283": 6691,
      "2101": 6692,
      "4756": 6693,
      "5850": 6694,
      "1143": 6695,
      "2ffe": 6696,
      "77a6": 6697,
      "0536": 6698,
      "9050": 6699,
      "5244": 6700,
      "0513": 6701,
      "dc50": 6702,
      "2901": 6703,
      "bb1e": 6704,
      "2a50": 6705,
      "7563": 6706,
      "180a": 6707,
      "132a": 6708,
      "0f7d": 6709,
      "41bb": 6710,
      "b2e7": 6711,
      "e702": 6712,
      "c517": 6713,
      "20d7": 6714,
      "1f36": 6715,
      "7763": 6716,
      "3840": 6717,
      "9d07": 6718,
      "7343": 6719,
      "5457": 6720,
      "9d61": 6721,
      "1ddd": 6722,
      "3b50": 6723,
      "e2d5": 6724,
      "1096": 6725,
      "f1e7": 6726,
      "790d": 6727,
      "395a": 6728,
      "0741": 6729,
      "8c44": 6730,
      "9db4": 6731,
      "feed": 6732,
      "6730": 6733,
      "f301": 6734,
      "50aa": 6735,
      "5643": 6736,
      "e465": 6737,
      "0a05": 6738,
      "0964": 6739,
      "c901": 6740,
      "0d7d": 6741,
      "d2e6": 6742,
      "1066": 6743,
      "2646": 6744,
      "c004": 6745,
      "416c": 6746,
      "0aa3": 6747,
      "9f01": 6748,
      "b550": 6749,
      "9dfe": 6750,
      "1a4c": 6751,
      "df35": 6752,
      "3203": 6753,
      "6d07": 6754,
      "a6d6": 6755,
      "3347": 6756,
      "0477": 6757,
      "eb01": 6758,
      "6cc0": 6759,
      "0a78": 6760,
      "3062": 6761,
      "2538": 6762,
      "1559": 6763,
      "0acd": 6764,
      "0359": 6765,
      "200b": 6766,
      "3e31": 6767,
      "0c0a": 6768,
      "c1e1": 6769,
      "ae50": 6770,
      "bb41": 6771,
      "fa50": 6772,
      "c00e": 6773,
      "9850": 6774,
      "cf50": 6775,
      "2607": 6776,
      "4d2d": 6777,
      "c95e": 6778,
      "2338": 6779,
      "7f50": 6780,
      "30d0": 6781,
      "3f50": 6782,
      "1f7f": 6783,
      "e742": 6784,
      "c060": 6785,
      "5490": 6786,
      "bb6e": 6787,
      "3702": 6788,
      "7636": 6789,
      "f75e": 6790,
      "ef31": 6791,
      "0901": 6792,
      "bb29": 6793,
      "4602": 6794,
      "a616": 6795,
      "9369": 6796,
      "872a": 6797,
      "35f2": 6798,
      "3c30": 6799,
      "bb68": 6800,
      "0a92": 6801,
      "2003": 6802,
      "e050": 6803,
      "ef19": 6804,
      "1b50": 6805,
      "5231": 6806,
      "037c": 6807,
      "6f0c": 6808,
      "bb0e": 6809,
      "6750": 6810,
      "6432": 6811,
      "3204": 6812,
      "676d": 6813,
      "2ec0": 6814,
      "a46a": 6815,
      "05fe": 6816,
      "9a31": 6817,
      "0c96": 6818,
      "f528": 6819,
      "3925": 6820,
      "d580": 6821,
      "0a9c": 6822,
      "7c50": 6823,
      "1415": 6824,
      "c032": 6825,
      "03bd": 6826,
      "4450": 6827,
      "07ea": 6828,
      "026c": 6829,
      "2d2e": 6830,
      "d6e6": 6831,
      "4739": 6832,
      "e060": 6833,
      "061b": 6834,
      "1271": 6835,
      "3610": 6836,
      "e9ef": 6837,
      "0463": 6838,
      "c1bb": 6839,
      "1297": 6840,
      "0bc3": 6841,
      "0a5b": 6842,
      "8853": 6843,
      "5323": 6844,
      "6617": 6845,
      "0444": 6846,
      "fd8b": 6847,
      "0753": 6848,
      "7e50": 6849,
      "259d": 6850,
      "733d": 6851,
      "01fb": 6852,
      "0258": 6853,
      "4636": 6854,
      "50d7": 6855,
      "fe1a": 6856,
      "5d50": 6857,
      "4342": 6858,
      "bb6a": 6859,
      "343b": 6860,
      "38dc": 6861,
      "93f2": 6862,
      "9f0f": 6863,
      "46c0": 6864,
      "11cb": 6865,
      "5383": 6866,
      "0717": 6867,
      "4ebb": 6868,
      "0f47": 6869,
      "5c03": 6870,
      "e211": 6871,
      "1383": 6872,
      "b361": 6873,
      "6330": 6874,
      "ef18": 6875,
      "0333": 6876,
      "6a2b": 6877,
      "07f8": 6878,
      "fe1f": 6879,
      "3106": 6880,
      "a7ad": 6881,
      "0589": 6882,
      "4040": 6883,
      "af53": 6884,
      "00ce": 6885,
      "ff8a": 6886,
      "7002": 6887,
      "1c1e": 6888,
      "7a75": 6889,
      "106e": 6890,
      "02d4": 6891,
      "6b70": 6892,
      "0ab8": 6893,
      "d3da": 6894,
      "96d6": 6895,
      "1b93": 6896,
      "08c0": 6897,
      "1323": 6898,
      "3056": 6899,
      "752e": 6900,
      "6161": 6901,
      "bec0": 6902,
      "5346": 6903,
      "1d0a": 6904,
      "541a": 6905,
      "090a": 6906,
      "eb4c": 6907,
      "646d": 6908,
      "1730": 6909,
      "ef01": 6910,
      "00ab": 6911,
      "ef17": 6912,
      "181a": 6913,
      "6335": 6914,
      "bb2b": 6915,
      "3027": 6916,
      "161c": 6917,
      "1063": 6918,
      "3749": 6919,
      "a80a": 6920,
      "672f": 6921,
      "1e44": 6922,
      "2f6a": 6923,
      "dada": 6924,
      "3163": 6925,
      "3506": 6926,
      "512f": 6927,
      "96f4": 6928,
      "c26c": 6929,
      "784c": 6930,
      "12d6": 6931,
      "05ee": 6932,
      "2313": 6933,
      "936d": 6934,
      "446f": 6935,
      "0a27": 6936,
      "bb02": 6937,
      "4869": 6938,
      "f925": 6939,
      "02d7": 6940,
      "e501": 6941,
      "0523": 6942,
      "0e50": 6943,
      "0391": 6944,
      "146c": 6945,
      "9539": 6946,
      "3d35": 6947,
      "cd56": 6948,
      "103f": 6949,
      "0b61": 6950,
      "3341": 6951,
      "4310": 6952,
      "8323": 6953,
      "c250": 6954,
      "d353": 6955,
      "d706": 6956,
      "6475": 6957,
      "bb0d": 6958,
      "8850": 6959,
      "b42c": 6960,
      "c795": 6961,
      "e6eb": 6962,
      "43b4": 6963,
      "e6d6": 6964,
      "0273": 6965,
      "a414": 6966,
      "f6ec": 6967,
      "0a7b": 6968,
      "45f7": 6969,
      "1072": 6970,
      "5e1a": 6971,
      "a350": 6972,
      "a03c": 6973,
      "0b0c": 6974,
      "9633": 6975,
      "5f18": 6976,
      "2039": 6977,
      "b49a": 6978,
      "7803": 6979,
      "3fd8": 6980,
      "323b": 6981,
      "f6f7": 6982,
      "fdf3": 6983,
      "8189": 6984,
      "4776": 6985,
      "fbb9": 6986,
      "088e": 6987,
      "017d": 6988,
      "0b2a": 6989,
      "36ff": 6990,
      "2aeb": 6991,
      "691a": 6992,
      "bbf5": 6993,
      "bb06": 6994,
      "f5d2": 6995,
      "255c": 6996,
      "eeff": 6997,
      "0af1": 6998,
      "0e03": 6999,
      "7756": 7000,
      "d317": 7001,
      "54a4": 7002,
      "6899": 7003,
      "25e3": 7004,
      "3822": 7005,
      "2fde": 7006,
      "6da9": 7007,
      "0aa0": 7008,
      "0acc": 7009,
      "2668": 7010,
      "7277": 7011,
      "d96a": 7012,
      "5c05": 7013,
      "02f8": 7014,
      "303f": 7015,
      "bb30": 7016,
      "5385": 7017,
      "c83c": 7018,
      "2413": 7019,
      "96b6": 7020,
      "4e6f": 7021,
      "0428": 7022,
      "5453": 7023,
      "49f4": 7024,
      "b998": 7025,
      "1650": 7026,
      "fafa": 7027,
      "053e": 7028,
      "0c2a": 7029,
      "3750": 7030,
      "1118": 7031,
      "2386": 7032,
      "4631": 7033,
      "c58b": 7034,
      "4d31": 7035,
      "0a89": 7036,
      "0c50": 7037,
      "0285": 7038,
      "3d06": 7039,
      "ef60": 7040,
      "0acb": 7041,
      "0f5e": 7042,
      "ab50": 7043,
      "056a": 7044,
      "bb2e": 7045,
      "bb0c": 7046,
      "d750": 7047,
      "b917": 7048,
      "2202": 7049,
      "2f50": 7050,
      "bb34": 7051,
      "2a3b": 7052,
      "2745": 7053,
      "818a": 7054,
      "dfa8": 7055,
      "3450": 7056,
      "060b": 7057,
      "6c63": 7058,
      "4542": 7059,
      "eef9": 7060,
      "02ed": 7061,
      "78d0": 7062,
      "2c2a": 7063,
      "0ad5": 7064,
      "5b01": 7065,
      "271f": 7066,
      "8b26": 7067,
      "4240": 7068,
      "05a3": 7069,
      "bbfe": 7070,
      "5620": 7071,
      "6703": 7072,
      "fe26": 7073,
      "ee6e": 7074,
      "304f": 7075,
      "66ee": 7076,
      "4553": 7077,
      "bb7b": 7078,
      "282c": 7079,
      "a50a": 7080,
      "9501": 7081,
      "2b0e": 7082,
      "03ae": 7083,
      "a466": 7084,
      "187c": 7085,
      "39f5": 7086,
      "c0ef": 7087,
      "1501": 7088,
      "c5cf": 7089,
      "3454": 7090,
      "504a": 7091,
      "2ccc": 7092,
      "6a69": 7093,
      "2078": 7094,
      "7af9": 7095,
      "9986": 7096,
      "2e6b": 7097,
      "5096": 7098,
      "4eee": 7099,
      "f683": 7100,
      "0269": 7101,
      "5a1d": 7102,
      "0653": 7103,
      "bc1f": 7104,
      "1707": 7105,
      "6203": 7106,
      "a9d5": 7107,
      "d312": 7108,
      "0c42": 7109,
      "6446": 7110,
      "7785": 7111,
      "e4c6": 7112,
      "e02c": 7113,
      "3d65": 7114,
      "6662": 7115,
      "9702": 7116,
      "7bee": 7117,
      "509c": 7118,
      "ffa4": 7119,
      "02cc": 7120,
      "cd21": 7121,
      "5501": 7122,
      "b3d9": 7123,
      "4aa1": 7124,
      "a750": 7125,
      "679e": 7126,
      "6f8f": 7127,
      "0a32": 7128,
      "36bb": 7129,
      "222c": 7130,
      "90af": 7131,
      "0496": 7132,
      "5a01": 7133,
      "7fe1": 7134,
      "5ef0": 7135,
      "016b": 7136,
      "046e": 7137,
      "2803": 7138,
      "cc50": 7139,
      "51d2": 7140,
      "bb4e": 7141,
      "bb4f": 7142,
      "8667": 7143,
      "c005": 7144,
      "7a7a": 7145,
      "026a": 7146,
      "5742": 7147,
      "80c4": 7148,
      "7ef6": 7149,
      "30e2": 7150,
      "84c0": 7151,
      "83ca": 7152,
      "8397": 7153,
      "0708": 7154,
      "3f19": 7155,
      "9060": 7156,
      "b1f9": 7157,
      "2bdb": 7158,
      "2024": 7159,
      "4571": 7160,
      "6120": 7161,
      "e059": 7162,
      "9101": 7163,
      "d224": 7164,
      "d506": 7165,
      "f727": 7166,
      "bb1f": 7167,
      "3146": 7168,
      "e38f": 7169,
      "0761": 7170,
      "2042": 7171,
      "3fa9": 7172,
      "2535": 7173,
      "f2ff": 7174,
      "f6de": 7175,
      "a697": 7176,
      "9530": 7177,
      "284f": 7178,
      "d501": 7179,
      "f57a": 7180,
      "211a": 7181,
      "0a5a": 7182,
      "3d3d": 7183,
      "0334": 7184,
      "5f50": 7185,
      "0d47": 7186,
      "4042": 7187,
      "d450": 7188,
      "0a73": 7189,
      "f945": 7190,
      "c41b": 7191,
      "f030": 7192,
      "072e": 7193,
      "671c": 7194,
      "5a5a": 7195,
      "045c": 7196,
      "0b08": 7197,
      "e6ec": 7198,
      "d355": 7199,
      "0aed": 7200,
      "47dd": 7201,
      "b2a6": 7202,
      "1f20": 7203,
      "092b": 7204,
      "5303": 7205,
      "0632": 7206,
      "2333": 7207,
      "216e": 7208,
      "690a": 7209,
      "cad9": 7210,
      "0a52": 7211,
      "f55d": 7212,
      "7a02": 7213,
      "47bf": 7214,
      "262b": 7215,
      "30a4": 7216,
      "416e": 7217,
      "b4d3": 7218,
      "2697": 7219,
      "0d24": 7220,
      "50b7": 7221,
      "4313": 7222,
      "5ebb": 7223,
      "0666": 7224,
      "51d0": 7225,
      "9f50": 7226,
      "7931": 7227,
      "063d": 7228,
      "1490": 7229,
      "01f7": 7230,
      "b249": 7231,
      "be7d": 7232,
      "7ed5": 7233,
      "3461": 7234,
      "bb36": 7235,
      "7581": 7236,
      "0e0f": 7237,
      "6627": 7238,
      "bb6d": 7239,
      "b4bd": 7240,
      "5fed": 7241,
      "c550": 7242,
      "1213": 7243,
      "7701": 7244,
      "5e3f": 7245,
      "e5e3": 7246,
      "2130": 7247,
      "7e70": 7248,
      "20fb": 7249,
      "3a43": 7250,
      "5eea": 7251,
      "bfb3": 7252,
      "0692": 7253,
      "e3b7": 7254,
      "a864": 7255,
      "bb2f": 7256,
      "647c": 7257,
      "f3bb": 7258,
      "ee0f": 7259,
      "f2f7": 7260,
      "e3b2": 7261,
      "0ad0": 7262,
      "0659": 7263,
      "6933": 7264,
      "0567": 7265,
      "7b50": 7266,
      "301c": 7267,
      "4bff": 7268,
      "2626": 7269,
      "96d7": 7270,
      "23f2": 7271,
      "065f": 7272,
      "7308": 7273,
      "a35f": 7274,
      "0e3b": 7275,
      "5461": 7276,
      "acd2": 7277,
      "414c": 7278,
      "1393": 7279,
      "059a": 7280,
      "2fb4": 7281,
      "1463": 7282,
      "4850": 7283,
      "1af7": 7284,
      "bfac": 7285,
      "7df9": 7286,
      "8e0b": 7287,
      "9898": 7288,
      "8efb": 7289,
      "d2b2": 7290,
      "999e": 7291,
      "304b": 7292,
      "2320": 7293,
      "d636": 7294,
      "ab6c": 7295,
      "3f3f": 7296,
      "7566": 7297,
      "eb50": 7298,
      "f712": 7299,
      "1dad": 7300,
      "6c50": 7301,
      "0f73": 7302,
      "3902": 7303,
      "50f6": 7304,
      "1871": 7305,
      "107d": 7306,
      "37aa": 7307,
      "0aec": 7308,
      "4498": 7309,
      "bb18": 7310,
      "4c26": 7311,
      "0fff": 7312,
      "dcdc": 7313,
      "26e6": 7314,
      "676a": 7315,
      "8d8e": 7316,
      "353b": 7317,
      "8a50": 7318,
      "1eee": 7319,
      "9fed": 7320,
      "d8f2": 7321,
      "3d69": 7322,
      "0594": 7323,
      "6deb": 7324,
      "4e7a": 7325,
      "50dd": 7326,
      "bb0a": 7327,
      "c528": 7328,
      "0169": 7329,
      "1ada": 7330,
      "bb38": 7331,
      "37d9": 7332,
      "e8f7": 7333,
      "e061": 7334,
      "838a": 7335,
      "14e5": 7336,
      "8330": 7337,
      "1623": 7338,
      "9577": 7339,
      "0b64": 7340,
      "d3cd": 7341,
      "daf2": 7342,
      "55de": 7343,
      "04f0": 7344,
      "2097": 7345,
      "c0a3": 7346,
      "1c1d": 7347,
      "562f": 7348,
      "c425": 7349,
      "0a22": 7350,
      "27c5": 7351,
      "7605": 7352,
      "77ff": 7353,
      "532c": 7354,
      "9812": 7355,
      "662d": 7356,
      "893f": 7357,
      "b38f": 7358,
      "f050": 7359,
      "6917": 7360,
      "7454": 7361,
      "8b5a": 7362,
      "92a8": 7363,
      "f51b": 7364,
      "3c50": 7365,
      "0fde": 7366,
      "40ca": 7367,
      "0a39": 7368,
      "663d": 7369,
      "2a35": 7370,
      "26ee": 7371,
      "2e76": 7372,
      "cd1f": 7373,
      "67f9": 7374,
      "062c": 7375,
      "1a68": 7376,
      "862e": 7377,
      "e01d": 7378,
      "4723": 7379,
      "6d6d": 7380,
      "a2ec": 7381,
      "0ad8": 7382,
      "79d3": 7383,
      "44b7": 7384,
      "820a": 7385,
      "1c81": 7386,
      "290d": 7387,
      "66cf": 7388,
      "0d69": 7389,
      "4e49": 7390,
      "f021": 7391,
      "25d5": 7392,
      "f8a5": 7393,
      "9737": 7394,
      "4369": 7395,
      "4261": 7396,
      "2120": 7397,
      "5aa0": 7398,
      "9265": 7399,
      "48c3": 7400,
      "07c0": 7401,
      "bb69": 7402,
      "2f3f": 7403,
      "3703": 7404,
      "26fa": 7405,
      "2f01": 7406,
      "4d05": 7407,
      "f250": 7408,
      "bdf1": 7409,
      "1112": 7410,
      "2a2a": 7411,
      "4820": 7412,
      "8e35": 7413,
      "1f30": 7414,
      "b350": 7415,
      "eb2d": 7416,
      "1a1b": 7417,
      "4643": 7418,
      "e850": 7419,
      "e4ba": 7420,
      "ab01": 7421,
      "3302": 7422,
      "0ab2": 7423,
      "9cd5": 7424,
      "655f": 7425,
      "265c": 7426,
      "0554": 7427,
      "0ac8": 7428,
      "ba4b": 7429,
      "e4bb": 7430,
      "bb2d": 7431,
      "3c52": 7432,
      "d330": 7433,
      "46bf": 7434,
      "679d": 7435,
      "62c0": 7436,
      "4cfb": 7437,
      "0430": 7438,
      "36f7": 7439,
      "b849": 7440,
      "2c33": 7441,
      "1d96": 7442,
      "05e9": 7443,
      "756b": 7444,
      "25f0": 7445,
      "e87f": 7446,
      "0686": 7447,
      "f2ba": 7448,
      "126d": 7449,
      "8d0f": 7450,
      "bb5e": 7451,
      "7034": 7452,
      "f73e": 7453,
      "1299": 7454,
      "92d6": 7455,
      "292c": 7456,
      "8fa0": 7457,
      "88b6": 7458,
      "0e64": 7459,
      "3697": 7460,
      "baba": 7461,
      "3f8f": 7462,
      "4003": 7463,
      "3743": 7464,
      "ecbe": 7465,
      "55f2": 7466,
      "fea3": 7467,
      "312c": 7468,
      "f9d2": 7469,
      "5d28": 7470,
      "2223": 7471,
      "4b48": 7472,
      "5f63": 7473,
      "1230": 7474,
      "53bb": 7475,
      "0181": 7476,
      "a35a": 7477,
      "d555": 7478,
      "8192": 7479,
      "7443": 7480,
      "1a05": 7481,
      "75e8": 7482,
      "eef4": 7483,
      "8216": 7484,
      "0fe8": 7485,
      "7c2a": 7486,
      "5272": 7487,
      "b4cf": 7488,
      "2273": 7489,
      "f750": 7490,
      "e907": 7491,
      "4ddc": 7492,
      "4202": 7493,
      "1c82": 7494,
      "018b": 7495,
      "8d97": 7496,
      "dccb": 7497,
      "0c20": 7498,
      "4633": 7499,
      "1a1a": 7500,
      "3047": 7501,
      "0459": 7502,
      "b239": 7503,
      "643f": 7504,
      "3964": 7505,
      "c087": 7506,
      "4b91": 7507,
      "205f": 7508,
      "5445": 7509,
      "2e34": 7510,
      "90b1": 7511,
      "6083": 7512,
      "ac0d": 7513,
      "52fb": 7514,
      "d08f": 7515,
      "03b3": 7516,
      "f3f3": 7517,
      "2a58": 7518,
      "3a94": 7519,
      "c574": 7520,
      "a8eb": 7521,
      "22e0": 7522,
      "8373": 7523,
      "bb62": 7524,
      "87a1": 7525,
      "8653": 7526,
      "ee96": 7527,
      "9d82": 7528,
      "3467": 7529,
      "6ab5": 7530,
      "8053": 7531,
      "66fc": 7532,
      "e11f": 7533,
      "ef66": 7534,
      "0621": 7535,
      "ff42": 7536,
      "bb71": 7537,
      "9871": 7538,
      "017e": 7539,
      "0242": 7540,
      "7186": 7541,
      "054d": 7542,
      "da79": 7543,
      "8350": 7544,
      "976a": 7545,
      "e4f7": 7546,
      "4979": 7547,
      "046f": 7548,
      "9855": 7549,
      "dd1f": 7550,
      "7901": 7551,
      "73a6": 7552,
      "8846": 7553,
      "320d": 7554,
      "df40": 7555,
      "025d": 7556,
      "9118": 7557,
      "054c": 7558,
      "3344": 7559,
      "a1a7": 7560,
      "1d81": 7561,
      "1e7c": 7562,
      "e1c6": 7563,
      "2212": 7564,
      "0e78": 7565,
      "a4a9": 7566,
      "f616": 7567,
      "4720": 7568,
      "0936": 7569,
      "3216": 7570,
      "3727": 7571,
      "3057": 7572,
      "05d8": 7573,
      "8969": 7574,
      "10f3": 7575,
      "b69e": 7576,
      "04c4": 7577,
      "c035": 7578,
      "1776": 7579,
      "bb11": 7580,
      "e230": 7581,
      "bb20": 7582,
      "82a6": 7583,
      "1322": 7584,
      "120f": 7585,
      "bd79": 7586,
      "7cef": 7587,
      "e859": 7588,
      "4064": 7589,
      "4393": 7590,
      "2526": 7591,
      "bb7e": 7592,
      "1f5e": 7593,
      "2076": 7594,
      "7130": 7595,
      "fa78": 7596,
      "6488": 7597,
      "01c8": 7598,
      "1396": 7599,
      "1dc0": 7600,
      "e4f3": 7601,
      "ade0": 7602,
      "bb1d": 7603,
      "191a": 7604,
      "82f3": 7605,
      "140f": 7606,
      "052c": 7607,
      "2688": 7608,
      "9825": 7609,
      "1b28": 7610,
      "cf51": 7611,
      "03f5": 7612,
      "5395": 7613,
      "0a21": 7614,
      "7682": 7615,
      "d323": 7616,
      "2f74": 7617,
      "5c2f": 7618,
      "0a17": 7619,
      "bb65": 7620,
      "80db": 7621,
      "0364": 7622,
      "2f39": 7623,
      "7d3f": 7624,
      "0a23": 7625,
      "8d9f": 7626,
      "673f": 7627,
      "c066": 7628,
      "59fd": 7629,
      "a283": 7630,
      "3c1e": 7631,
      "9a9a": 7632,
      "311d": 7633,
      "3fef": 7634,
      "f8b0": 7635,
      "032c": 7636,
      "86f6": 7637,
      "494e": 7638,
      "0a6c": 7639,
      "d3ec": 7640,
      "edd6": 7641,
      "6770": 7642,
      "c04f": 7643,
      "6d20": 7644,
      "7fd3": 7645,
      "8546": 7646,
      "c027": 7647,
      "e263": 7648,
      "067b": 7649,
      "ea34": 7650,
      "1a53": 7651,
      "3067": 7652,
      "e32b": 7653,
      "6dc4": 7654,
      "162f": 7655,
      "9314": 7656,
      "c056": 7657,
      "0af8": 7658,
      "4232": 7659,
      "330d": 7660,
      "0176": 7661,
      "0182": 7662,
      "d6f6": 7663,
      "8231": 7664,
      "2425": 7665,
      "f98d": 7666,
      "473c": 7667,
      "5141": 7668,
      "de35": 7669,
      "da7b": 7670,
      "e23b": 7671,
      "3361": 7672,
      "861b": 7673,
      "4402": 7674,
      "1fc4": 7675,
      "b3af": 7676,
      "7567": 7677,
      "a803": 7678,
      "2e22": 7679,
      "b722": 7680,
      "0648": 7681,
      "3993": 7682,
      "4f72": 7683,
      "0675": 7684,
      "1182": 7685,
      "386f": 7686,
      "bb64": 7687,
      "ec78": 7688,
      "3054": 7689,
      "3787": 7690,
      "b25c": 7691,
      "1a92": 7692,
      "0b1e": 7693,
      "e90a": 7694,
      "74fb": 7695,
      "4998": 7696,
      "1a55": 7697,
      "87cb": 7698,
      "0802": 7699,
      "cdff": 7700,
      "c18d": 7701,
      "3065": 7702,
      "067d": 7703,
      "f2db": 7704,
      "0af9": 7705,
      "033e": 7706,
      "2bb8": 7707,
      "d686": 7708,
      "05e3": 7709,
      "1a4a": 7710,
      "67a5": 7711,
      "e3f9": 7712,
      "5786": 7713,
      "1626": 7714,
      "0566": 7715,
      "4535": 7716,
      "99dd": 7717,
      "1e1f": 7718,
      "02f5": 7719,
      "9dbb": 7720,
      "70a3": 7721,
      "a99b": 7722,
      "851f": 7723,
      "4ffc": 7724,
      "71fe": 7725,
      "50b1": 7726,
      "db50": 7727,
      "2f44": 7728,
      "effa": 7729,
      "023f": 7730,
      "a4e4": 7731,
      "0633": 7732,
      "edbb": 7733,
      "78f6": 7734,
      "95ca": 7735,
      "b7bf": 7736,
      "0a8e": 7737,
      "56e3": 7738,
      "6a77": 7739,
      "3fff": 7740,
      "bb61": 7741,
      "41ee": 7742,
      "03a8": 7743,
      "511c": 7744,
      "0aa9": 7745,
      "abf1": 7746,
      "82b0": 7747,
      "7cda": 7748,
      "4ee5": 7749,
      "723b": 7750,
      "bb04": 7751,
      "0460": 7752,
      "4d68": 7753,
      "2f33": 7754,
      "306c": 7755,
      "05a5": 7756,
      "0681": 7757,
      "494b": 7758,
      "6c35": 7759,
      "05ab": 7760,
      "3468": 7761,
      "0b0a": 7762,
      "bb55": 7763,
      "51f8": 7764,
      "382d": 7765,
      "6e09": 7766,
      "d7fe": 7767,
      "c7d2": 7768,
      "34b2": 7769,
      "bb15": 7770,
      "375a": 7771,
      "0a2e": 7772,
      "0c63": 7773,
      "0f0d": 7774,
      "7032": 7775,
      "5f69": 7776,
      "b191": 7777,
      "0ae1": 7778,
      "50b9": 7779,
      "4e32": 7780,
      "188e": 7781,
      "4430": 7782,
      "d101": 7783,
      "a9aa": 7784,
      "453e": 7785,
      "0ab3": 7786,
      "9ecd": 7787,
      "af6a": 7788,
      "5f35": 7789,
      "3e44": 7790,
      "81be": 7791,
      "5192": 7792,
      "0ab7": 7793,
      "463d": 7794,
      "3075": 7795,
      "0274": 7796,
      "5959": 7797,
      "0e81": 7798,
      "f4ac": 7799,
      "b4d5": 7800,
      "e135": 7801,
      "066a": 7802,
      "ff1a": 7803,
      "efe1": 7804,
      "5831": 7805,
      "e7e3": 7806,
      "dc7b": 7807,
      "7307": 7808,
      "ff52": 7809,
      "f98f": 7810,
      "7873": 7811,
      "1326": 7812,
      "fec6": 7813,
      "2e2f": 7814,
      "3803": 7815,
      "8a33": 7816,
      "80aa": 7817,
      "4a4a": 7818,
      "119c": 7819,
      "edcd": 7820,
      "bd76": 7821,
      "2448": 7822,
      "bdbd": 7823,
      "f5df": 7824,
      "dc1e": 7825,
      "fb5f": 7826,
      "816a": 7827,
      "47db": 7828,
      "1943": 7829,
      "d1ce": 7830,
      "9981": 7831,
      "dbe1": 7832,
      "a72e": 7833,
      "de3e": 7834,
      "df7d": 7835,
      "6582": 7836,
      "8ccf": 7837,
      "3a61": 7838,
      "79db": 7839,
      "a8ad": 7840,
      "587e": 7841,
      "05c7": 7842,
      "35eb": 7843,
      "2f5c": 7844,
      "2afc": 7845,
      "9da7": 7846,
      "e2e7": 7847,
      "cfbb": 7848,
      "b1c8": 7849,
      "c40b": 7850,
      "06e6": 7851,
      "9716": 7852,
      "e193": 7853,
      "e95e": 7854,
      "8d83": 7855,
      "fd7d": 7856,
      "bb6b": 7857,
      "82e3": 7858,
      "3ee9": 7859,
      "a9c9": 7860,
      "b420": 7861,
      "15cc": 7862,
      "b57e": 7863,
      "077f": 7864,
      "0393": 7865,
      "9a42": 7866,
      "34a0": 7867,
      "b3b7": 7868,
      "126e": 7869,
      "718c": 7870,
      "29ca": 7871,
      "e6fc": 7872,
      "5717": 7873,
      "9bfc": 7874,
      "bb72": 7875,
      "1591": 7876,
      "9886": 7877,
      "647d": 7878,
      "b182": 7879,
      "1fc6": 7880,
      "d227": 7881,
      "bb3f": 7882,
      "3edd": 7883,
      "54a9": 7884,
      "fc59": 7885,
      "4889": 7886,
      "6bab": 7887,
      "9b46": 7888,
      "0378": 7889,
      "040c": 7890,
      "04ea": 7891,
      "2a38": 7892,
      "d382": 7893,
      "6382": 7894,
      "b230": 7895,
      "e817": 7896,
      "389d": 7897,
      "db52": 7898,
      "f8a4": 7899,
      "354e": 7900,
      "ebb7": 7901,
      "0add": 7902,
      "3849": 7903,
      "e7e6": 7904,
      "ae36": 7905,
      "8a57": 7906,
      "f4c1": 7907,
      "9659": 7908,
      "dbe6": 7909,
      "c4ea": 7910,
      "ff0c": 7911,
      "bb59": 7912,
      "5061": 7913,
      "5254": 7914,
      "05b6": 7915,
      "6731": 7916,
      "ab92": 7917,
      "50df": 7918,
      "353e": 7919,
      "7cd9": 7920,
      "6602": 7921,
      "1a51": 7922,
      "8047": 7923,
      "7a71": 7924,
      "24d3": 7925,
      "c203": 7926,
      "6d74": 7927,
      "9d24": 7928,
      "42ec": 7929,
      "ad78": 7930,
      "68b3": 7931,
      "30b7": 7932,
      "4cc3": 7933,
      "5c09": 7934,
      "e672": 7935,
      "01cc": 7936,
      "e8ff": 7937,
      "2db9": 7938,
      "3597": 7939,
      "be6b": 7940,
      "5356": 7941,
      "3363": 7942,
      "104c": 7943,
      "6c0e": 7944,
      "2728": 7945,
      "6d7a": 7946,
      "b796": 7947,
      "2497": 7948,
      "fb51": 7949,
      "4b50": 7950,
      "16a3": 7951,
      "4c31": 7952,
      "f4be": 7953,
      "dad9": 7954,
      "9232": 7955,
      "90d1": 7956,
      "4432": 7957,
      "356b": 7958,
      "bc6a": 7959,
      "520a": 7960,
      "0562": 7961,
      "223a": 7962,
      "2514": 7963,
      "d00c": 7964,
      "2692": 7965,
      "7b9f": 7966,
      "0172": 7967,
      "520d": 7968,
      "c137": 7969,
      "c6f7": 7970,
      "473d": 7971,
      "3f11": 7972,
      "e6be": 7973,
      "16cc": 7974,
      "2855": 7975,
      "33a4": 7976,
      "6248": 7977,
      "c89c": 7978,
      "7975": 7979,
      "a424": 7980,
      "73f6": 7981,
      "0a7e": 7982,
      "3078": 7983,
      "2b15": 7984,
      "d54a": 7985,
      "63df": 7986,
      "151d": 7987,
      "99cd": 7988,
      "5f31": 7989,
      "8f0f": 7990,
      "d491": 7991,
      "dd75": 7992,
      "d257": 7993,
      "d890": 7994,
      "4d14": 7995,
      "2c2d": 7996,
      "0f96": 7997,
      "7142": 7998,
      "33d2": 7999,
      "f2c0": 8000,
      "1cf9": 8001,
      "1493": 8002,
      "8944": 8003,
      "86ec": 8004,
      "f3c4": 8005,
      "0cc4": 8006,
      "020a": 8007,
      "064e": 8008,
      "bb46": 8009,
      "2430": 8010,
      "86f5": 8011,
      "2168": 8012,
      "5065": 8013,
      "48ef": 8014,
      "2b2c": 8015,
      "5902": 8016,
      "cdac": 8017,
      "4f9d": 8018,
      "a867": 8019,
      "5368": 8020,
      "bb39": 8021,
      "9393": 8022,
      "3bc7": 8023,
      "7770": 8024,
      "8798": 8025,
      "de25": 8026,
      "015a": 8027,
      "6a6a": 8028,
      "0aaf": 8029,
      "9964": 8030,
      "2bb2": 8031,
      "7804": 8032,
      "7a6c": 8033,
      "d98c": 8034,
      "05dd": 8035,
      "5359": 8036,
      "42ce": 8037,
      "6c2f": 8038,
      "6b92": 8039,
      "6930": 8040,
      "74da": 8041,
      "bb40": 8042,
      "ca46": 8043,
      "762e": 8044,
      "d78b": 8045,
      "e11a": 8046,
      "f3d7": 8047,
      "bb67": 8048,
      "7ad0": 8049,
      "c750": 8050,
      "0778": 8051,
      "044d": 8052,
      "05c1": 8053,
      "8b64": 8054,
      "7ae4": 8055,
      "a65d": 8056,
      "c198": 8057,
      "15d9": 8058,
      "0854": 8059,
      "0861": 8060,
      "d50a": 8061,
      "fc15": 8062,
      "42e0": 8063,
      "0665": 8064,
      "0aba": 8065,
      "beb7": 8066,
      "8bab": 8067,
      "4692": 8068,
      "db92": 8069,
      "209c": 8070,
      "9527": 8071,
      "0e2b": 8072,
      "6b31": 8073,
      "535f": 8074,
      "2ce1": 8075,
      "3144": 8076,
      "eae5": 8077,
      "4d69": 8078,
      "454a": 8079,
      "04d8": 8080,
      "6273": 8081,
      "9cd3": 8082,
      "d56d": 8083,
      "387e": 8084,
      "202e": 8085,
      "41ec": 8086,
      "858f": 8087,
      "4487": 8088,
      "4e47": 8089,
      "5145": 8090,
      "ce5c": 8091,
      "732b": 8092,
      "0424": 8093,
      "0353": 8094,
      "36d6": 8095,
      "3889": 8096,
      "fcd5": 8097,
      "72ab": 8098,
      "7222": 8099,
      "c7e7": 8100,
      "0d33": 8101,
      "5656": 8102,
      "8253": 8103,
      "da37": 8104,
      "d752": 8105,
      "e2c5": 8106,
      "6f44": 8107,
      "2df1": 8108,
      "05d2": 8109,
      "eab2": 8110,
      "1809": 8111,
      "ec36": 8112,
      "f103": 8113,
      "7cde": 8114,
      "4f46": 8115,
      "b4e4": 8116,
      "253e": 8117,
      "f323": 8118,
      "16b7": 8119,
      "a95f": 8120,
      "fc98": 8121,
      "d3fc": 8122,
      "030f": 8123,
      "5552": 8124,
      "ed4c": 8125,
      "aa99": 8126,
      "9552": 8127,
      "1e25": 8128,
      "a192": 8129,
      "6450": 8130,
      "f5ee": 8131,
      "406f": 8132,
      "988a": 8133,
      "caca": 8134,
      "fda8": 8135,
      "436a": 8136,
      "ec6a": 8137,
      "2324": 8138,
      "916f": 8139,
      "0343": 8140,
      "6f02": 8141,
      "0d0e": 8142,
      "0412": 8143,
      "b226": 8144,
      "107f": 8145,
      "9231": 8146,
      "4bbe": 8147,
      "0179": 8148,
      "3eab": 8149,
      "2bf1": 8150,
      "0cc3": 8151,
      "4a56": 8152,
      "8ef5": 8153,
      "e1d7": 8154,
      "f9e8": 8155,
      "e73e": 8156,
      "ec67": 8157,
      "18a7": 8158,
      "de49": 8159,
      "32fe": 8160,
      "5225": 8161,
      "6257": 8162,
      "7d59": 8163,
      "fc4e": 8164,
      "dec4": 8165,
      "636d": 8166,
      "9214": 8167,
      "1807": 8168,
      "f313": 8169,
      "a820": 8170,
      "1b1c": 8171,
      "26fd": 8172,
      "062f": 8173,
      "c438": 8174,
      "6675": 8175,
      "5630": 8176,
      "574f": 8177,
      "3f0d": 8178,
      "2f61": 8179,
      "02ec": 8180,
      "a5d2": 8181,
      "6a20": 8182,
      "e764": 8183,
      "f74c": 8184,
      "5276": 8185,
      "8612": 8186,
      "8f59": 8187,
      "8d46": 8188,
      "32d4": 8189,
      "fe7d": 8190,
      "8bcc": 8191,
      "d026": 8192,
      "2a5f": 8193,
      "856e": 8194,
      "7924": 8195,
      "5933": 8196,
      "0c62": 8197,
      "0f10": 8198,
      "b205": 8199,
      "0dfe": 8200,
      "7f9b": 8201,
      "0d89": 8202,
      "b87d": 8203,
      "3015": 8204,
      "d1b6": 8205,
      "6f01": 8206,
      "504f": 8207,
      "6668": 8208,
      "8e39": 8209,
      "b3e0": 8210,
      "0d25": 8211,
      "add2": 8212,
      "92b2": 8213,
      "ba7d": 8214,
      "5fe4": 8215,
      "4238": 8216,
      "4683": 8217,
      "9b22": 8218,
      "d9e2": 8219,
      "5204": 8220,
      "8f50": 8221,
      "4fbc": 8222,
      "8f78": 8223,
      "67f1": 8224,
      "5961": 8225,
      "f432": 8226,
      "cc9d": 8227,
      "88cf": 8228,
      "066e": 8229,
      "4acd": 8230,
      "bebd": 8231,
      "3104": 8232,
      "1717": 8233,
      "824d": 8234,
      "a288": 8235,
      "89f9": 8236,
      "d534": 8237,
      "92c5": 8238,
      "0a2a": 8239,
      "bb5f": 8240,
      "0764": 8241,
      "bb53": 8242,
      "4b96": 8243,
      "7445": 8244,
      "4b21": 8245,
      "3455": 8246,
      "9ef5": 8247,
      "e030": 8248,
      "a082": 8249,
      "0175": 8250,
      "e751": 8251,
      "a3f9": 8252,
      "385a": 8253,
      "4332": 8254,
      "7a9d": 8255,
      "3b2d": 8256,
      "8e25": 8257,
      "03d8": 8258,
      "5bed": 8259,
      "98e4": 8260,
      "82da": 8261,
      "992f": 8262,
      "e2e1": 8263,
      "9404": 8264,
      "7020": 8265,
      "a422": 8266,
      "d306": 8267,
      "47a8": 8268,
      "e46c": 8269,
      "1319": 8270,
      "9df2": 8271,
      "b762": 8272,
      "0ade": 8273,
      "3e05": 8274,
      "c86d": 8275,
      "0f2a": 8276,
      "eaea": 8277,
      "5da3": 8278,
      "ada8": 8279,
      "dcb3": 8280,
      "4012": 8281,
      "a17b": 8282,
      "cd07": 8283,
      "0f2e": 8284,
      "491b": 8285,
      "6c6d": 8286,
      "f9c0": 8287,
      "206c": 8288,
      "443b": 8289,
      "f10c": 8290,
      "2a2b": 8291,
      "15cd": 8292,
      "257c": 8293,
      "2623": 8294,
      "2757": 8295,
      "17c3": 8296,
      "1ecd": 8297,
      "8c8d": 8298,
      "bd17": 8299,
      "7d9e": 8300,
      "78f5": 8301,
      "897b": 8302,
      "3509": 8303,
      "bb75": 8304,
      "f1bc": 8305,
      "7460": 8306,
      "1ced": 8307,
      "4a76": 8308,
      "b6e8": 8309,
      "0a14": 8310,
      "7d8e": 8311,
      "376a": 8312,
      "547f": 8313,
      "2d4e": 8314,
      "07b9": 8315,
      "4c5e": 8316,
      "8f6c": 8317,
      "c499": 8318,
      "5920": 8319,
      "c57a": 8320,
      "f794": 8321,
      "0317": 8322,
      "0d30": 8323,
      "5f88": 8324,
      "3cf5": 8325,
      "ef30": 8326,
      "eed7": 8327,
      "cf6d": 8328,
      "ef1f": 8329,
      "7978": 8330,
      "e5c5": 8331,
      "1451": 8332,
      "2155": 8333,
      "9c85": 8334,
      "60bb": 8335,
      "2393": 8336,
      "3107": 8337,
      "d52f": 8338,
      "9c13": 8339,
      "0bc5": 8340,
      "e29e": 8341,
      "95a7": 8342,
      "89ad": 8343,
      "2930": 8344,
      "ec08": 8345,
      "e224": 8346,
      "3c4a": 8347,
      "6bda": 8348,
      "31d2": 8349,
      "bc52": 8350,
      "e24b": 8351,
      "f757": 8352,
      "6d81": 8353,
      "61f3": 8354,
      "3071": 8355,
      "da3d": 8356,
      "12d2": 8357,
      "6168": 8358,
      "f714": 8359,
      "9384": 8360,
      "939e": 8361,
      "cb5b": 8362,
      "a81c": 8363,
      "1447": 8364,
      "aa0b": 8365,
      "46ef": 8366,
      "9c48": 8367,
      "ed27": 8368,
      "7e8b": 8369,
      "6d0c": 8370,
      "2122": 8371,
      "0837": 8372,
      "3372": 8373,
      "1a85": 8374,
      "1656": 8375,
      "4556": 8376,
      "0540": 8377,
      "7ae1": 8378,
      "296c": 8379,
      "65a3": 8380,
      "871a": 8381,
      "79c0": 8382,
      "0d18": 8383,
      "ae8b": 8384,
      "a3df": 8385,
      "4063": 8386,
      "2f28": 8387,
      "0590": 8388,
      "03ee": 8389,
      "ff5c": 8390,
      "cc5b": 8391,
      "2858": 8392,
      "0a1c": 8393,
      "096d": 8394,
      "be5c": 8395,
      "0194": 8396,
      "d31c": 8397,
      "4746": 8398,
      "650c": 8399,
      "392d": 8400,
      "97a2": 8401,
      "1c27": 8402,
      "298e": 8403,
      "3dad": 8404,
      "3453": 8405,
      "3c0c": 8406,
      "68df": 8407,
      "09bd": 8408,
      "e395": 8409,
      "ecbc": 8410,
      "7de0": 8411,
      "a984": 8412,
      "b854": 8413,
      "dd7e": 8414,
      "dc90": 8415,
      "1147": 8416,
      "49f8": 8417,
      "8797": 8418,
      "cd6a": 8419,
      "e5de": 8420,
      "156d": 8421,
      "50d6": 8422,
      "8026": 8423,
      "c99a": 8424,
      "5ada": 8425,
      "029d": 8426,
      "c354": 8427,
      "712d": 8428,
      "adc6": 8429,
      "2e36": 8430,
      "3b06": 8431,
      "7cd0": 8432,
      "645f": 8433,
      "631c": 8434,
      "d906": 8435,
      "2abf": 8436,
      "b70a": 8437,
      "7fc3": 8438,
      "7332": 8439,
      "6c07": 8440,
      "c6b2": 8441,
      "6c49": 8442,
      "245c": 8443,
      "6bed": 8444,
      "0216": 8445,
      "3558": 8446,
      "6c84": 8447,
      "a558": 8448,
      "4aa7": 8449,
      "567b": 8450,
      "c684": 8451,
      "8a8a": 8452,
      "6bc4": 8453,
      "a74d": 8454,
      "583f": 8455,
      "6274": 8456,
      "e43e": 8457,
      "a7ab": 8458,
      "42bc": 8459,
      "0c2f": 8460,
      "442f": 8461,
      "fa94": 8462,
      "8ddd": 8463,
      "b4f3": 8464,
      "49e8": 8465,
      "b37c": 8466,
      "d5ba": 8467,
      "5db5": 8468,
      "37e3": 8469,
      "c071": 8470,
      "a929": 8471,
      "434c": 8472,
      "41bd": 8473,
      "7147": 8474,
      "9c07": 8475,
      "ab5c": 8476,
      "f19b": 8477,
      "337c": 8478,
      "4f1a": 8479,
      "b140": 8480,
      "d49a": 8481,
      "6409": 8482,
      "7edc": 8483,
      "23ad": 8484,
      "7466": 8485,
      "a617": 8486,
      "553b": 8487,
      "5b70": 8488,
      "f907": 8489,
      "b05a": 8490,
      "9f2d": 8491,
      "fa2b": 8492,
      "590f": 8493,
      "71a8": 8494,
      "f929": 8495,
      "8374": 8496,
      "531b": 8497,
      "1160": 8498,
      "fd6c": 8499,
      "2bf8": 8500,
      "9288": 8501,
      "97f6": 8502,
      "366b": 8503,
      "e029": 8504,
      "b0ee": 8505,
      "3343": 8506,
      "9dc0": 8507,
      "cd38": 8508,
      "5266": 8509,
      "5dd3": 8510,
      "e78d": 8511,
      "1268": 8512,
      "04fc": 8513,
      "0522": 8514,
      "ee95": 8515,
      "1021": 8516,
      "aaa7": 8517,
      "1e92": 8518,
      "59ea": 8519,
      "0e2a": 8520,
      "5555": 8521,
      "63b5": 8522,
      "96e2": 8523,
      "e4d7": 8524,
      "a5c1": 8525,
      "083e": 8526,
      "3f22": 8527,
      "792d": 8528,
      "9707": 8529,
      "2fa8": 8530,
      "d652": 8531,
      "f3b3": 8532,
      "2cee": 8533,
      "c5d7": 8534,
      "b637": 8535,
      "b690": 8536,
      "e1aa": 8537,
      "d559": 8538,
      "49f9": 8539,
      "f1f9": 8540,
      "83a9": 8541,
      "4f5d": 8542,
      "bb6f": 8543,
      "c447": 8544,
      "5613": 8545,
      "eec7": 8546,
      "b07e": 8547,
      "16a8": 8548,
      "7234": 8549,
      "c626": 8550,
      "9d17": 8551,
      "05e0": 8552,
      "0217": 8553,
      "b42f": 8554,
      "43e0": 8555,
      "09d4": 8556,
      "f998": 8557,
      "d63c": 8558,
      "2644": 8559,
      "be52": 8560,
      "0afe": 8561,
      "b3c7": 8562,
      "4e0e": 8563,
      "15b3": 8564,
      "01d6": 8565,
      "16ef": 8566,
      "640b": 8567,
      "cf64": 8568,
      "01c2": 8569,
      "855d": 8570,
      "9313": 8571,
      "6004": 8572,
      "a8b8": 8573,
      "f671": 8574,
      "df39": 8575,
      "3a1d": 8576,
      "015b": 8577,
      "462c": 8578,
      "52e6": 8579,
      "2bc2": 8580,
      "0311": 8581,
      "8c66": 8582,
      "306f": 8583,
      "bf5d": 8584,
      "1f4c": 8585,
      "423a": 8586,
      "59cd": 8587,
      "3109": 8588,
      "69b1": 8589,
      "28a0": 8590,
      "d0e7": 8591,
      "cf47": 8592,
      "498c": 8593,
      "98ed": 8594,
      "a329": 8595,
      "48e0": 8596,
      "8346": 8597,
      "2037": 8598,
      "d61a": 8599,
      "ab8b": 8600,
      "29b7": 8601,
      "cbdb": 8602,
      "bb51": 8603,
      "9b16": 8604,
      "861f": 8605,
      "30f9": 8606,
      "71aa": 8607,
      "5705": 8608,
      "3606": 8609,
      "55b0": 8610,
      "1847": 8611,
      "c3b5": 8612,
      "9dee": 8613,
      "2c15": 8614,
      "9b39": 8615,
      "b5fd": 8616,
      "da1e": 8617,
      "c414": 8618,
      "2d8d": 8619,
      "0532": 8620,
      "c98b": 8621,
      "b798": 8622,
      "2521": 8623,
      "e335": 8624,
      "0559": 8625,
      "23d4": 8626,
      "5cf6": 8627,
      "5635": 8628,
      "2b1e": 8629,
      "6127": 8630,
      "80f3": 8631,
      "86e2": 8632,
      "0a31": 8633,
      "7baa": 8634,
      "2665": 8635,
      "6f4f": 8636,
      "057e": 8637,
      "993d": 8638,
      "20d0": 8639,
      "4755": 8640,
      "554e": 8641,
      "2a5c": 8642,
      "3af5": 8643,
      "8dd9": 8644,
      "8723": 8645,
      "b3e3": 8646,
      "4344": 8647,
      "d202": 8648,
      "28e7": 8649,
      "05ed": 8650,
      "3766": 8651,
      "6ad8": 8652,
      "0e48": 8653,
      "918b": 8654,
      "4533": 8655,
      "5e29": 8656,
      "c493": 8657,
      "57e2": 8658,
      "0546": 8659,
      "dd55": 8660,
      "d10c": 8661,
      "1103": 8662,
      "2034": 8663,
      "05bc": 8664,
      "e70f": 8665,
      "2af3": 8666,
      "392f": 8667,
      "feb1": 8668,
      "1bb3": 8669,
      "9499": 8670,
      "b4a1": 8671,
      "0870": 8672,
      "8d0e": 8673,
      "0b95": 8674,
      "f53c": 8675,
      "2d5c": 8676,
      "c45c": 8677,
      "d768": 8678,
      "902c": 8679,
      "402b": 8680,
      "6c4f": 8681,
      "b2ad": 8682,
      "4d1a": 8683,
      "40dc": 8684,
      "d169": 8685,
      "922b": 8686,
      "6143": 8687,
      "6a27": 8688,
      "069d": 8689,
      "cb73": 8690,
      "987c": 8691,
      "ed65": 8692,
      "b2d5": 8693,
      "5487": 8694,
      "d0a7": 8695,
      "a9e3": 8696,
      "c6a2": 8697,
      "8b1d": 8698,
      "8d1a": 8699,
      "20dc": 8700,
      "1b14": 8701,
      "78a2": 8702,
      "8c56": 8703,
      "1684": 8704,
      "1cb9": 8705,
      "f359": 8706,
      "7d8b": 8707,
      "34f4": 8708,
      "61a4": 8709,
      "f2a8": 8710,
      "588d": 8711,
      "6867": 8712,
      "9bc5": 8713,
      "076b": 8714,
      "3f4b": 8715,
      "98a7": 8716,
      "1d1e": 8717,
      "4147": 8718,
      "0a8a": 8719,
      "ef7e": 8720,
      "5243": 8721,
      "0aaa": 8722,
      "0b66": 8723,
      "8061": 8724,
      "6d02": 8725,
      "9630": 8726,
      "b95d": 8727,
      "37e4": 8728,
      "f697": 8729,
      "9ba1": 8730,
      "1dd0": 8731,
      "b44d": 8732,
      "7746": 8733,
      "0494": 8734,
      "937c": 8735,
      "eb14": 8736,
      "f50a": 8737,
      "c5fa": 8738,
      "84a9": 8739,
      "d8f3": 8740,
      "8a0b": 8741,
      "7962": 8742,
      "b29f": 8743,
      "9ea5": 8744,
      "4978": 8745,
      "3205": 8746,
      "01bd": 8747,
      "caf9": 8748,
      "d351": 8749,
      "d6cb": 8750,
      "4d58": 8751,
      "0563": 8752,
      "0261": 8753,
      "cb46": 8754,
      "bb1c": 8755,
      "204b": 8756,
      "f9c1": 8757,
      "064f": 8758,
      "ed3b": 8759,
      "017f": 8760,
      "d952": 8761,
      "306b": 8762,
      "4f4f": 8763,
      "2bb1": 8764,
      "6533": 8765,
      "16e2": 8766,
      "1155": 8767,
      "69c8": 8768,
      "8f09": 8769,
      "2c26": 8770,
      "c6d9": 8771,
      "d92f": 8772,
      "329b": 8773,
      "1b95": 8774,
      "2c03": 8775,
      "0773": 8776,
      "a763": 8777,
      "3117": 8778,
      "cb4e": 8779,
      "b6bb": 8780,
      "cdd2": 8781,
      "7c72": 8782,
      "e173": 8783,
      "e8ae": 8784,
      "6a83": 8785,
      "e04d": 8786,
      "abba": 8787,
      "10c0": 8788,
      "b2eb": 8789,
      "040d": 8790,
      "2cc6": 8791,
      "a4cd": 8792,
      "3664": 8793,
      "03e8": 8794,
      "9b7d": 8795,
      "71b0": 8796,
      "dd02": 8797,
      "cabd": 8798,
      "c44f": 8799,
      "ebfe": 8800,
      "d430": 8801,
      "068c": 8802,
      "2bd1": 8803,
      "3eb6": 8804,
      "2942": 8805,
      "5bbc": 8806,
      "6706": 8807,
      "dbd2": 8808,
      "541c": 8809,
      "524a": 8810,
      "a454": 8811,
      "c871": 8812,
      "51bd": 8813,
      "1041": 8814,
      "284c": 8815,
      "1db1": 8816,
      "f060": 8817,
      "5df2": 8818,
      "de86": 8819,
      "7cb4": 8820,
      "d6d7": 8821,
      "1eab": 8822,
      "ed14": 8823,
      "bd9d": 8824,
      "34b5": 8825,
      "6e79": 8826,
      "ad09": 8827,
      "32a4": 8828,
      "65a1": 8829,
      "4dbe": 8830,
      "af7e": 8831,
      "7a56": 8832,
      "5220": 8833,
      "5cc2": 8834,
      "8bb2": 8835,
      "d286": 8836,
      "753b": 8837,
      "7262": 8838,
      "a88c": 8839,
      "d52a": 8840,
      "4331": 8841,
      "01d1": 8842,
      "a1d5": 8843,
      "b744": 8844,
      "d76c": 8845,
      "507a": 8846,
      "9953": 8847,
      "bc54": 8848,
      "0b36": 8849,
      "107a": 8850,
      "ac91": 8851,
      "e12b": 8852,
      "0551": 8853,
      "bd28": 8854,
      "9127": 8855,
      "027e": 8856,
      "a805": 8857,
      "4dfd": 8858,
      "c504": 8859,
      "ad53": 8860,
      "8f62": 8861,
      "aa19": 8862,
      "25ca": 8863,
      "2a42": 8864,
      "018d": 8865,
      "eed6": 8866,
      "1692": 8867,
      "520f": 8868,
      "9db6": 8869,
      "651f": 8870,
      "0322": 8871,
      "b5c4": 8872,
      "3906": 8873,
      "3b67": 8874,
      "2843": 8875,
      "428b": 8876,
      "3b6c": 8877,
      "a8cc": 8878,
      "0a6e": 8879,
      "1670": 8880,
      "0c73": 8881,
      "bb4b": 8882,
      "0a3d": 8883,
      "2204": 8884,
      "6df6": 8885,
      "dc5d": 8886,
      "058f": 8887,
      "0213": 8888,
      "4c45": 8889,
      "7282": 8890,
      "d6d5": 8891,
      "d2e3": 8892,
      "c6cd": 8893,
      "430f": 8894,
      "4ba8": 8895,
      "6e15": 8896,
      "a028": 8897,
      "f3b1": 8898,
      "24f0": 8899,
      "a7c6": 8900,
      "7775": 8901,
      "08c9": 8902,
      "0209": 8903,
      "2721": 8904,
      "b0e2": 8905,
      "361d": 8906,
      "746e": 8907,
      "2ad9": 8908,
      "3796": 8909,
      "4a8d": 8910,
      "e6f0": 8911,
      "3253": 8912,
      "6468": 8913,
      "b730": 8914,
      "84d5": 8915,
      "1c7e": 8916,
      "7963": 8917,
      "1067": 8918,
      "ba25": 8919,
      "c287": 8920,
      "6636": 8921,
      "9c7f": 8922,
      "ca87": 8923,
      "a959": 8924,
      "d79c": 8925,
      "1ca8": 8926,
      "bac4": 8927,
      "90e8": 8928,
      "d730": 8929,
      "9571": 8930,
      "a3da": 8931,
      "20a0": 8932,
      "a685": 8933,
      "f629": 8934,
      "018c": 8935,
      "21b6": 8936,
      "0504": 8937,
      "6d62": 8938,
      "d168": 8939,
      "3175": 8940,
      "6333": 8941,
      "3c10": 8942,
      "6433": 8943,
      "2555": 8944,
      "1891": 8945,
      "bb43": 8946,
      "1bde": 8947,
      "4146": 8948,
      "2ae4": 8949,
      "b43f": 8950,
      "d436": 8951,
      "16b5": 8952,
      "44d9": 8953,
      "918c": 8954,
      "81bb": 8955,
      "ef13": 8956,
      "f6c6": 8957,
      "1748": 8958,
      "632f": 8959,
      "fcb1": 8960,
      "3863": 8961,
      "c4bb": 8962,
      "ab42": 8963,
      "d569": 8964,
      "a381": 8965,
      "6ce7": 8966,
      "4870": 8967,
      "b4c9": 8968,
      "c7e0": 8969,
      "c5ca": 8970,
      "8b02": 8971,
      "2005": 8972,
      "2fe5": 8973,
      "fff0": 8974,
      "3364": 8975,
      "303c": 8976,
      "b835": 8977,
      "8b9c": 8978,
      "4294": 8979,
      "cd73": 8980,
      "f112": 8981,
      "6c6b": 8982,
      "7eae": 8983,
      "1ddc": 8984,
      "50da": 8985,
      "9706": 8986,
      "751a": 8987,
      "98dc": 8988,
      "15b7": 8989,
      "f49d": 8990,
      "dfa0": 8991,
      "586f": 8992,
      "a796": 8993,
      "af18": 8994,
      "c686": 8995,
      "085f": 8996,
      "6735": 8997,
      "8b5e": 8998,
      "472b": 8999,
      "8182": 9000,
      "bb5d": 9001,
      "fc0b": 9002,
      "40cd": 9003,
      "78a8": 9004,
      "7dcd": 9005,
      "9637": 9006,
      "5c33": 9007,
      "2b3c": 9008,
      "5530": 9009,
      "4e43": 9010,
      "5b2a": 9011,
      "d631": 9012,
      "cce4": 9013,
      "963a": 9014,
      "de45": 9015,
      "38b4": 9016,
      "a22d": 9017,
      "a92d": 9018,
      "e6ae": 9019,
      "a3d6": 9020,
      "70d1": 9021,
      "c003": 9022,
      "0afc": 9023,
      "b4e9": 9024,
      "e317": 9025,
      "d931": 9026,
      "8628": 9027,
      "a2c5": 9028,
      "bb52": 9029,
      "06ae": 9030,
      "3263": 9031,
      "201b": 9032,
      "c4af": 9033,
      "6f99": 9034,
      "1ceb": 9035,
      "0476": 9036,
      "0469": 9037,
      "63b8": 9038,
      "583a": 9039,
      "1518": 9040,
      "0173": 9041,
      "29f0": 9042,
      "640d": 9043,
      "bb03": 9044,
      "eabc": 9045,
      "31ea": 9046,
      "2747": 9047,
      "0448": 9048,
      "6d88": 9049,
      "c8a5": 9050,
      "8041": 9051,
      "4b5a": 9052,
      "0187": 9053,
      "2847": 9054,
      "9257": 9055,
      "d821": 9056,
      "d702": 9057,
      "1d82": 9058,
      "86ed": 9059,
      "492e": 9060,
      "c031": 9061,
      "39a1": 9062,
      "8209": 9063,
      "a38d": 9064,
      "0bd1": 9065,
      "6366": 9066,
      "f60d": 9067,
      "6498": 9068,
      "2eed": 9069,
      "0acf": 9070,
      "9dfb": 9071,
      "3076": 9072,
      "d135": 9073,
      "de42": 9074,
      "19b0": 9075,
      "61e9": 9076,
      "06eb": 9077,
      "f208": 9078,
      "42e3": 9079,
      "4ccb": 9080,
      "0f95": 9081,
      "ac0e": 9082,
      "b378": 9083,
      "6da8": 9084,
      "bb2c": 9085,
      "2d66": 9086,
      "2330": 9087,
      "4e90": 9088,
      "bb3b": 9089,
      "bb47": 9090,
      "8030": 9091,
      "5ca8": 9092,
      "a917": 9093,
      "4441": 9094,
      "a80b": 9095,
      "18ba": 9096,
      "2ad3": 9097,
      "63b6": 9098,
      "6c0f": 9099,
      "2383": 9100,
      "bb4a": 9101,
      "6e12": 9102,
      "0193": 9103,
      "97fc": 9104,
      "e098": 9105,
      "df7f": 9106,
      "a682": 9107,
      "8b20": 9108,
      "e67f": 9109,
      "e8ab": 9110,
      "459b": 9111,
      "d002": 9112,
      "8b24": 9113,
      "6eb2": 9114,
      "cd51": 9115,
      "cc75": 9116,
      "3dfb": 9117,
      "21e1": 9118,
      "6a65": 9119,
      "1023": 9120,
      "0576": 9121,
      "3a5e": 9122,
      "ff58": 9123,
      "e429": 9124,
      "1382": 9125,
      "6f36": 9126,
      "1810": 9127,
      "9d20": 9128,
      "4336": 9129,
      "68f5": 9130,
      "4011": 9131,
      "e543": 9132,
      "aa81": 9133,
      "8d84": 9134,
      "fb05": 9135,
      "5f72": 9136,
      "2f6d": 9137,
      "2c64": 9138,
      "814e": 9139,
      "611c": 9140,
      "1d40": 9141,
      "2727": 9142,
      "4246": 9143,
      "55dd": 9144,
      "706b": 9145,
      "7fff": 9146,
      "ffe6": 9147,
      "74d5": 9148,
      "92d5": 9149,
      "81d7": 9150,
      "3cdd": 9151,
      "1767": 9152,
      "0654": 9153,
      "aae2": 9154,
      "da15": 9155,
      "d92e": 9156,
      "8f08": 9157,
      "e773": 9158,
      "a728": 9159,
      "dc6c": 9160,
      "b67e": 9161,
      "b11f": 9162,
      "030d": 9163,
      "1328": 9164,
      "3914": 9165,
      "a6f1": 9166,
      "8b10": 9167,
      "bc0a": 9168,
      "9726": 9169,
      "5e73": 9170,
      "e341": 9171,
      "f353": 9172,
      "8af2": 9173,
      "e0b0": 9174,
      "0d68": 9175,
      "cf28": 9176,
      "5070": 9177,
      "0574": 9178,
      "3374": 9179,
      "f040": 9180,
      "81f0": 9181,
      "5829": 9182,
      "0fc2": 9183,
      "4992": 9184,
      "af98": 9185,
      "2ae2": 9186,
      "0bcd": 9187,
      "38f7": 9188,
      "fb66": 9189,
      "2d0a": 9190,
      "499a": 9191,
      "3c23": 9192,
      "0583": 9193,
      "9506": 9194,
      "8ff4": 9195,
      "dac3": 9196,
      "d717": 9197,
      "3687": 9198,
      "c446": 9199,
      "be16": 9200,
      "e28f": 9201,
      "3f6c": 9202,
      "0d10": 9203,
      "0493": 9204,
      "6919": 9205,
      "4372": 9206,
      "5003": 9207,
      "c50e": 9208,
      "4925": 9209,
      "0e31": 9210,
      "155c": 9211,
      "35f3": 9212,
      "0183": 9213,
      "ef7d": 9214,
      "4c53": 9215,
      "7529": 9216,
      "bb3a": 9217,
      "bf40": 9218,
      "221e": 9219,
      "7678": 9220,
      "b7f1": 9221,
      "6cd6": 9222,
      "9d7b": 9223,
      "a0c6": 9224,
      "96dc": 9225,
      "ef7c": 9226,
      "40c5": 9227,
      "c03b": 9228,
      "670a": 9229,
      "0aee": 9230,
      "af2c": 9231,
      "55e3": 9232,
      "37bd": 9233,
      "8a7e": 9234,
      "f03c": 9235,
      "25bb": 9236,
      "c669": 9237,
      "12e6": 9238,
      "7506": 9239,
      "2106": 9240,
      "b90a": 9241,
      "b8ef": 9242,
      "4398": 9243,
      "4b05": 9244,
      "886f": 9245,
      "0973": 9246,
      "0f64": 9247,
      "e23d": 9248,
      "4153": 9249,
      "c290": 9250,
      "1815": 9251,
      "0195": 9252,
      "a02e": 9253,
      "fa4d": 9254,
      "5002": 9255,
      "9f4b": 9256,
      "b0ab": 9257,
      "6406": 9258,
      "0878": 9259,
      "1e8b": 9260,
      "b434": 9261,
      "7bc5": 9262,
      "09d0": 9263,
      "3564": 9264,
      "5fbe": 9265,
      "6c1b": 9266,
      "bb31": 9267,
      "736e": 9268,
      "340f": 9269,
      "c50b": 9270,
      "2e20": 9271,
      "dffc": 9272,
      "87c2": 9273,
      "5031": 9274,
      "2035": 9275,
      "23e6": 9276,
      "6003": 9277,
      "f03b": 9278,
      "2510": 9279,
      "350c": 9280,
      "0571": 9281,
      "a5a8": 9282,
      "451a": 9283,
      "76ad": 9284,
      "14c1": 9285,
      "c007": 9286,
      "f67c": 9287,
      "3323": 9288,
      "69fb": 9289,
      "1ca6": 9290,
      "082a": 9291,
      "400b": 9292,
      "eca0": 9293,
      "e808": 9294,
      "8303": 9295,
      "a0d8": 9296,
      "3267": 9297,
      "0535": 9298,
      "9dce": 9299,
      "5972": 9300,
      "7969": 9301,
      "7309": 9302,
      "f669": 9303,
      "80af": 9304,
      "e259": 9305,
      "8409": 9306,
      "2743": 9307,
      "b7c6": 9308,
      "1d3e": 9309,
      "8fdf": 9310,
      "2569": 9311,
      "2a1a": 9312,
      "a899": 9313,
      "56b6": 9314,
      "4186": 9315,
      "3e74": 9316,
      "42d5": 9317,
      "ee66": 9318,
      "f707": 9319,
      "aefe": 9320,
      "fe5d": 9321,
      "5006": 9322,
      "8185": 9323,
      "7f0a": 9324,
      "1e37": 9325,
      "e117": 9326,
      "8726": 9327,
      "5dc1": 9328,
      "8683": 9329,
      "8556": 9330,
      "5673": 9331,
      "5442": 9332,
      "ffbf": 9333,
      "561a": 9334,
      "502c": 9335,
      "5745": 9336,
      "105f": 9337,
      "352d": 9338,
      "6a61": 9339,
      "3b8f": 9340,
      "fffc": 9341,
      "2e37": 9342,
      "0a60": 9343,
      "96d3": 9344,
      "0ab6": 9345,
      "6764": 9346,
      "cf6f": 9347,
      "0c17": 9348,
      "4717": 9349,
      "9c11": 9350,
      "6332": 9351,
      "4727": 9352,
      "e043": 9353,
      "18d9": 9354,
      "3c9e": 9355,
      "6020": 9356,
      "9cac": 9357,
      "6220": 9358,
      "9241": 9359,
      "0af5": 9360,
      "feb9": 9361,
      "4607": 9362,
      "ae12": 9363,
      "3e78": 9364,
      "a9f6": 9365,
      "6c1a": 9366,
      "0691": 9367,
      "f203": 9368,
      "b837": 9369,
      "e936": 9370,
      "02b0": 9371,
      "edb8": 9372,
      "345b": 9373,
      "8696": 9374,
      "7863": 9375,
      "0866": 9376,
      "4777": 9377,
      "9d66": 9378,
      "07d8": 9379,
      "750e": 9380,
      "4106": 9381,
      "4769": 9382,
      "73df": 9383,
      "dfff": 9384,
      "12ff": 9385,
      "4465": 9386,
      "71ca": 9387,
      "8523": 9388,
      "b510": 9389,
      "9d64": 9390,
      "a8b6": 9391,
      "bc5e": 9392,
      "5249": 9393,
      "35f1": 9394,
      "53f5": 9395,
      "9224": 9396,
      "4e51": 9397,
      "0ab4": 9398,
      "2816": 9399,
      "054b": 9400,
      "61d5": 9401,
      "c944": 9402,
      "4235": 9403,
      "c6ee": 9404,
      "5443": 9405,
      "300b": 9406,
      "6060": 9407,
      "0277": 9408,
      "bb5a": 9409,
      "862c": 9410,
      "d51e": 9411,
      "cada": 9412,
      "10ce": 9413,
      "7036": 9414,
      "e919": 9415,
      "3704": 9416,
      "2fbf": 9417,
      "0737": 9418,
      "cc14": 9419,
      "59c2": 9420,
      "ef7f": 9421,
      "2874": 9422,
      "695f": 9423,
      "4529": 9424,
      "cb16": 9425,
      "0a70": 9426,
      "835a": 9427,
      "bb37": 9428,
      "5f77": 9429,
      "613a": 9430,
      "51d1": 9431,
      "1f68": 9432,
      "4537": 9433,
      "3666": 9434,
      "bb70": 9435,
      "0ab0": 9436,
      "7aaa": 9437,
      "1818": 9438,
      "c01c": 9439,
      "6a15": 9440,
      "2f34": 9441,
      "6da1": 9442,
      "b5eb": 9443,
      "c028": 9444,
      "9a1e": 9445,
      "09f4": 9446,
      "37b9": 9447,
      "0235": 9448,
      "e4d8": 9449,
      "7357": 9450,
      "cca0": 9451,
      "297b": 9452,
      "055c": 9453,
      "10a8": 9454,
      "36a4": 9455,
      "4931": 9456,
      "e33d": 9457,
[...]
