[PAD]
[SEP]
[CLS]
[UNK]
[MASK]
0
1
2
3
4
5
6
7
8
9
a
b
c
d
e
f
##9
##5
##d
##2
##3
##f
##0
##a
##b
##4
##7
##6
##c
##1
##e
##8
##00
000
0000
##01
01
##03
##80
##bb
##50
##36
##74
##02
##f6
##08
##46
##72
##56
##73
##96
##76
##e6
##d6
##06
##31
##a2
##04
##c6
##32
##52
##ff
##b2
##a6
##86
##d2
##92
##51
##c1
##c2
##e2
##82
##54
##a1
##71
##53
##e1
##a4
##d1
##91
##f2
##81
##94
##f1
##b1
##d4
##b6
##e4
##c4
##f4
##b4
##e3
##84
##a3
##c3
##93
##d3
##f3
##83
##77
##9d
##55
##b3
##c0
##ef
##e7
##aa
##eb
##cd
##ed
##97
##cf
##57
##af
##c7
##98
##ad
##9f
##bd
##e0
##5d
##e8
##c8
##a0
##5f
##90
##a8
##a7
##58
##cb
##9b
03
##ab
##5b
##26
##16
##0d
04
##fd
##7d
##e9
##cc
##8d
##34
##f7
##59
##ee
06
##22
##a9
00
##c9
##87
##fb
##8b
31
##44
##21
##07
##5a
36
##33
##ec
##0b
##5c
##ea
16
46
##24
26
66
61
74
f6
86
##99
76
##f8
##dd
56
d6
96
e6
c1
c6
02
a6
##f0
41
##ac
##b7
b6
##88
##e5
81
11
##41
f1
e1
71
a1
21
b1
51
91
d1
##23
##d7
64
14
##9c
54
34
##a5
bb
94
44
b4
24
##fc
84
e4
f4
a4
d4
c4
##ae
##f9
##7b
73
##5e
32
##db
##d0
72
13
c3
82
63
##70
12
53
17
42
b2
33
a2
0001
52
23
22
62
c2
43
e3
92
f2
83
e2
93
a3
d2
d3
0a
f3
b3
##d8
##b0
50
##78
100
##b8
##fe
##010
##fa
##f5
##ca
##9a
##c5
##9e
##95
##ce
9d
6d
0d
18
fd
2d
07
3d
e7
1d
68
cd
eb
0b
bd
f7
27
97
4d
ad
dd
7d
2b
37
ed
8d
d8
67
77
57
c7
5d
87
48
47
d7
2f
38
28
a7
88
08
b7
3b
98
78
db
6b
7b
a8
4b
ff
1b
b8
6f
fb
65
ef
20
8b
ab
f8
58
5b
cb
e8
9b
c8
af
69
05
0c
0101
10
d0
0f
cf
30
df
2e
080
70
2c
1f
09
6e
e9
a0
7f
4f
39
e0
c0
5f
3f
fc
9f
8f
bf
80
40
1c
6c
59
90
f0
a9
01bb
cc
49
b0
60
89
79
f9
19
29
99
ac
c9
bc
d9
9c
35
3c
dc
ec
b9
4c
5c
7c
8c
fe
0e
##05
4e
aa
2a
3a
75
3e
ee
080a
55
1e
ae
1a
de
7e
8e
0108
5e
be
9e
ce
45
4a
7a
ca
fa
da
ea
5a
9a
6a
8a
d5
ba
25
15
b5
85
f5
a5
95
0100
c5
e5
##75
##79
##09
##0a
##0f
##7a
##0c
##85
##8f
##89
##8e
##8c
##7c
##7f
##be
##8a
##d5
##0e
##b5
8010
##bf
##d9
##7e
##bc
##b9
##ba
##da
##df
##dc
##de
##000
##30
001
6f6
0050
##2e
##20
003
636
##3a
##37
##38
696
##2d
303
##39
##35
002
##3d
##3b
0303
##2c
##2f
##3f
##27
##3e
##3c
##25
746
##29
##28
##018
##2b
##2a
656
616
bb2
##17
726
1703
##43
1004
6e6
2e6
646
##13
1000
004
##10
676
##48
##40
3a2
6c6
##d0a
##45
##14
204
300
##18
##47
5010
##42
##1a
##15
##1b
##1f
##12
##19
##1c
##49
##4f
##4e
##4d
736
6d6
##11
##4a
##4c
##4b
##1d
##020
##1e
0a4
##001
101
006
050
203
036
##0d0
2d6
0a01
756
0300
706
436
206
##504
0010
323
301
302
c00
180
666
434
0301
686
049d
bbb
008
353
##51d
652
##313
##bdf
766
308
c1ef
6e2
732
0a2
626
2f6
c02
##746
##777
0a1
0a00
373
703
016
0d0a
2f2
8018
##e30
##7d5
082
##a30
##830
4f4
bb1
##c20
333
636f
##b41
0603
536
##726
2d4
6d2
0a6
0355
632
##fff
##b30
322
076
##930
416
202
6b6
336
304
7a6
026
##d30
##72e
##570
e08
066
##730
##a0b
##92a
2d2
##030
##e3a
446
653
352
776
534
976
021
306
##f33
702
474
056
##312
eb1
##970
c01
1d2
2a2
##310
502
046
382
##e17
bb6
##c30
796
##92e
##f75
6f6d
##f30
782
332
6f2
##578
786
1d1
c3af
##920
821
##a0d
476
456
086
4c6
3a6
032
266
7d6
4d6
##8b8
801
##737
##5ae
##070
6c2
##720
##0b5
##717
802
1003
##e78
316
722
454
##937
a00
##f3f
022
106
##075
496
##732
##c3a
3b2
##0df
##b05
096
181
##595
3a20
##a0f
5f6
##727
366
##517
346
0004
##ffe
##a75
##f70
##555
9d6
##f78
444
##0de
##317
0c6
##943
##f7e
374
##c0a
2c6
532
9d2
484
526
574
##83a
##bde
ef1
##d0f
504
##ffc
f36
##575
9a6
104
200
052
##917
576
232
##775
##f35
##a35
102
506
466
##d38
##50d
##cd9
##a85
##d0e
##e70
326
0b1
546
286
##e42
##241
ef6
##c17
2bb
##d70
##d75
##aa0
##875
132
##e7d
544
356
##558
##fbc
##a17
##889
##ff0
##a07
##0dc
##24f
a02
##f7f
5b2
##c4f
932
##945
##aa7
##e35
##e41
##88e
9d1
282
##838
##a9a
##316
##51a
1b1
##914
452
##723
##c0d
##a38
8a2
##f7a
##a3a
af6
##72d
566
486
##bda
3d6
081
##0d7
ef2
##c79
##94f
##530
0b6
376
##90a
##aba
##330
##bdb
##edd
##fde
##a0c
##713
981
386
##a3f
682
##92f
##fda
0f6
4d4
##af0
##243
##aca
6a6
##a34
##557
146
6572
3d2
##0db
a32
dd1
##870
##ada
##975
##58c
##92c
406
##58d
##a0a
##0d8
##ac5
126
8c6
3f6
276
##c45
##f3c
##230
##716
##944
##714
##c95
##f37
##31f
##c8d
##516
##506
##833
##afc
bf1
##9d7
##e8b
ff2
##d8c
##e75
##711
f16
396
##fbf
##d7f
2b1
c03
##d33
c04
##5db
8e2
##59a
##245
##f0f
##a33
e06
##c44
816
##0d5
##87e
622
##0dd
##efe
##bd7
186
##fdc
##e39
##93a
503
##0da
##31c
##d35
##579
##bd9
##314
##a8a
744
##ffd
##b3c
7e2
##d39
##bdd
##91f
##933
##fbe
3bb
##8de
##c0c
##97a
##87a
##927
0d2
##a37
182
##a87
##7bf
0d6
##ad9
##f39
##ed8
586
##af5
281
ea6
ae2
##ffb
##c05
##cd0
##fdf
##e05
e32
2f1
##d78
af2
##ff8
##f8f
4f2
##c33
116
##722
##ddd
##abc
##af9
4e6
##c7f
##d89
0f2
136
bb4
##247
##705
##ffa
##333
##aaa
##c48
##835
##55f
##e3d
cbb
##24e
##92d
##ad8
6b2
##72f
##837
##f0c
##93d
##ff7
##e0f
##e79
832
##f3e
##c09
##8bf
384
##af7
##907
##c07
##f8a
##bd8
##e3b
5f2
0f1
ac6
##71f
236
836
##b7f
##dd9
##c37
##90d
##99a
##d34
##91b
##978
ec6
752
##240
##bd0
##e38
##c47
##b37
3b6
##311
##eb5
##ddc
df1
##90f
6f6e
##a09
##afb
##e10
##9f9
##c1e
##83e
##d8e
##c7b
##a7b
##eee
3030
##559
##c75
##249
##925
##77f
##ff2
##a70
##efc
##87c
fe2
e46
##dd7
##ff9
##f7c
##5df
##e1f
f76
##5ca
2e2
2b2
##935
216
1b6
##24a
fc6
b32
##834
226
##bd5
##ff4
##d8a
8b2
##ccc
##97e
##c26
1b2
##ebd
##abf
a86
d56
582
##770
##e4f
##b70
1e2
##cdf
ff1
##a7f
##fd7
##f34
##839
##7de
##d7b
##e7a
##585
##70f
##93e
##d3b
a46
##5f7
1f2
##88c
##73a
cd6
##bdc
##ff1
##909
##e3c
##ef5
##fb8
##938
432
##ff5
##24b
##efd
##d0c
##87f
##c8a
208
##7df
fbb
6a2
df2
##71e
##979
##0d9
##e1a
876
8b1
296
852
856
246
##8d0
3f1
##57a
##b78
482
806
e96
##f9a
896
##5bf
##cb7
##f7b
252
##b3e
##ddf
##5bc
##e33
##e0a
0e6
fe6
##248
##83f
##ef9
##e1d
##c7e
##97b
##ff3
c06
##51f
##e44
a56
##ee5
##d37
##5dd
##f3d
##d3e
4d2
cf1
##72c
##a8b
cd1
426
df6
##f9e
c76
##adf
##995
##e95
##a05
##514
##e3f
##c0e
##cfb
166
##ef0
##9fb
##d05
##515
##cd8
##318
##94e
##5fe
##934
##a3b
634
a06
##55c
##242
5f1
##b75
##e48
3e2
##919
##d7a
##d7e
##ddb
866
cf6
##adc
fb2
354
##d3d
##5b0
e81
##db5
##9fd
##b7b
##afa
##939
##e7f
d52
##5dc
##7db
##f95
054
##5fa
##fd8
381
##879
##efb
##c14
##aa9
556
##f85
##e3e
##a78
af1
4f6
##db8
0d1
##a7e
##9c5
##db9
##5de
e66
##a3c
1bb
##910
##9fc
##77a
ee6
##aa8
7b1
##97f
e74
a81
##eea
##51b
##edc
##91a
##878
8d2
dbb
f66
##dbf
##e7c
284
##ece
##b39
##5f8
##dbe
334
##5a5
##d79
##8df
##a7d
##55d
##c70
##512
##f79
4b6
0e2
##98c
e76
4f1
##83d
dc6
##c34
##ad5
##502
936
##fba
##edf
##71c
##942
##a9c
d06
9d4
846
##b3b
##ab5
##e7b
##929
##7dd
##31e
##a3d
##f0e
##dd0
##fb5
##24d
##b3f
d16
##e16
c52
d32
##d3f
##fdd
516
##589
##f8c
##c11
##70c
##ade
##f09
##aae
##e0b
##587
##ed7
156
ebb
901
##71b
##fdb
##8db
##9f7
##ef7
##5fd
##72a
103
fd6
196
##a88
##b7a
##5d5
##9f8
4a4
##779
##f8e
##5d9
##c1c
804
##ed5
##d8f
b06
##57e
##a8f
cd2
##c78
##ab8
b36
##98b
##97d
##7b9
##9f5
##abe
##9df
##93f
d76
##92b
ed6
##fb7
982
##a3e
0b2
##b7e
##5f0
f82
a52
##cfe
##98a
##510
##c4e
4d1
552
##e47
1c6
##51e
##948
##e09
##58a
##add
##cbf
5d2
d96
##c0b
##cbc
##e49
##d85
##924
ff6
##f88
1f1
##7be
##a7a
##5fc
##cd7
##aab
5e2
##513
##b7c
##88a
fb6
1f6
882
##c1f
874
##70a
##518
##cf9
176
ad1
##77b
d82
##b35
9b2
##cd5
##af8
##d7c
##83c
##adb
8f6
4a6
##cfa
##fb0
4e2
##f0a
##e07
##cfc
##ebc
##f3b
716
##cf8
##a39
996
##f38
1a6
##8dc
ed1
b16
##efa
##9bc
3c6
##b3d
##58f
##98f
##c7c
##940
##e0d
##a8d
5bb
d46
##888
##9d9
##dda
##e7e
0500
##fd9
cf2
##c0f
##8bc
##9fa
##e43
7f1
##8ba
##fb9
##cbe
6d1
##728
f52
##e37
d36
##90b
##9bf
a76
##721
e36
##c9e
##a79
##949
##f89
##7d8
bd2
##ad0
5a6
256
##55a
966
##94a
##afd
##b34
##eb7
##778
##913
956
##31b
##f3a
b76
##c3b
##e88
##c49
403
##57c
##e14
##9db
bd1
##eec
7d2
##e1e
##fd0
##916
508
##dde
##cfd
##a7c
9f2
##c3f
##319
##b79
##57f
##d3c
##cdc
##724
##5f5
3b1
##cdd
681
926
##eae
##5f9
##aa5
##a5e
7b6
108
##9fe
##941
f32
##c13
##ea5
##588
##99e
##aaf
##c8c
##a95
cb2
##ebe
##7d7
##afe
##5ce
##ebf
##5ba
##7da
8d1
##5be
##83b
##ef8
##5c5
##709
781
596
##9d5
4bb
0bb
##98e
##fc5
6f1
##5d8
##c1b
##94d
be6
##94c
cb1
af4
##5d7
##ede
##e12
##5b7
##c42
##9f0
bc6
##cda
##e4c
1a2
##b33
##8da
952
7b2
##c35
##c10
##315
##c7d
##719
e26
a04
##94b
##712
##ab7
8f1
eb2
fa2
##e34
abb
##7d9
##905
de6
152
##733
##cf5
##cde
ad2
##90c
##72b
##dba
##5b5
##a89
ca2
##7ba
eb6
##9dd
8b6
581
##58b
8bb
##cf7
##e13
##9ca
##71d
ab1
##eca
##c3e
de2
##23a
3f2
##77c
##9ce
9b1
fd1
##d3a
##710
##c16
##c4c
946
c66
##8be
##e0e
2f4
##ab9
##b38
##928
##98d
e04
222
##7b8
##a99
##71a
##a9e
##97c
##9b7
f06
##e15
##985
##923
##885
##e87
##e40
fa6
##f05
##7bc
##9da
##ab0
##c85
##7b5
4b2
5e6
##57d
881
bd6
##999
ab6
ed2
3e6
##77e
fb1
##e4b
b52
##e45
c16
da6
e82
##c1a
db6
##57b
##a8e
c36
##eb0
##987
c81
b82
##c8f
##ad7
##cca
##edb
9f1
##ace
##9b0
##c19
a36
d26
##c15
##8b9
##b3a
7e6
a82
7d1
##715
##cb9
c26
##fca
f46
##77d
##989
144
2b6
##fce
##cce
##7dc
9b6
##5ac
##c39
fd2
##cb8
##7d0
c56
be2
##a8c
##fd5
##9d0
##51c
##dd5
##eac
c96
##e1c
##c4d
b56
##93b
##5fb
##eb9
7f6
##c9c
##c8e
##c3c
5a2
##9d8
##91e
##c2f
##e4e
aa2
dd6
##7b0
c86
##31a
a16
274
cc6
##5b9
5b6
##dbc
##31d
6bb
a03
7bb
##aac
##9de
b96
##912
##c43
##8b0
##93c
916
##e18
ba2
ba6
da2
##a1a
##922
ae6
f81
2a6
9a2
906
1e6
##c88
##5b8
##e8e
##e1b
##aad
##58e
##5d0
2d1
##8b5
ad6
##ed9
3d1
cb6
##ed0
b81
a66
##c1d
9bb
f96
##dd8
d54
df4
##e9a
##9be
##8b7
##8d9
9e2
##c4a
##9ba
ef4
##e85
##c12
##59e
b66
##e8f
##24c
481
##947
##e11
d86
##9b8
ce6
##db0
##d09
7a2
##eba
##cb5
##87b
##079
##9b9
##55e
826
##599
##c40
ca6
##c99
##c7a
700
b86
##729
bf6
##9dc
##511
##cc9
c84
##b0a
##70e
##a0e
603
##91c
##e5e
dd2
7f2
f56
##e19
e54
4b1
##e99
##718
##c4b
##88f
##519
##e9e
##c3d
4a2
ee2
##e9c
##55b
##e4d
##c9a
##988
074
c82
bf2
ea2
##cf0
##c38
##5da
db2
aa6
e86
##cba
##8dd
##c87
402
db1
##725
986
e56
##911
##cdb
9e6
##8d7
1f4
6b1
5b1
##eb8
d66
606
7c6
a26
##33a
721
##e8d
e16
##8d8
##eda
b46
##926
5d6
c32
##99c
##e8a
5d1
##9b5
5c6
a96
ce2
##59c
##918
1005
8d6
1d6
##921
##c18
8a6
##c41
886
d81
##8d5
608
##cb0
##90e
f86
c46
##91d
##e4a
8f2
9c6
184
9f6
##e0c
##c89
##c8b
##078
ab2
##cc5
##0b7
8e6
a21
##e8c
b26
##78e
e52
f26
##915
##e89
174
141
##ec5
121
0105
##b85
e03
344
221
201
##c2a
921
1a4
ff4
903
541
554
704
##50a
##73e
e02
654
6d4
c22
a01
##73c
##50c
##c22
##07a
5d4
c41
241
##0b0
e00
341
##73f
522
244
##78a
604
b34
3d4
134
##b49
##07f
##731
a84
##b45
##73b
f41
##785
0d4
##789
0f4
3a4
400
d22
e21
6f4
##07e
##535
922
822
422
##73d
f03
404
##505
2a4
##b48
644
d21
734
##a1d
321
##c2c
841
fa4
##739
f74
##78f
b74
122
621
408
674
##c2b
bf4
854
254
a74
e34
7d4
ed4
##a15
##735
##b42
##07b
da4
##b0e
##b0c
c44
9a4
784
##50e
##c2d
##53b
##c27
##07c
d08
a08
f04
ad4
941
800
##a16
754
1d4
974
50c1
##b44
a41
e22
##507
a22
b21
##50b
##534
584
b44
f02
b04
bd4
808
##a1e
cf4
##0bf
##a14
ea4
##c21
##c23
##b8f
d41
934
##a13
9f4
421
c08
aa4
902
##b4c
##0bc
084
500
d03
234
fd4
a44
##b0f
f54
641
5f4
##0b9
d02
##a1b
984
5a4
##b43
##b4e
6a4
##734
##a12
##0b8
ba4
##50f
7f4
b22
dd4
d04
e41
f08
0035
f21
774
834
803
a54
3f4
f34
f22
c34
844
8a4
##53d
944
##78c
708
##c28
a34
f44
##509
##0ba
##b4b
ca4
c21
##804
##b4d
f84
908
d74
441
8f4
##33d
e01
904
##c2e
521
b84
b03
d34
##a19
d44
##b8e
c74
##c25
##b4f
684
7a4
##b47
##738
##53c
##b09
##b4a
954
0002
##a1f
##a1c
b02
b54
##0be
d84
e44
##b8c
##335
##b89
154
##c29
8d4
##23e
##a10
##c24
cd4
b41
##b40
e84
b08
##a18
600
602
##806
##508
##a11
##b8a
c54
##80d
884
f00
##53e
401
501
##533
d00
d01
##539
##33b
##538
##23b
1001
##338
##805
##23d
b00
##239
##80a
2e63
##235
900
##337
##339
##802
##238
##537
##33f
##808
##33e
##80f
##237
##53f
##80b
0030
701
##53a
##23c
##23f
f01
##33c
##80c
##807
b01
##80e
##809
50c3
601
0020
1603
2020
ef00
5504
0c00
0402
0005
6e74
2e31
8000
50bb
7374
0003
0201
7465
1800
551d
0200
0b00
7469
0017
1006
5018
6874
6174
6963
0302
af00
0401
7474
312e
3500
d894
6d61
2f31
0102
300d
656e
7470
50eb
0601
6d00
3230
bb26
616c
bb27
ebe0
c000
ebdf
3082
00c0
6365
c00c
6574
0363
0403
d600
6e65
7265
6573
676f
696e
2000
01c0
7274
000c
1801
3000
0505
4341
6765
2b06
8180
6361
6f6f
7777
d500
8201
03fe
03ff
6469
001c
0400
e7d6
696f
6372
3031
6c65
2f2f
1002
703a
0013
3a2f
6f72
00d0
0608
9400
000a
a0f6
0016
0507
1300
0b41
0a43
6563
6967
082b
bb28
180b
726f
0103
0008
0204
e7d5
0018
1c00
6c69
7365
e088
6465
2032
3020
3235
3130
0313
742d
7269
1400
0040
000b
36f6
0202
8648
6164
0304
0609
7573
6c6f
86f7
0116
6e67
4000
5000
0055
0305
aa00
6964
436f
2e30
2a86
3636
0104
6769
0006
0d01
0405
7420
0a2c
0d06
1700
94d8
4886
3139
092a
2e32
bb25
2f00
ff00
2c81
616e
fc97
6e63
2c20
7665
c3b2
f70d
742e
6170
7400
6167
7472
8001
6564
6172
3001
d000
502f
0080
5450
00aa
00ff
05b4
0800
9766
fde9
fd80
1100
97fd
7363
1403
7276
6368
2d61
2043
00a0
3137
6974
10b5
5553
6173
0012
6000
2d2d
7468
6f74
0009
7461
6667
e9f1
b5e9
bba0
69eb
d097
55aa
802a
616d
676c
1a0b
32fd
6f33
aa55
3369
f132
3131
9c00
eb10
6f63
bbe0
3009
6163
653a
6973
6f67
1302
010b
7669
1010
2030
5454
f601
0600
0906
726c
1009
7074
6d65
4854
ffff
2300
6d2f
01ff
a000
2053
352e
0130
2047
0a13
3136
6f73
0014
732d
040a
000e
4143
ac00
0007
3133
6561
6464
0028
3120
3300
b000
6e73
ff01
6f64
6570
f000
3535
310b
8801
7373
0406
3233
0a53
3530
0b30
b200
7572
0e00
0021
322e
e000
0613
7275
0029
646e
543a
002f
f6cf
000d
3830
6865
1200
3132
0b05
a003
617a
3032
6e61
3a31
0208
7069
0106
0015
0308
050a
02e7
f6d0
6374
009c
01e7
5354
fee7
0038
7a6f
ffe7
88a6
036e
6d82
9000
0043
0340
0023
c7fd
3330
5365
1d00
3930
8011
6f00
2800
6965
0501
6d6c
c02f
05ae
0033
001d
2049
7000
170d
7370
2c82
0042
0230
48b8
6e2e
bccf
686f
652d
0120
0203
732e
3100
6461
4365
6861
2f63
1804
6520
2048
3638
6f75
743a
6261
7565
2031
650d
b404
2100
7303
2e67
204f
00ac
0418
1500
3900
0d00
00c4
2d31
e950
0404
b890
310d
6c61
2c00
204d
001a
ff04
901a
3337
00b0
7369
0011
3138
0046
301d
6f62
696d
496e
303a
3135
3036
00f0
6669
656c
3630
7368
2e64
6364
1080
0416
6373
302e
0255
1d06
5331
3232
652e
4f4e
0a0f
4657
4363
6c00
0410
0f00
3634
6961
0140
300e
4018
0438
6e3a
2d43
6e2d
6e20
0900
0414
2a2e
ebe1
01fc
636c
c030
0039
021a
12e3
6400
2b00
0019
7773
1301
fd00
8400
0a44
0e06
4552
3033
9d00
c002
7261
7473
6565
6562
8900
6363
0060
746d
3037
7574
0a0d
0180
0703
2900
4500
2068
6970
772e
3b20
1600
2d73
0044
56e7
c02b
7061
cfad
00b4
7364
7d64
0110
1007
0a4c
646f
4f53
0382
4163
0a48
3700
702f
0150
50fc
3430
3035
3d31
3034
7500
00e0
1900
3932
98ec
0a41
2d00
6e64
3c00
3200
4001
13c0
0186
9a69
4696
003c
01f3
14e9
004c
a69a
434f
786d
6e6f
206d
4745
c013
0a55
0045
0730
3534
001e
0041
a699
4d6f
cfae
c014
1014
3730
301e
3536
b401
6e00
706f
1d20
8204
7800
6578
3038
7065
3746
e900
6966
643a
bbbc
0210
6f6c
100e
000f
302f
01cd
636b
0024
8a00
0a45
6473
1680
e300
101b
782d
0f01
1b00
305a
3800
6178
4400
653d
706c
382e
756c
0667
7300
696c
4e3a
d617
3081
3134
6100
6c6c
2041
4469
00e5
fa00
4676
9100
002b
2075
7072
6503
6c30
1a00
2c80
1a50
cf01
2a00
1015
6467
6177
f010
7475
025f
012c
4e54
f312
1373
d0a3
0c01
4200
c800
7070
6131
1604
1011
3a00
0806
6943
656f
4f4b
632e
0170
6576
c600
c02c
d616
8f00
2663
0069
045f
0a07
4b0d
4300
0048
6b65
3339
8500
d0a4
372e
7765
100c
0606
3657
7267
2e61
6169
0d31
746f
2bc0
3b00
8218
5696
2e6e
50c7
3231
8800
3532
0a84
0a30
0868
302d
0022
1101
bb87
7463
1e17
666f
a001
2e73
d0a5
3a64
0047
a8c0
7970
2200
3039
4100
3533
4461
e657
6331
1306
0701
6900
a698
3331
100a
040b
1e00
001b
004a
0031
100b
0434
0408
4616
726e
0025
2004
2e00
733a
5345
d001
652f
0090
100d
5a30
7562
3016
0700
6d6f
0034
7b00
7479
010f
7656
312d
0137
0307
4a00
4104
5e00
bb00
3931
cc00
342e
05a0
7920
7c00
007b
6976
0436
7379
4d54
30c0
003d
2cc0
6566
6832
bb85
9200
0268
2700
673a
00a3
540d
1d0f
dc00
03fd
4d00
0b13
1803
101d
1630
4030
e746
003e
c0a8
0e42
3014
6c2e
cca8
8700
3a30
2028
1406
0220
a002
1008
5030
bb86
7073
6e6e
474d
cca9
7001
6b69
0a86
2600
001f
9643
5740
3600
6265
392e
d893
5550
1d1f
1503
1706
0a0c
7320
702e
702d
722d
180c
2d4c
c400
7570
1f00
301f
2400
0084
2046
43a2
4e00
3220
93a4
1f04
a206
6700
101c
6600
6c3a
3d00
9a00
6800
4646
0122
8300
5800
1f06
8203
4c00
742f
7600
0078
756e
0a85
1830
0ca1
9800
5a00
4600
00fb
0a83
26f6
6c20
2304
6b00
02d6
4241
a800
4120
5420
e0d0
2696
3738
2052
a0d0
cf93
0804
0032
2500
9646
e636
0083
5a17
676e
6479
00ed
101a
2001
2f72
3720
0160
2f30
007a
5048
7279
2010
e800
7220
626c
3d30
100f
0205
7569
0a02
ea00
6972
a9cc
cd00
6d30
002d
0036
8205
2f64
7264
0c02
9636
3400
7383
6531
0958
6a00
5500
010a
16d6
5900
d313
d0a0
60d0
c100
8200
a200
025a
0757
4645
632d
ab00
e302
cf00
8014
1020
a300
5300
7700
93a5
a207
5c00
a100
5449
f800
5726
a012
ae00
2f73
3656
006e
9900
1746
8600
7100
2f77
4348
01a3
1d0e
6431
6f2e
cfac
96e6
3335
0503
f900
6500
0961
003b
4700
8e00
da00
1050
6c2d
6774
c300
9e00
d200
00fe
5001
0e04
8c00
b600
1d23
3731
2726
076c
0037
3836
6375
0702
0361
796d
d937
4558
1880
2d65
6d69
bd00
792e
612e
bb23
bbcb
bbf4
2074
7a69
e200
009d
2d32
3013
3732
ebde
7f00
0310
5200
2d64
c009
9700
0026
2f35
932b
6132
5626
002a
2aa0
1030
6001
3838
0a82
0076
7874
2061
0068
e100
6e69
612d
003f
7200
051a
002c
8100
2532
332e
6420
4747
5600
3737
2230
3a32
f6e6
9500
7d00
0805
a889
8040
b700
c2f6
8b00
3635
4154
6300
3637
343a
2d41
494f
0661
656d
09c0
c200
1d13
6f70
4800
00fd
d800
7a00
6200
3320
36e6
ca00
2d63
3e00
7273
2050
fe00
a500
0113
f100
4f00
c500
4900
4656
3f00
526f
4141
0ae7
8747
322d
50d0
9600
eb00
dd00
c00a
3a38
6136
3531
958d
6c0d
0801
f300
0ac0
0087
32d3
2055
3539
bc00
7564
5100
484f
6c62
0154
4f43
5472
1204
ec00
5b00
5363
4b00
5f00
fc00
2e35
002e
723a
5400
c840
5998
6466
003a
9300
a382
6b61
3f7e
b400
09d7
6e50
f200
d595
7769
1530
486f
a203
2323
1806
ba00
6696
cac5
1017
5645
0a08
9f00
cb00
1636
0a98
1737
0a9a
202f
2f6f
a600
c001
0119
4617
6903
0053
40b1
01a0
7361
0780
bb24
8d00
206e
ee00
00dc
be00
c7fe
02f3
f600
3208
4c4f
5854
5341
a900
053d
5d00
df00
1303
3831
4c65
626f
a700
a400
b900
e096
d493
9001
00f5
058c
3115
6f77
f500
6e03
683a
0331
6472
5700
2d30
1026
6f3f
7210
4554
b300
f160
7e00
a030
0085
0643
981c
7696
6773
b105
5452
2d6d
456f
a187
c700
d945
db00
f700
f6f6
6c73
02d3
e3a2
2fc0
bd59
bbda
616b
1013
b100
6869
0027
3234
28ee
bbca
0377
78c2
6732
524f
3237
12d3
bbe4
362e
7900
8c6d
2504
8da1
87e0
736f
4303
dfbc
4845
4f4c
00fc
0049
2e78
d300
1c26
59bd
bb14
96d9
37c8
7e28
0070
e400
6c79
eed4
1d25
6d8c
e500
d400
ad00
4175
8cd9
6e2f
622e
0604
b800
e914
204a
00f3
c900
e700
d700
9b00
bbdf
452d
130c
bbd1
4c3a
0074
1040
e600
fb00
3017
bf00
2d54
706e
f400
0131
0117
22b6
0056
de41
6f20
ce00
d100
1016
5479
2d6f
8494
202d
7736
1018
4765
6c74
4361
3833
3238
bbd9
0149
3002
1316
6d2e
6383
ed00
1f49
6370
de00
2d67
1805
3742
0975
bbcc
38f1
bbc9
3843
1882
0111
01f5
476f
1ae7
1353
2920
00db
bbc2
5256
0a80
3433
8780
fc96
e004
bb13
2063
6d70
3050
bb80
4130
456e
0280
52d6
6761
3e30
04e5
b500
bbdd
a6f6
d900
d0f0
a024
5737
476c
004b
bbc0
2f67
3c80
0107
3a34
6035
3334
3080
bbc8
9616
7270
f726
0a50
5616
4167
269f
9075
0072
0124
0a10
2d39
bbd2
014d
4610
95bb
a346
bba1
3466
2d20
0190
523a
6470
bbcd
0051
cfaf
2656
e4ca
6480
2054
dfae
0a20
bb84
00ca
4561
00eb
5723
6e70
bb9a
0a63
00f6
0128
6d73
c932
fc03
1012
3908
2e74
6306
1653
3003
0058
3b71
ff02
3103
3736
6362
c613
6343
0c6b
8557
0239
6f7a
6436
0159
9e7d
202a
0306
6d75
0165
0380
3a35
e7c6
00e6
0064
004e
0461
0151
d6f7
7402
663a
0c44
1fea
1638
5756
1930
1058
46d0
697a
713d
5727
00f2
8e2a
8206
1310
9f46
4010
5c90
622d
4546
204c
3677
2f68
3029
6030
0f63
0a61
3266
2c8d
bb9c
e6e6
1437
04c0
0062
8a5f
ae2c
00d6
0063
ae90
3119
2069
3436
388e
4c61
3011
5302
7464
56c6
4132
0157
1fda
63dc
d646
3832
0065
1330
4545
eedd
011c
4e50
c595
2f1f
7575
3439
3006
2456
0077
6010
57eb
2730
a3c6
3435
00e3
7927
bbc5
10ff
3775
f496
0221
46d6
6c01
00e1
6875
9625
00da
0a87
68a0
0061
3079
8383
0089
036d
d303
fe82
13c2
2332
bbd7
642e
9746
4080
9674
e54a
7d68
b937
3332
daba
de78
2045
4a47
705a
1106
8363
204e
45db
94c9
cae0
27fb
6d63
dcd0
0a28
0580
410f
0908
f070
0417
2044
5ae4
0fe6
bbd0
65b3
2b85
c22f
d0de
bbe1
eb91
b323
1516
9181
f6e7
010c
744d
012f
7714
3336
0133
379e
0066
0713
3538
6f66
011b
743d
5573
a04e
e353
bbd3
6665
0054
130a
5080
4343
7005
44b0
1777
bbee
3bb9
2057
ba1a
587a
b0df
3a73
c2ca
0088
313a
dd04
0326
056c
3025
00f1
3026
823e
3a3a
632b
bbe7
0109
d91f
5f74
4350
012e
638e
c1fc
8302
31c0
90df
17a6
b001
5180
dbe2
8162
5c95
bbcf
8ed8
0582
bc45
43a3
3012
d8bf
7477
e298
dd5c
1307
98de
62c1
ea63
3333
c2d9
3236
6346
7560
5312
4dc7
6661
4613
7375
e747
4875
14c0
595a
3820
32e2
bf10
26d5
bbad
9623
014a
7661
5765
fb0a
16e6
3744
4543
00ee
2d68
5646
732f
6674
bbc6
4660
0112
026e
af37
444f
3620
180f
6269
bbd8
0407
953b
6e2c
00e7
c696
0136
006f
506e
6272
2e70
6176
60ae
bbd4
c650
03b2
2657
2e6d
2e39
672e
1c80
534e
1077
bbe6
3239
d396
006a
3c2f
6304
bbc3
4a75
782f
3438
2f78
0127
0422
00e4
333a
810c
00a6
00c6
00d5
3008
3550
007c
3010
4801
f636
012b
bbe3
3201
0118
1901
8656
a326
96f6
2303
6453
0059
5369
3046
76c6
01d0
00fa
7331
6c2c
bbdb
2f70
5036
3a0d
8002
3023
6666
00e8
1617
7761
4732
006b
bb12
5361
3616
004d
010d
bbe5
342d
3338
8202
0830
bbb6
7880
756d
a2f2
bbd6
007f
e656
f001
bbdc
1676
6f76
5050
0282
ef3c
005c
0272
2d4d
2e72
3501
0480
3180
1a30
3646
00ea
7263
0a57
8580
0073
f676
076f
bbaa
bb88
3301
4730
00cc
3044
00f9
016c
6166
0168
3110
bbab
3165
6179
fde7
6f78
bb9b
00d4
bba2
0497
32d7
bbbb
6781
4c69
0350
383a
bbce
5020
2880
2f2a
bbb4
0a09
6303
0470
5353
bbd5
3706
656b
02e4
643d
0052
6616
a06e
0156
00df
3113
5348
bbb2
3041
8012
2d77
0057
0813
0a4e
013b
01c9
3c01
a436
bbb8
3632
ec01
b601
0ff0
00f7
e617
1d50
00ef
2066
2070
206b
2036
16c6
6369
2072
76f6
0610
00dd
4544
00f8
bba7
008c
bbe2
3018
2f32
00d2
00d7
7903
4841
6c64
3019
bb8f
0143
3631
3d22
42d4
5706
5534
bbb5
00d3
1076
1802
aa01
a711
2d45
6f2d
7403
005a
0312
736c
00f4
3431
1019
0d32
0086
0290
a555
00e9
3935
2080
0138
50e4
8401
bb3c
b2e9
4280
d780
b2bb
4c01
3696
7204
075b
0a58
00de
959a
7380
013f
4650
011f
2d6e
0f80
101f
bbc1
cbb1
4231
4f4d
3686
796e
bb97
3164
9fdc
6569
4530
0134
1814
bbc4
5652
3116
bb98
1104
2073
3f69
013e
89c2
2e65
2062
642d
4d41
cd7f
10d0
147d
013d
8aa7
7430
00b8
bbde
fe3a
3303
8a2a
0114
b880
3bef
ed89
3aca
3520
1646
7652
0067
2033
13e3
bb99
302b
0a54
6463
bbeb
4697
4302
b1c5
3ca7
7870
0af0
6579
9656
b6af
bbed
f1cb
bb81
7075
3939
6575
9a0a
00ec
586d
bbea
2d70
fe80
24f1
013c
0092
1c01
2a2f
c099
3043
014c
9880
3122
4f44
bcb7
1201
46e7
3a75
8901
612f
02e3
10b3
726d
f880
6b6f
c656
7f81
0427
4d4f
00b6
44fe
52f3
6634
300c
b183
3437
0075
2e69
bba6
0e01
a7a5
4946
3c8a
3726
6d31
4e9f
2636
0132
8ecd
bb9f
dca7
6768
010e
9958
2180
436c
6f6b
0309
692e
6abc
c76a
3834
0a16
332d
722e
ab80
04d6
11a2
5617
4f20
b189
ca3f
0126
32e3
378e
0123
652c
b344
d24e
8756
5f24
6275
0125
2627
011d
0443
0145
bbe8
2ab3
00b3
0153
5707
6657
4453
3a8a
76f0
5a80
1480
9036
2fcc
81a8
0167
3543
553c
3a33
0a4d
768f
0c0c
00c8
2380
0147
3028
313b
1a80
c2c7
d531
6995
008f
2e6a
3045
7280
6650
56d6
8b01
b78a
5324
3551
3465
a2b1
0a81
0c80
0adc
44b6
011a
16c0
00e2
a7d5
e43b
030a
bba9
faf0
a855
6e78
3537
3064
013a
bb8e
0a88
2c01
2a30
2c04
0152
b010
34e3
6c0a
004f
a050
3633
101e
3a80
2d62
00d8
0144
fc80
2077
4578
0a9d
180e
d656
bbe9
414e
0502
0286
a416
bba5
0320
1180
3617
0139
0a64
8050
8746
4029
0a7f
35ee
5746
0650
53a2
e313
009e
bb8c
1d11
4401
023c
863e
6263
7730
014b
0146
0082
0129
df74
6d64
7561
3306
0880
bb92
4702
8080
00d9
2022
c580
3653
304d
6401
4b01
0a06
bbbe
7550
205b
5f68
14d0
3733
0135
6501
bbaf
736d
0115
6135
0420
bb8a
6e75
4536
2e62
0164
c042
666c
9780
e502
300f
1b30
6672
4d61
6d0d
0481
6a80
012d
1312
005e
bbba
0a67
bbf3
3801
f150
bb9d
6162
011e
6537
bb1a
bbb7
5053
012a
1b80
624f
4c6f
f626
6a70
5950
0555
3432
0148
bbbd
2d33
0250
2f43
0863
2f80
3a72
32d6
4445
5253
7580
56e6
2850
2d35
1780
7482
0564
0097
6404
f646
d0a6
0141
0142
008b
0455
e880
d776
005b
bbb0
6d2d
5766
a3d1
3e80
bbec
5666
6550
70c0
d107
0c06
0a0b
b8ac
d627
2f54
5506
bba4
440f
42d3
7030
6334
f480
06e5
014f
5637
6962
2601
c080
0263
b616
4e80
303b
1727
746c
2b80
f201
5332
0158
dcc1
311b
bbb1
7476
1314
2bbc
014e
0ec7
1333
ad80
007e
2673
4b80
ee80
0a68
d080
bbac
0909
2d34
6301
ef80
4443
3962
bb83
3434
bba3
2617
2e01
a280
9dd9
6656
0ae6
f737
6344
015d
323a
3835
6279
9c01
0a35
e901
5732
4601
2750
9f80
db01
f008
7480
5480
8384
6775
4180
0605
7301
4680
1906
bbb3
4f80
696b
2830
c012
bbc7
2d72
ff80
23a2
2065
2863
5465
060a
0098
a080
2506
1206
4301
2711
7042
ed8a
3063
6631
c02a
8464
2406
380d
10fa
776f
bba8
9d50
f101
5642
3350
742c
042c
2064
0373
b060
bb01
302a
bb96
cc01
2e38
6720
2e33
1311
2e6f
a646
0240
be17
16b6
0099
0323
311a
6c53
f746
4330
5b2f
7462
304c
009f
3101
93c2
3049
0769
2301
8650
0573
1701
7961
36c6
2e68
3980
a687
416d
bb50
83cc
bb22
3938
4460
6e76
820f
c173
1c37
1b01
7c01
4245
26e3
c617
302c
b380
5680
6567
200d
9d71
6e6c
e080
5374
7467
8687
2c65
0332
e350
9b80
2756
009a
4652
8280
3661
a550
114f
0d50
e001
1ad8
5350
3936
1082
1280
6e31
0093
3601
005f
3162
4205
0f32
0a3c
dc01
0c03
8301
1194
2801
0680
d757
7080
1212
0185
5380
1343
bbf9
bb9e
6b2e
0508
6577
bb94
3880
6d67
4541
7b01
2b01
dfed
820b
0506
ec80
ae01
5c01
2067
f736
9704
6532
de50
8630
5636
682e
02f0
3735
008a
2e75
693e
6601
0585
c280
0a0a
1060
2480
0351
bbb9
0565
0e10
fa80
4c0a
2580
3446
3040
00b7
9580
1401
a880
a535
cc80
006d
f766
0330
0365
3024
f6e3
7653
3680
5055
1980
2d38
0e80
6680
ff50
bb66
c02e
c6f6
0a15
bb17
bb95
9680
2083
01b0
b080
0a40
2a80
00ba
6175
bb08
7673
0166
42e6
0121
2c61
25d6
4780
cd01
a401
2306
e280
3246
46c7
2829
6a30
8c01
4669
9d27
5040
0a12
f647
006c
2f0d
3a6c
65c0
0482
00bb
0980
f580
ed80
2280
6d2c
ac6f
2680
8101
0512
00bf
3a01
3663
1580
f501
1c48
726b
6403
e333
8880
bbef
0597
da80
4644
220d
04c6
3485
3125
8480
0a36
a380
0742
05f2
50c2
3837
b31f
7266
6c80
0096
0aa2
b4b2
bb91
0445
670d
8313
5657
018f
9080
3639
102a
b334
6b03
7650
f6d6
372d
26d6
0a6d
005d
c636
b780
7974
80a0
3562
a847
6e3d
6232
1940
6f2f
353a
9d80
820e
5532
5201
3b01
2d50
3839
03ab
e036
c801
682d
3060
df80
10f9
106c
ea03
4793
7180
6801
5f64
9701
98d0
4345
393a
0198
9cdf
e732
5741
413b
6872
7578
5401
3515
7f80
33be
4f63
2c68
2780
6280
6209
1443
0530
5e80
6e66
3765
2b37
c11f
fffe
6772
4480
b16c
5f75
6638
bb3e
e201
1c20
1133
6329
0591
697e
0390
12c0
7601
303d
4afc
ba80
af80
5b5b
2f9c
2a3f
017c
00a4
3717
b201
4436
d657
bb89
e673
3933
0207
4145
de80
e480
40d0
9e8b
bbae
0afb
2630
bb82
312f
4502
5265
52e3
e380
be80
7b73
42c0
206f
e401
8ffc
2806
3a66
3b80
ca80
2369
35c1
5769
6676
4944
fc7f
ce80
c680
a204
c301
4c50
8c80
06f7
bb05
3580
3734
82b4
a310
6d01
e301
403d
a980
7203
b150
c980
0808
9df9
82d3
2e79
763a
33a2
5335
9676
c401
eb80
2056
b480
1e30
6571
0aea
c6fc
ccaa
bb8d
9d01
2f6c
6663
0c09
e150
02d2
00a5
3280
1bab
292a
203c
782e
3740
4142
7175
7e1d
c780
ac01
b002
6535
6320
00ad
f280
2910
2e6c
d35b
7401
3846
d18d
2d75
8d2f
9212
3f80
c6e8
3650
4444
c480
b040
4531
d280
9566
4701
f680
2d69
7333
2bbf
2a0d
b580
6082
0a11
3901
1e41
0803
03d4
2616
8272
8680
1643
0a19
d401
008e
6c03
0260
e310
7444
702c
c501
bbf2
6d44
8052
1af5
b280
5722
0556
f380
0c61
5c80
0656
7a50
e89d
3061
3d80
0f30
0094
3042
2a01
a7ff
02c0
2550
03a2
e730
503a
8d80
ae80
3149
bb90
8150
5b23
249c
0550
f080
0a51
d010
2d55
4476
4164
9e80
25a0
e180
02ff
1b1e
0767
0630
4501
a580
ce58
e646
0aff
8595
fe88
82c4
0a37
83b5
4366
016d
bb1b
9480
896d
1247
8138
4ffe
7d01
0a59
0f50
af50
b73b
4550
113f
27d5
1036
0adb
9280
0726
3021
5280
7680
1daa
12b7
0163
1e80
ac73
6f80
7177
4e4f
3e53
9c80
e96c
00c7
eece
d601
21ac
22e6
7a01
8a01
3401
aed1
4cb2
c45b
2766
e980
7a80
5720
5b93
1ed3
2d80
6f54
4672
0616
db83
8a80
2530
b8db
4d50
00d1
350d
a3c1
2215
686d
4880
971e
a480
5330
3665
b6a8
3920
d98a
9398
6ab3
5b25
66b8
8f80
4203
3739
ed5e
3e0a
fea2
bc80
d880
fc6a
9ce8
0a47
aa75
6980
1fb6
4353
7ac0
7a65
aaaa
7302
4144
1808
4703
4152
4e71
0191
4630
aac6
a701
0b50
aa80
2086
3206
4e01
bbfa
b680
1ec0
c931
05cd
0b80
3209
8e80
46c6
e801
3c72
b5bc
2e80
e19b
3bae
8a20
cd80
8e01
c017
582d
8950
0765
3882
e680
8210
d180
677a
cc86
0a62
8769
4e65
f777
bb93
43b2
c026
0a8b
c00f
0fa0
d680
5736
a85b
e101
1736
bb16
373a
0b01
3480
ca01
5880
29ee
d6e0
7189
6040
13d3
290f
22b4
5d80
0aa8
36c0
bd80
0384
ff2b
e011
df01
0a93
f780
bbfc
c24a
dc80
5ec9
692c
c4e8
6880
859d
1a01
e3c6
be05
0a2f
00af
008d
2a3a
2d74
5882
7772
4772
3eb5
e7a9
ce50
7e80
bb8b
12fe
bc22
9980
5469
8b80
ff30
792f
2401
e321
6e6b
ac80
e780
5d49
6080
8bdf
f113
016a
3ef4
3f01
7f04
e677
c616
7ee9
9d9d
030c
bca7
4980
4659
b180
a736
9e01
075f
1f3f
8060
c697
0763
32c0
a180
0473
d310
d480
3937
6380
0189
8980
b973
5780
a626
7706
7980
6b72
c180
7d4f
6130
dfef
c4b4
1601
6201
76b1
50e3
5379
00a7
6850
7330
7d80
4750
2f69
9a80
7b80
e216
3150
4752
1272
9380
d201
04ac
0664
bbff
bbfb
73a2
5d87
b517
7d38
f2f6
f41c
9757
400c
05b0
3380
544e
8380
b25d
c011
e3c2
a101
686e
6d06
c880
90fa
4150
a901
c19d
3dd7
c150
ee01
3e3c
ba01
414b
ef50
bd50
0161
e93d
c746
29bc
d980
0291
7c80
167d
6978
7376
73c0
d87e
6430
c11b
820d
1f80
69c5
2683
97b2
4c80
3780
1b2f
5468
e550
d901
2250
7780
5150
f115
4243
2205
a801
7231
2a20
fb80
3e01
534c
1f27
5562
00c9
4930
1450
faca
9550
bf80
e250
6632
00a2
bbf7
1380
4020
0873
534d
0071
4431
4272
2d36
d592
6350
c02d
18ff
d850
2a29
d09e
15a2
2f98
c5b1
983e
83d0
8214
0095
1c47
03c0
d544
6c02
7973
56e2
0f29
0960
06e7
a680
4b45
e701
6f03
0081
3b30
46f7
5313
03cc
ed01
4580
76dd
be01
4172
0750
2201
9950
7201
00bc
a150
2533
dd12
4d80
7820
48fa
fb01
a219
1045
b7d5
0468
4830
190a
0687
8211
2906
d950
96c6
0569
ca84
1047
6854
c687
4a02
9401
d203
0264
015f
d6c3
f114
6474
5650
1081
2e66
7101
bf50
148a
8085
7150
0677
c950
6ec0
6150
626d
f951
636e
3a50
0820
7c1c
b050
0155
6c7b
f401
1903
3950
c101
3934
2980
e6b7
4d30
89a8
5101
6953
3420
bcd8
0079
bb42
0a42
3362
c040
fcff
0f54
d301
007d
2b2a
6b80
4380
a3c2
10fe
02d0
1d01
0697
a301
e450
0657
2701
5072
2150
0fe0
15c8
b650
130d
6437
6435
0706
f180
45f6
1696
3022
1e01
1317
7e01
c2f7
a010
3406
17d4
3701
1304
0f06
12e2
cd50
2da0
bbfd
1275
0670
f6e2
110e
6086
f850
6106
6e3b
6630
2968
0aef
5320
4a80
dd50
5f66
a250
8a23
6103
d250
00be
00c1
0aa1
0d80
b657
c010
cb50
5627
7d50
ee50
b101
732c
b901
e71b
1d80
7879
7f01
ad50
8d50
8d5d
ea80
1741
cf80
6002
22d3
0352
4f50
3d61
03a0
5d01
a85e
5580
acd9
043d
9150
6f61
df50
1b15
2746
2c21
3d36
4333
53a6
4970
02e0
ca04
f901
6230
9180
4f57
bbf1
0450
4637
5980
291b
5e01
1637
131e
2650
7306
cb01
c653
d4c6
b301
6454
d547
de01
0733
da50
0dae
afc9
2040
4603
0850
0415
9c2b
d789
00a9
2353
6e01
5c50
2b78
fe50
0617
0442
6580
30a0
5d4b
fd50
4a50
e616
0ada
882d
4950
0a56
26f7
f637
f6d2
0a2b
df43
0b73
d46c
7774
6101
433d
01ed
00a1
5250
7501
dae7
301b
7868
36b0
cb80
5f01
4d01
8250
7004
f550
30ff
bb10
4131
c3e0
0607
6780
2085
5081
2737
23e0
96e7
dfb8
5f80
d060
43e3
fd01
1647
9804
6a50
7304
bffc
0474
00cb
06c6
0af6
040e
c206
1868
a601
9736
4901
0223
2b30
23e3
d707
00b2
616f
53e3
5b50
00a8
0a91
5601
4903
ac50
0440
3161
d016
bb0f
3313
8450
2e50
0a18
abab
5301
9a01
2d6c
672d
5787
9d6f
2c30
92e6
2b50
b701
041c
6820
1550
1cc4
d150
633a
05ff
9201
3561
0fc0
7930
6e80
fc01
5702
32c6
066d
c793
ea01
7865
4036
5456
dd1e
6d50
cc95
6207
bb09
030b
7206
cd55
6530
b750
3d50
8601
4446
048e
0206
2950
fd78
0570
2096
00ae
18fa
1726
0091
0c05
4b30
412e
2014
958a
93e0
a02d
ca50
740d
2857
66b3
730a
4555
9e50
0627
dd80
b501
3066
6f50
6092
2060
d302
3f06
5f73
1950
0b7d
2670
8d01
bb44
4f54
d696
0a03
5343
e650
4d0c
7450
01f0
303e
3070
8393
6a01
1150
4173
300a
0423
2706
26c6
2d06
af01
bb74
6c75
0c0d
3c0a
3a06
1e50
5701
3d32
3346
b801
8320
e804
6c2b
131c
72e6
8212
518d
363a
3261
00c3
00bd
a450
730d
5261
a780
f701
0383
1c50
1e23
bb07
f650
1bf1
8e50
dd01
ec50
d050
ea50
6165
f0d0
382f
8750
6180
5801
dee9
7801
e2d6
a950
fc50
eff6
c601
f6e8
a86d
0aa7
5e50
8617
f980
0673
b450
310f
9d38
7657
00c2
416f
e750
6250
5b80
3127
73a7
b850
2501
8e95
2b86
6950
056d
392c
4442
05f8
293a
bd01
374e
6c33
536f
50cc
cd57
4d4c
2d01
9901
4742
8629
46f6
310a
bb57
0162
1071
1840
c620
1732
0a04
6c34
1313
33a3
d550
22b3
c037
2736
bb35
0464
2268
aa50
0561
f6e0
b250
9617
5245
0646
74c0
6336
9d8b
772d
4c06
7350
2f8d
1b06
2350
4292
e3c7
02c2
c850
1d30
bc50
f368
6b50
020d
1abf
8c50
05f4
e676
9350
16bb
bb7a
bbf6
7750
00b9
015c
9601
e010
7031
2fa0
b980
4050
c9a0
5750
fefe
7250
4368
c450
b713
6147
a850
bbbf
1467
bf01
85c0
ad01
0641
1430
bb77
8552
0247
2793
6b01
1750
bbf8
7366
820c
3142
1161
3d33
9d2f
762d
08a6
0637
c380
8501
0370
3850
f801
00cf
f950
e04f
bbf0
18a6
8183
020c
ed50
4230
9801
368c
cd54
fb50
7120
da01
4532
4686
03b0
0492
b17f
7861
90fd
6a63
f367
532f
2220
6c06
5a50
460d
0a94
6862
7c30
632c
009b
8217
1850
2b1b
5665
bb76
2e77
0a33
6542
fe01
036f
2021
bb73
66c6
1f01
b204
6701
9650
d650
4a01
8550
f686
3d01
6231
bb2a
0809
d380
c701
7050
8140
c202
8213
04a2
4733
3243
f350
2f06
f366
6462
f617
aaab
7950
1c68
ba50
e3a7
e601
4647
00cd
b950
c201
5901
3126
692f
080d
3b54
5661
9a50
1e06
c025
bc01
0a8f
5730
21d0
6050
4626
7230
c3b3
1350
8701
200a
6f69
bb7f
3058
be50
6264
2c50
f756
5333
2b1a
e10d
4d42
a650
d697
4101
0ae8
00b5
db80
4037
1b65
a032
6f09
3e20
6f68
05df
c350
a02b
bb7c
6c3b
efb2
1370
3207
031c
6e30
d801
ffed
bfde
0fbe
6236
c04d
00c5
05fa
6538
796f
6c66
6a73
7063
2450
0211
362c
4201
2d52
0af4
0222
4638
40ed
1f50
0a65
d7ac
4f01
cd6d
bf90
3861
1823
0705
076e
3068
0adf
1819
e580
27b1
c050
8207
8618
3d38
7663
01e0
fa01
ef29
7068
a501
6679
414d
d350
5bc7
054e
0690
80ae
b656
1363
9acf
0c4f
e7de
9b50
0af7
0c30
9b01
3e50
1250
6476
060c
4c20
2d53
076d
052b
f687
147e
4726
4f52
7850
0174
555f
4250
9250
86fd
7a61
9ec8
6d80
0fd7
24cb
362d
9301
03fc
0950
32e6
d701
c045
9c50
ce01
cf13
1414
8b50
0529
9450
0ec0
3102
0d22
0a46
8f01
7372
02a0
06b6
3086
a202
d456
0a1e
0ae9
d913
f369
2a4a
6901
4346
4170
4520
ef98
c657
c024
9750
4061
d53b
3114
a201
8215
bb4d
0578
1ff0
2006
2717
e5b4
0270
32a0
0aeb
f450
70d0
6736
4707
d981
42d7
bb0b
30de
2716
00b1
66df
3250
e8bc
2606
7078
390d
0283
2101
4756
5850
1143
2ffe
77a6
0536
9050
5244
0513
dc50
2901
bb1e
2a50
7563
180a
132a
0f7d
41bb
b2e7
e702
c517
20d7
1f36
7763
3840
9d07
7343
5457
9d61
1ddd
3b50
e2d5
1096
f1e7
790d
395a
0741
8c44
9db4
feed
6730
f301
50aa
5643
e465
0a05
0964
c901
0d7d
d2e6
1066
2646
c004
416c
0aa3
9f01
b550
9dfe
1a4c
df35
3203
6d07
a6d6
3347
0477
eb01
6cc0
0a78
3062
2538
1559
0acd
0359
200b
3e31
0c0a
c1e1
ae50
bb41
fa50
c00e
9850
cf50
2607
4d2d
c95e
2338
7f50
30d0
3f50
1f7f
e742
c060
5490
bb6e
3702
7636
f75e
ef31
0901
bb29
4602
a616
9369
872a
35f2
3c30
bb68
0a92
2003
e050
ef19
1b50
5231
037c
6f0c
bb0e
6750
6432
3204
676d
2ec0
a46a
05fe
9a31
0c96
f528
3925
d580
0a9c
7c50
1415
c032
03bd
4450
07ea
026c
2d2e
d6e6
4739
e060
061b
1271
3610
e9ef
0463
c1bb
1297
0bc3
0a5b
8853
5323
6617
0444
fd8b
0753
7e50
259d
733d
01fb
0258
4636
50d7
fe1a
5d50
4342
bb6a
343b
38dc
93f2
9f0f
46c0
11cb
5383
0717
4ebb
0f47
5c03
e211
1383
b361
6330
ef18
0333
6a2b
07f8
fe1f
3106
a7ad
0589
4040
af53
00ce
ff8a
7002
1c1e
7a75
106e
02d4
6b70
0ab8
d3da
96d6
1b93
08c0
1323
3056
752e
6161
bec0
5346
1d0a
541a
090a
eb4c
646d
1730
ef01
00ab
ef17
181a
6335
bb2b
3027
161c
1063
3749
a80a
672f
1e44
2f6a
dada
3163
3506
512f
96f4
c26c
784c
12d6
05ee
2313
936d
446f
0a27
bb02
4869
f925
02d7
e501
0523
0e50
0391
146c
9539
3d35
cd56
103f
0b61
3341
4310
8323
c250
d353
d706
6475
bb0d
8850
b42c
c795
e6eb
43b4
e6d6
0273
a414
f6ec
0a7b
45f7
1072
5e1a
a350
a03c
0b0c
9633
5f18
2039
b49a
7803
3fd8
323b
f6f7
fdf3
8189
4776
fbb9
088e
017d
0b2a
36ff
2aeb
691a
bbf5
bb06
f5d2
255c
eeff
0af1
0e03
7756
d317
54a4
6899
25e3
3822
2fde
6da9
0aa0
0acc
2668
7277
d96a
5c05
02f8
303f
bb30
5385
c83c
2413
96b6
4e6f
0428
5453
49f4
b998
1650
fafa
053e
0c2a
3750
1118
2386
4631
c58b
4d31
0a89
0c50
0285
3d06
ef60
0acb
0f5e
ab50
056a
bb2e
bb0c
d750
b917
2202
2f50
bb34
2a3b
2745
818a
dfa8
3450
060b
6c63
4542
eef9
02ed
78d0
2c2a
0ad5
5b01
271f
8b26
4240
05a3
bbfe
5620
6703
fe26
ee6e
304f
66ee
4553
bb7b
282c
a50a
9501
2b0e
03ae
a466
187c
39f5
c0ef
1501
c5cf
3454
504a
2ccc
6a69
2078
7af9
9986
2e6b
5096
4eee
f683
0269
5a1d
0653
bc1f
1707
6203
a9d5
d312
0c42
6446
7785
e4c6
e02c
3d65
6662
9702
7bee
509c
ffa4
02cc
cd21
5501
b3d9
4aa1
a750
679e
6f8f
0a32
36bb
222c
90af
0496
5a01
7fe1
5ef0
016b
046e
2803
cc50
51d2
bb4e
bb4f
8667
c005
7a7a
026a
5742
80c4
7ef6
30e2
84c0
83ca
8397
0708
3f19
9060
b1f9
2bdb
2024
4571
6120
e059
9101
d224
d506
f727
bb1f
3146
e38f
0761
2042
3fa9
2535
f2ff
f6de
a697
9530
284f
d501
f57a
211a
0a5a
3d3d
0334
5f50
0d47
4042
d450
0a73
f945
c41b
f030
072e
671c
5a5a
045c
0b08
e6ec
d355
0aed
47dd
b2a6
1f20
092b
5303
0632
2333
216e
690a
cad9
0a52
f55d
7a02
47bf
262b
30a4
416e
b4d3
2697
0d24
50b7
4313
5ebb
0666
51d0
9f50
7931
063d
1490
01f7
b249
be7d
7ed5
3461
bb36
7581
0e0f
6627
bb6d
b4bd
5fed
c550
1213
7701
5e3f
e5e3
2130
7e70
20fb
3a43
5eea
bfb3
0692
e3b7
a864
bb2f
647c
f3bb
ee0f
f2f7
e3b2
0ad0
0659
6933
0567
7b50
301c
4bff
2626
96d7
23f2
065f
7308
a35f
0e3b
5461
acd2
414c
1393
059a
2fb4
1463
4850
1af7
bfac
7df9
8e0b
9898
8efb
d2b2
999e
304b
2320
d636
ab6c
3f3f
7566
eb50
f712
1dad
6c50
0f73
3902
50f6
1871
107d
37aa
0aec
4498
bb18
4c26
0fff
dcdc
26e6
676a
8d8e
353b
8a50
1eee
9fed
d8f2
3d69
0594
6deb
4e7a
50dd
bb0a
c528
0169
1ada
bb38
37d9
e8f7
e061
838a
14e5
8330
1623
9577
0b64
d3cd
daf2
55de
04f0
2097
c0a3
1c1d
562f
c425
0a22
27c5
7605
77ff
532c
9812
662d
893f
b38f
f050
6917
7454
8b5a
92a8
f51b
3c50
0fde
40ca
0a39
663d
2a35
26ee
2e76
cd1f
67f9
062c
1a68
862e
e01d
4723
6d6d
a2ec
0ad8
79d3
44b7
820a
1c81
290d
66cf
0d69
4e49
f021
25d5
f8a5
9737
4369
4261
2120
5aa0
9265
48c3
07c0
bb69
2f3f
3703
26fa
2f01
4d05
f250
bdf1
1112
2a2a
4820
8e35
1f30
b350
eb2d
1a1b
4643
e850
e4ba
ab01
3302
0ab2
9cd5
655f
265c
0554
0ac8
ba4b
e4bb
bb2d
3c52
d330
46bf
679d
62c0
4cfb
0430
36f7
b849
2c33
1d96
05e9
756b
25f0
e87f
0686
f2ba
126d
8d0f
bb5e
7034
f73e
1299
92d6
292c
8fa0
88b6
0e64
3697
baba
3f8f
4003
3743
ecbe
55f2
fea3
312c
f9d2
5d28
2223
4b48
5f63
1230
53bb
0181
a35a
d555
8192
7443
1a05
75e8
eef4
8216
0fe8
7c2a
5272
b4cf
2273
f750
e907
4ddc
4202
1c82
018b
8d97
dccb
0c20
4633
1a1a
3047
0459
b239
643f
3964
c087
4b91
205f
5445
2e34
90b1
6083
ac0d
52fb
d08f
03b3
f3f3
2a58
3a94
c574
a8eb
22e0
8373
bb62
87a1
8653
ee96
9d82
3467
6ab5
8053
66fc
e11f
ef66
0621
ff42
bb71
9871
017e
0242
7186
054d
da79
8350
976a
e4f7
4979
046f
9855
dd1f
7901
73a6
8846
320d
df40
025d
9118
054c
3344
a1a7
1d81
1e7c
e1c6
2212
0e78
a4a9
f616
4720
0936
3216
3727
3057
05d8
8969
10f3
b69e
04c4
c035
1776
bb11
e230
bb20
82a6
1322
120f
bd79
7cef
e859
4064
4393
2526
bb7e
1f5e
2076
7130
fa78
6488
01c8
1396
1dc0
e4f3
ade0
bb1d
191a
82f3
140f
052c
2688
9825
1b28
cf51
03f5
5395
0a21
7682
d323
2f74
5c2f
0a17
bb65
80db
0364
2f39
7d3f
0a23
8d9f
673f
c066
59fd
a283
3c1e
9a9a
311d
3fef
f8b0
032c
86f6
494e
0a6c
d3ec
edd6
6770
c04f
6d20
7fd3
8546
c027
e263
067b
ea34
1a53
3067
e32b
6dc4
162f
9314
c056
0af8
4232
330d
0176
0182
d6f6
8231
2425
f98d
473c
5141
de35
da7b
e23b
3361
861b
4402
1fc4
b3af
7567
a803
2e22
b722
0648
3993
4f72
0675
1182
386f
bb64
ec78
3054
3787
b25c
1a92
0b1e
e90a
74fb
4998
1a55
87cb
0802
cdff
c18d
3065
067d
f2db
0af9
033e
2bb8
d686
05e3
1a4a
67a5
e3f9
5786
1626
0566
4535
99dd
1e1f
02f5
9dbb
70a3
a99b
851f
4ffc
71fe
50b1
db50
2f44
effa
023f
a4e4
0633
edbb
78f6
95ca
b7bf
0a8e
56e3
6a77
3fff
bb61
41ee
03a8
511c
0aa9
abf1
82b0
7cda
4ee5
723b
bb04
0460
4d68
2f33
306c
05a5
0681
494b
6c35
05ab
3468
0b0a
bb55
51f8
382d
6e09
d7fe
c7d2
34b2
bb15
375a
0a2e
0c63
0f0d
7032
5f69
b191
0ae1
50b9
4e32
188e
4430
d101
a9aa
453e
0ab3
9ecd
af6a
5f35
3e44
81be
5192
0ab7
463d
3075
0274
5959
0e81
f4ac
b4d5
e135
066a
ff1a
efe1
5831
e7e3
dc7b
7307
ff52
f98f
7873
1326
fec6
2e2f
3803
8a33
80aa
4a4a
119c
edcd
bd76
2448
bdbd
f5df
dc1e
fb5f
816a
47db
1943
d1ce
9981
dbe1
a72e
de3e
df7d
6582
8ccf
3a61
79db
a8ad
587e
05c7
35eb
2f5c
2afc
9da7
e2e7
cfbb
b1c8
c40b
06e6
9716
e193
e95e
8d83
fd7d
bb6b
82e3
3ee9
a9c9
b420
15cc
b57e
077f
0393
9a42
34a0
b3b7
126e
718c
29ca
e6fc
5717
9bfc
bb72
1591
9886
647d
b182
1fc6
d227
bb3f
3edd
54a9
fc59
4889
6bab
9b46
0378
040c
04ea
2a38
d382
6382
b230
e817
389d
db52
f8a4
354e
ebb7
0add
3849
e7e6
ae36
8a57
f4c1
9659
dbe6
c4ea
ff0c
bb59
5061
5254
05b6
6731
ab92
50df
353e
7cd9
6602
1a51
8047
7a71
24d3
c203
6d74
9d24
42ec
ad78
68b3
30b7
4cc3
5c09
e672
01cc
e8ff
2db9
3597
be6b
5356
3363
104c
6c0e
2728
6d7a
b796
2497
fb51
4b50
16a3
4c31
f4be
dad9
9232
90d1
4432
356b
bc6a
520a
0562
223a
2514
d00c
2692
7b9f
0172
520d
c137
c6f7
473d
3f11
e6be
16cc
2855
33a4
6248
c89c
7975
a424
73f6
0a7e
3078
2b15
d54a
63df
151d
99cd
5f31
8f0f
d491
dd75
d257
d890
4d14
2c2d
0f96
7142
33d2
f2c0
1cf9
1493
8944
86ec
f3c4
0cc4
020a
064e
bb46
2430
86f5
2168
5065
48ef
2b2c
5902
cdac
4f9d
a867
5368
bb39
9393
3bc7
7770
8798
de25
015a
6a6a
0aaf
9964
2bb2
7804
7a6c
d98c
05dd
5359
42ce
6c2f
6b92
6930
74da
bb40
ca46
762e
d78b
e11a
f3d7
bb67
7ad0
c750
0778
044d
05c1
8b64
7ae4
a65d
c198
15d9
0854
0861
d50a
fc15
42e0
0665
0aba
beb7
8bab
4692
db92
209c
9527
0e2b
6b31
535f
2ce1
3144
eae5
4d69
454a
04d8
6273
9cd3
d56d
387e
202e
41ec
858f
4487
4e47
5145
ce5c
732b
0424
0353
36d6
3889
fcd5
72ab
7222
c7e7
0d33
5656
8253
da37
d752
e2c5
6f44
2df1
05d2
eab2
1809
ec36
f103
7cde
4f46
b4e4
253e
f323
16b7
a95f
fc98
d3fc
030f
5552
ed4c
aa99
9552
1e25
a192
6450
f5ee
406f
988a
caca
fda8
436a
ec6a
2324
916f
0343
6f02
0d0e
0412
b226
107f
9231
4bbe
0179
3eab
2bf1
0cc3
4a56
8ef5
e1d7
f9e8
e73e
ec67
18a7
de49
32fe
5225
6257
7d59
fc4e
dec4
636d
9214
1807
f313
a820
1b1c
26fd
062f
c438
6675
5630
574f
3f0d
2f61
02ec
a5d2
6a20
e764
f74c
5276
8612
8f59
8d46
32d4
fe7d
8bcc
d026
2a5f
856e
7924
5933
0c62
0f10
b205
0dfe
7f9b
0d89
b87d
3015
d1b6
6f01
504f
6668
8e39
b3e0
0d25
add2
92b2
ba7d
5fe4
4238
4683
9b22
d9e2
5204
8f50
4fbc
8f78
67f1
5961
f432
cc9d
88cf
066e
4acd
bebd
3104
1717
824d
a288
89f9
d534
92c5
0a2a
bb5f
0764
bb53
4b96
7445
4b21
3455
9ef5
e030
a082
0175
e751
a3f9
385a
4332
7a9d
3b2d
8e25
03d8
5bed
98e4
82da
992f
e2e1
9404
7020
a422
d306
47a8
e46c
1319
9df2
b762
0ade
3e05
c86d
0f2a
eaea
5da3
ada8
dcb3
4012
a17b
cd07
0f2e
491b
6c6d
f9c0
206c
443b
f10c
2a2b
15cd
257c
2623
2757
17c3
1ecd
8c8d
bd17
7d9e
78f5
897b
3509
bb75
f1bc
7460
1ced
4a76
b6e8
0a14
7d8e
376a
547f
2d4e
07b9
4c5e
8f6c
c499
5920
c57a
f794
0317
0d30
5f88
3cf5
ef30
eed7
cf6d
ef1f
7978
e5c5
1451
2155
9c85
60bb
2393
3107
d52f
9c13
0bc5
e29e
95a7
89ad
2930
ec08
e224
3c4a
6bda
31d2
bc52
e24b
f757
6d81
61f3
3071
da3d
12d2
6168
f714
9384
939e
cb5b
a81c
1447
aa0b
46ef
9c48
ed27
7e8b
6d0c
2122
0837
3372
1a85
1656
4556
0540
7ae1
296c
65a3
871a
79c0
0d18
ae8b
a3df
4063
2f28
0590
03ee
ff5c
cc5b
2858
0a1c
096d
be5c
0194
d31c
4746
650c
392d
97a2
1c27
298e
3dad
3453
3c0c
68df
09bd
e395
ecbc
7de0
a984
b854
dd7e
dc90
1147
49f8
8797
cd6a
e5de
156d
50d6
8026
c99a
5ada
029d
c354
712d
adc6
2e36
3b06
7cd0
645f
631c
d906
2abf
b70a
7fc3
7332
6c07
c6b2
6c49
245c
6bed
0216
3558
6c84
a558
4aa7
567b
c684
8a8a
6bc4
a74d
583f
6274
e43e
a7ab
42bc
0c2f
442f
fa94
8ddd
b4f3
49e8
b37c
d5ba
5db5
37e3
c071
a929
434c
41bd
7147
9c07
ab5c
f19b
337c
4f1a
b140
d49a
6409
7edc
23ad
7466
a617
553b
5b70
f907
b05a
9f2d
fa2b
590f
71a8
f929
8374
531b
1160
fd6c
2bf8
9288
97f6
366b
e029
b0ee
3343
9dc0
cd38
5266
5dd3
e78d
1268
04fc
0522
ee95
1021
aaa7
1e92
59ea
0e2a
5555
63b5
96e2
e4d7
a5c1
083e
3f22
792d
9707
2fa8
d652
f3b3
2cee
c5d7
b637
b690
e1aa
d559
49f9
f1f9
83a9
4f5d
bb6f
c447
5613
eec7
b07e
16a8
7234
c626
9d17
05e0
0217
b42f
43e0
09d4
f998
d63c
2644
be52
0afe
b3c7
4e0e
15b3
01d6
16ef
640b
cf64
01c2
855d
9313
6004
a8b8
f671
df39
3a1d
015b
462c
52e6
2bc2
0311
8c66
306f
bf5d
1f4c
423a
59cd
3109
69b1
28a0
d0e7
cf47
498c
98ed
a329
48e0
8346
2037
d61a
ab8b
29b7
cbdb
bb51
9b16
861f
30f9
71aa
5705
3606
55b0
1847
c3b5
9dee
2c15
9b39
b5fd
da1e
c414
2d8d
0532
c98b
b798
2521
e335
0559
23d4
5cf6
5635
2b1e
6127
80f3
86e2
0a31
7baa
2665
6f4f
057e
993d
20d0
4755
554e
2a5c
3af5
8dd9
8723
b3e3
4344
d202
28e7
05ed
3766
6ad8
0e48
918b
4533
5e29
c493
57e2
0546
dd55
d10c
1103
2034
05bc
e70f
2af3
392f
feb1
1bb3
9499
b4a1
0870
8d0e
0b95
f53c
2d5c
c45c
d768
902c
402b
6c4f
b2ad
4d1a
40dc
d169
922b
6143
6a27
069d
cb73
987c
ed65
b2d5
5487
d0a7
a9e3
c6a2
8b1d
8d1a
20dc
1b14
78a2
8c56
1684
1cb9
f359
7d8b
34f4
61a4
f2a8
588d
6867
9bc5
076b
3f4b
98a7
1d1e
4147
0a8a
ef7e
5243
0aaa
0b66
8061
6d02
9630
b95d
37e4
f697
9ba1
1dd0
b44d
7746
0494
937c
eb14
f50a
c5fa
84a9
d8f3
8a0b
7962
b29f
9ea5
4978
3205
01bd
caf9
d351
d6cb
4d58
0563
0261
cb46
bb1c
204b
f9c1
064f
ed3b
017f
d952
306b
4f4f
2bb1
6533
16e2
1155
69c8
8f09
2c26
c6d9
d92f
329b
1b95
2c03
0773
a763
3117
cb4e
b6bb
cdd2
7c72
e173
e8ae
6a83
e04d
abba
10c0
b2eb
040d
2cc6
a4cd
3664
03e8
9b7d
71b0
dd02
cabd
c44f
ebfe
d430
068c
2bd1
3eb6
2942
5bbc
6706
dbd2
541c
524a
a454
c871
51bd
1041
284c
1db1
f060
5df2
de86
7cb4
d6d7
1eab
ed14
bd9d
34b5
6e79
ad09
32a4
65a1
4dbe
af7e
7a56
5220
5cc2
8bb2
d286
753b
7262
a88c
d52a
4331
01d1
a1d5
b744
d76c
507a
9953
bc54
0b36
107a
ac91
e12b
0551
bd28
9127
027e
a805
4dfd
c504
ad53
8f62
aa19
25ca
2a42
018d
eed6
1692
520f
9db6
651f
0322
b5c4
3906
3b67
2843
428b
3b6c
a8cc
0a6e
1670
0c73
bb4b
0a3d
2204
6df6
dc5d
058f
0213
4c45
7282
d6d5
d2e3
c6cd
430f
4ba8
6e15
a028
f3b1
24f0
a7c6
7775
08c9
0209
2721
b0e2
361d
746e
2ad9
3796
4a8d
e6f0
3253
6468
b730
84d5
1c7e
7963
1067
ba25
c287
6636
9c7f
ca87
a959
d79c
1ca8
bac4
90e8
d730
9571
a3da
20a0
a685
f629
018c
21b6
0504
6d62
d168
3175
6333
3c10
6433
2555
1891
bb43
1bde
4146
2ae4
b43f
d436
16b5
44d9
918c
81bb
ef13
f6c6
1748
632f
fcb1
3863
c4bb
ab42
d569
a381
6ce7
4870
b4c9
c7e0
c5ca
8b02
2005
2fe5
fff0
3364
303c
b835
8b9c
4294
cd73
f112
6c6b
7eae
1ddc
50da
9706
751a
98dc
15b7
f49d
dfa0
586f
a796
af18
c686
085f
6735
8b5e
472b
8182
bb5d
fc0b
40cd
78a8
7dcd
9637
5c33
2b3c
5530
4e43
5b2a
d631
cce4
963a
de45
38b4
a22d
a92d
e6ae
a3d6
70d1
c003
0afc
b4e9
e317
d931
8628
a2c5
bb52
06ae
3263
201b
c4af
6f99
1ceb
0476
0469
63b8
583a
1518
0173
29f0
640d
bb03
eabc
31ea
2747
0448
6d88
c8a5
8041
4b5a
0187
2847
9257
d821
d702
1d82
86ed
492e
c031
39a1
8209
a38d
0bd1
6366
f60d
6498
2eed
0acf
9dfb
3076
d135
de42
19b0
61e9
06eb
f208
42e3
4ccb
0f95
ac0e
b378
6da8
bb2c
2d66
2330
4e90
bb3b
bb47
8030
5ca8
a917
4441
a80b
18ba
2ad3
63b6
6c0f
2383
bb4a
6e12
0193
97fc
e098
df7f
a682
8b20
e67f
e8ab
459b
d002
8b24
6eb2
cd51
cc75
3dfb
21e1
6a65
1023
0576
3a5e
ff58
e429
1382
6f36
1810
9d20
4336
68f5
4011
e543
aa81
8d84
fb05
5f72
2f6d
2c64
814e
611c
1d40
2727
4246
55dd
706b
7fff
ffe6
74d5
92d5
81d7
3cdd
1767
0654
aae2
da15
d92e
8f08
e773
a728
dc6c
b67e
b11f
030d
1328
3914
a6f1
8b10
bc0a
9726
5e73
e341
f353
8af2
e0b0
0d68
cf28
5070
0574
3374
f040
81f0
5829
0fc2
4992
af98
2ae2
0bcd
38f7
fb66
2d0a
499a
3c23
0583
9506
8ff4
dac3
d717
3687
c446
be16
e28f
3f6c
0d10
0493
6919
4372
5003
c50e
4925
0e31
155c
35f3
0183
ef7d
4c53
7529
bb3a
bf40
221e
7678
b7f1
6cd6
9d7b
a0c6
96dc
ef7c
40c5
c03b
670a
0aee
af2c
55e3
37bd
8a7e
f03c
25bb
c669
12e6
7506
2106
b90a
b8ef
4398
4b05
886f
0973
0f64
e23d
4153
c290
1815
0195
a02e
fa4d
5002
9f4b
b0ab
6406
0878
1e8b
b434
7bc5
09d0
3564
5fbe
6c1b
bb31
736e
340f
c50b
2e20
dffc
87c2
5031
2035
23e6
6003
f03b
2510
350c
0571
a5a8
451a
76ad
14c1
c007
f67c
3323
69fb
1ca6
082a
400b
eca0
e808
8303
a0d8
3267
0535
9dce
5972
7969
7309
f669
80af
e259
8409
2743
b7c6
1d3e
8fdf
2569
2a1a
a899
56b6
4186
3e74
42d5
ee66
f707
aefe
fe5d
5006
8185
7f0a
1e37
e117
8726
5dc1
8683
8556
5673
5442
ffbf
561a
502c
5745
105f
352d
6a61
3b8f
fffc
2e37
0a60
96d3
0ab6
6764
cf6f
0c17
4717
9c11
6332
4727
e043
18d9
3c9e
6020
9cac
6220
9241
0af5
feb9
4607
ae12
3e78
a9f6
6c1a
0691
f203
b837
e936
02b0
edb8
345b
8696
7863
0866
4777
9d66
07d8
750e
4106
4769
73df
dfff
12ff
4465
71ca
8523
b510
9d64
a8b6
bc5e
5249
35f1
53f5
9224
4e51
0ab4
2816
054b
61d5
c944
4235
c6ee
5443
300b
6060
0277
bb5a
862c
d51e
cada
10ce
7036
e919
3704
2fbf
0737
cc14
59c2
ef7f
2874
695f
4529
cb16
0a70
835a
bb37
5f77
613a
51d1
1f68
4537
3666
bb70
0ab0
7aaa
1818
c01c
6a15
2f34
6da1
b5eb
c028
9a1e
09f4
37b9
0235
e4d8
7357
cca0
297b
055c
10a8
36a4
4931
e33d
5130
5747
1070
70af
f5f6
2666
6f0d
cd90
24cd
9092
7814
e610
dc64
b575
de6d
1812
7414
860f
bf47
bd65
45dc
0736
497d
8c37
0a6f
73b7
5033
4e30
e041
29a4
660d
5078
1105
4dec
e64a
3145
412d
327a
4c03
765c
b596
2eab
83a2
35ff
9ddd
6fec
0a9f
4653
f796
de53
cd53
ff37
6726
4f30
3a36
bb4c
19bf
9d6e
c019
af5f
2449
9ac0
f8de
ce40
0824
d234
5045
f36e
0af2
102b
4cbb
0f9a
a74e
1b8b
1048
c054
7067
6b06
d7cf
7934
7272
5c47
03a3
06b2
a049
17e1
22d4
0a3e
b442
5c0a
0413
9efe
6d7b
6804
6c98
3da3
9c05
3660
203d
14c5
a7e0
0ab1
07ee
0707
c0b7
40b0
743e
6215
4c02
416a
312b
e782
54e5
97cd
ccd9
0178
8609
9d93
da65
6d03
1cdf
57a7
e968
6e10
9334
29c2
a56c
c255
0963
08f8
f15d
7f02
4174
8003
6f39
264a
1075
83d2
0aab
0425
2002
d0e2
610f
683d
9ffe
bb19
9949
6502
51f1
d414
2861
0afa
0b49
5377
50c0
69c0
c3a3
0231
2866
c038
7447
9d8a
ec95
1b44
3fae
909c
6767
466f
0770
4605
9cc7
0774
aa53
0a4f
bb49
cb77
9d3b
25e1
7737
5944
c17c
a56a
3242
ec07
05a7
1462
7431
651b
dd1d
8f99
80d3
f36a
4a5d
1061
1756
d98f
99a0
968c
4517
f398
9d86
c6e7
9dfd
c565
448f
0937
2011
9e1d
0a8c
3085
b43a
7d7d
4134
34da
5503
cf8a
e31f
2026
0517
d62c
50fa
80c8
ae09
0c0f
680d
73e8
06a2
3d20
98ef
0944
d860
15db
1b92
4320
0dff
c330
b88c
8657
642c
6262
2c22
b579
3141
56c7
56f1
0360
1a06
c683
6b99
6c70
7540
305f
d692
b206
dd83
3764
f2ca
cd9c
f706
7305
50c8
5293
d230
4736
1167
6979
06c7
4797
5e6c
9088
10b0
d7ff
603c
6534
82db
31ca
1574
5175
50a9
3073
d3d4
89c0
0a79
e733
c345
a6a7
4383
de17
17ed
06d5
2e9f
04fa
0a0e
3805
0253
2468
c020
2322
8cbb
9e09
f6d3
28da
c033
046a
2ea0
19a5
fe53
5a0b
0a72
5035
2343
0541
2013
0a24
bb7d
f2f3
4340
dc60
9d1c
68cb
0abb
051e
c036
4c2c
cac2
692d
9dde
0426
7907
7fa1
bfff
5ac7
3365
4390
defd
c134
e24d
97fa
bb78
8567
adee
766c
bd20
3305
5056
5c30
a71f
06be
017a
13fd
0cc0
7972
f9fc
13b7
1027
df17
0abd
24c0
76d7
f2e6
579c
c5e9
85ef
5375
11a0
3228
b696
7f17
053a
1b1b
2789
093a
fed3
0321
1318
0227
ffc4
09d3
0284
352c
6920
cc13
b036
1408
1263
bb6c
fded
4ddf
8c76
b129
c3a2
8318
3123
ef0a
0524
ee7a
64c0
9d5b
534f
ee7b
1444
3d07
e6fb
f15c
8d52
2792
e68a
1377
1849
d369
5430
21e0
36dc
ff90
4002
23c0
26c3
e4c5
945a
1371
d2f7
4435
233d
5f61
4749
9d9c
3864
0433
e303
ed9e
21a0
34cc
20d5
bb79
6477
c016
201a
8f93
01da
4574
1633
1910
4494
3a28
4a55
6c31
444d
0267
107e
ea75
fce7
80a2
0446
819a
13d9
0ab9
015e
3802
574e
4151
50f4
6dff
b5b6
2672
6e0d
04b9
861a
81b4
3ccc
1817
32e1
7617
12a5
9417
04b8
b5ec
020f
a313
444b
0a3b
ecab
6099
3545
0c04
03b8
a011
6f0e
4149
9353
ebcf
6803
ffcb
4632
da57
6abd
d3dc
d320
751c
8768
c52b
9375
0226
b525
b672
9303
7f8b
2686
b61a
3ffc
5653
03de
7008
4339
14cc
bb5c
1fff
0775
533a
1933
6776
c2da
a133
91a7
a212
d308
db45
8903
311f
b386
0f4d
0a29
6936
8208
6a3a
40c0
142a
6d40
fdbd
9dae
8531
9dad
304e
dfd0
a020
bb3d
dabe
9465
1535
df5c
67da
018e
2f41
50cf
1256
01d4
3d9c
0feb
1ac5
9f17
4125
2f17
4ac2
b2f9
284b
363b
efbb
3b0a
d333
9467
0df5
7a03
bb33
9df1
0347
5f2a
9d40
9d62
4136
5073
bb58
9a17
1324
4635
5c58
200e
347c
3af4
5522
edb3
bb60
4f55
9d16
c6e2
50ce
6f31
3296
5c02
0275
50e1
0696
04c7
713e
2d76
307d
d679
7298
700d
2ab8
dcc6
667f
0a34
8bc9
fc02
7fe9
7b1c
3862
dd06
06e0
1ffe
a02c
793e
293b
4514
2f20
3d99
6716
eebd
06d9
7ffb
0c53
1361
b646
0465
eccf
df3d
74dc
5b41
03d0
06cf
1261
0abc
4641
c6c6
7883
c21d
4ee3
50d4
0466
c417
8b05
dd8e
3084
578e
cffb
0ffc
01d7
6e17
7fb3
2773
325a
dd7b
1372
6041
1b6e
1add
2262
0fdf
1cc0
1b17
9d9a
eb67
57b3
0467
24f5
fdd7
7ff6
bd36
20ea
9d5c
6134
22e3
052f
c2d6
d017
c176
4323
e245
f476
50b2
111c
bc17
6133
9653
36a8
7eeb
1024
0abe
8517
fa56
8474
9259
0aae
0ac1
425c
929c
5322
dff5
ea12
8bff
c4d7
0212
2f75
9db3
201c
9d53
0bd8
2f65
d6d6
2822
2885
f5bb
7b22
7ca5
feff
0de1
8ee2
c018
4470
8cd7
c717
2038
06ff
505b
cf2c
3716
61c0
c117
4206
04d5
862a
9d5d
9870
9c90
0663
5d6f
ba04
af75
af5e
0b2b
5aa9
991b
9765
e138
0328
500b
94ea
bb21
77b4
3d68
8621
6235
ddbb
0218
0197
348c
6a7b
7392
4b66
7410
3368
5041
2832
5b98
1ea0
ad97
27ce
166d
9d4e
c928
3403
ef69
d88b
5de6
9d74
b0e0
1c83
0171
5084
04b3
abd7
4665
0354
7902
e517
7dae
42cc
0c54
8c36
bb56
2f62
382c
355a
3072
b2f1
7717
0647
d737
3105
1051
8f06
768b
e4cf
6536
0aad
8622
9cdd
98eb
434e
fee9
0f17
6b75
6d72
2568
f003
2ac1
0318
7616
899a
016f
0ffb
038d
6a3b
5393
7007
a79c
9c56
3943
07ff
2775
efbf
5032
6863
0545
e917
c023
070c
3373
ad17
cccc
81e4
93a9
4135
c33b
d973
1ff8
25e0
52d3
cd17
7205
dba3
bcbf
9f07
2e41
3dd1
5818
9e10
36b6
a9c0
95a5
9da4
1477
e584
81ed
3f7f
9517
b8ea
5ffe
7eed
3517
0fe2
2e06
9d75
6705
d736
6e82
0b68
7e31
50cb
424e
d4fb
653b
fffd
112a
fe16
0a5d
a582
9dbd
0d38
3241
0a3f
63d3
06b3
db63
6323
2058
f8f8
f6b6
0a71
6ed7
ef63
8007
6620
086d
90ea
e1c3
722f
01b2
13ea
dfec
6539
381f
4b69
4006
0ac2
3342
104e
d726
752c
2f36
3c02
c1d6
232b
60de
9632
d965
14c3
0526
8717
6b82
3e06
1f8a
2d88
454c
d540
46e0
e06d
482d
2373
af71
07ae
752d
2f47
131d
7965
7b66
504c
4855
02cf
a117
6e28
e5bb
2017
1e07
a97f
9dfc
0fe9
ef89
130b
9dff
3129
2732
05dc
9ddc
2604
c9ce
3a22
9d45
763d
3707
bb63
2c69
9204
1031
1820
0192
ca65
9de4
3544
26c0
1332
d56a
06a8
7e17
68ff
62a2
04e6
0a49
04e0
795b
2afb
ef0f
9dc1
7830
4204
080c
2817
4060
af6b
0a1a
612c
646c
0588
06b8
6439
ef3f
47b0
0d96
532d
1bc3
2545
af3c
793a
0a7d
7d2c
2742
3504
6455
730b
1c53
0c12
4338
e6f7
1e1e
3ed6
0a2d
a017
fe42
1269
6393
9d6b
080b
2b17
be4b
5f5f
48ce
9dec
ca17
70bb
107c
9da3
c062
11ff
3407
3128
736b
9826
0325
ac17
0b5f
284e
4625
e6a7
0184
8f34
0a5f
4c30
cf9f
0f6f
035c
0421
ec7f
9dd4
e4c7
6f6a
0ab5
1484
35a0
082c
52b0
ecd9
5475
9502
2c63
4a45
0233
723d
016e
0fe5
8353
e20f
a353
a147
daa4
10d8
2231
2235
baf7
56eb
afb7
3556
e020
05a4
8190
2762
1663
9ba6
4239
af7f
1744
0f5f
705f
1811
1c06
5753
1055
bd08
15bb
8709
11f7
10fc
b714
d0a
80d1
9267
5409
f0a3
5743
040f
0dbd
6806
56f0
1613
322f
927b
0710
35ec
0495
3655
2114
ce3d
03f0
4cfe
0afd
4d17
1a17
6557
8a35
ce05
1191
4737
02e6
ffee
ff71
a216
aa47
446a
47df
ab17
0fef
1cc7
0746
16d0
e432
055f
6b73
b2e8
5830
0244
c076
7f95
e717
f317
0456
df5f
e21b
14bb
e637
5f6b
fde1
2ac0
6118
4ac0
6434
0ffd
37a0
7bdf
03e2
b859
4753
83a5
ef90
8ec1
14eb
8b17
6f30
bb5b
a793
26cf
7064
5c04
6517
b217
9dd8
1453
7b1d
4225
7e30
8877
b833
f36d
8f17
0392
2867
7ffe
dffe
d797
2674
2797
1875
93e3
8c4c
4017
2612
9d81
9c0a
7b7d
9af6
01b9
6633
bdb5
3603
9d30
a77b
c85e
8dad
046b
ec03
38fc
cfcf
0509
7243
bf9f
8b16
1f32
06c0
554a
9e30
281f
4b39
8706
e816
ceb5
0e4c
a343
0366
272f
63c0
02a3
9b7f
5543
a026
5054
45f3
145f
01ea
0766
82d5
4005
1e4f
d6d0
14ff
ef83
2d4f
7efe
c034
0a1d
d117
9dac
7422
1768
26e0
0437
0ae0
2764
df8e
4941
ff35
fe17
7033
ce0f
af30
28a2
02a2
d7bd
31bb
321c
44b2
50de
432c
0429
ff7f
cac0
02d8
b286
790b
aebb
e0d8
4133
08c5
50d5
9831
5a54
817b
92f3
2d37
e4d0
b23d
365a
af6f
9dbf
7ecf
9d70
4083
2652
3048
e097
c2ec
018a
6697
c16d
f117
ef3b
207b
fbab
3942
2317
c10d
3217
fd17
3566
1d68
0727
1448
a686
0177
6873
1716
a323
af3f
e696
4031
c47b
0a74
7e32
96b8
c5f1
af20
60cf
8652
6237
2f66
9d6a
df7c
cc17
2676
722c
ff17
d217
3cf7
2243
66f0
09b3
35ed
06c3
6b53
307f
0236
4233
9d7f
bffa
0362
72e3
1aba
a817
d2f3
ef10
eff7
24a9
df78
9d35
1c30
04bf
1916
0ae3
10a0
6379
0337
2009
9394
c397
9d85
2c6e
41a0
f274
d481
afb5
1085
1942
5b17
f7ee
04cf
22c2
d7d8
0a5e
ee17
2b6d
dfbf
a526
9db8
c546
6253
0449
756a
efbd
d67f
556e
16c2
0ff3
2a68
3763
286b
af47
1968
9d3a
6f29
e01c
20d4
2d17
ea59
23ca
ba69
35f6
2786
f787
046c
d373
4757
0447
c103
03a7
9dc2
afad
70a6
fae5
0fd9
1417
d9d9
af7b
89a0
7878
f575
7452
544d
2008
3055
6817
2e17
860d
023d
4454
ffe4
13a2
a02a
0720
503d
ef39
048b
dc02
9df4
64d4
1667
a033
0fda
4e39
1474
0432
188b
06bd
9d32
030e
d417
50ff
5a86
f7a6
80dd
9c19
36a2
20f5
dd17
d416
ef0c
9deb
6721
3166
0a7c
6270
d932
4420
e740
3244
e632
b431
df30
6c6e
3052
5370
4373
5089
e96b
f97c
095f
310c
d2a0
5017
dacc
0ace
9db5
a72d
d185
7603
66f7
ed49
af78
0817
7bf7
a0c4
9da5
ceec
7797
3542
2d57
ac8d
e363
0aca
1f53
7c7c
9cfa
b207
13bc
506f
e81a
ac45
a663
3777
9031
5c6f
4663
8317
7e0f
0232
04ec
868b
01df
56d1
20c9
953a
672c
b1c4
136d
0a66
290a
b899
0a6b
d6f2
b5bb
102c
9de0
4349
9aae
6223
cc26
4275
422c
67fb
9592
3225
6664
df3f
2363
0ff2
1d3c
4639
50d3
08b8
1675
104d
5f30
d673
4434
3825
9d5a
1ff2
9fff
a205
10a1
16f7
d19d
f2c9
2fd7
fb17
1173
017b
673c
4bee
f667
f806
0704
4956
454e
6438
9de6
2702
afb8
9130
04a0
6443
3578
18c0
d040
bb48
fdda
9d22
35ef
ef8f
41c0
6968
1273
187b
8e1e
1816
654e
33a9
050d
9de3
3b1a
d219
14ab
3223
3b1f
8689
8613
72a2
7323
7df4
1365
0c07
b4db
c3a6
9de8
e95d
ad8d
6dc0
e7ff
1979
3903
392a
c736
3ddb
9dbe
32b1
1f17
0188
1917
9d12
f017
d0a2
b983
4766
01a6
f2a0
16be
3ffe
c0bb
4654
f589
1185
3386
3383
0ff8
694e
fb29
a7e9
90e1
e0c9
f365
eaff
0ff7
0652
1893
0a3a
9dc7
5304
6423
3004
3817
3f30
0ad1
dc54
82fd
3785
efbe
af2f
2222
f8e8
5f70
f517
35cd
a3e2
7d5a
6205
542e
7b06
e466
508c
4e28
5917
07a4
dcd6
0367
e00f
5733
76e7
2426
2f59
286a
af8c
0772
0c11
56ae
d155
0243
1095
1ca3
ee48
395f
7478
4386
4244
5f5c
c015
7406
6779
ba17
9d73
161d
6e05
4253
1217
5624
16c3
a673
b6ef
b3ad
4d29
2018
d912
9dfa
20e1
624b
6204
0ad9
670b
4920
022a
af4e
b82a
8c3a
9208
fa1b
f826
f497
8616
d9b6
4562
91b7
9f30
ff7e
d130
0a69
bb54
8acc
0d6b
1337
572c
49a0
cf17
7b05
75ef
9230
3402
c7af
9dcd
2887
0caa
e983
efff
031f
15eb
5f67
f717
ef5e
dbb7
3366
1f13
9d51
042e
bdef
5386
16a0
4a30
9de1
afaf
981f
81bf
e9e9
a935
a174
ff53
3842
3143
3ffd
af2e
f576
ef0b
9d6d
50d1
af5b
9d2c
ef5d
6b3e
0965
5606
0342
f639
4551
1079
4354
cecf
09e2
a551
a035
cd11
0c84
4629
af82
7579
32d5
3604
ae17
f4fd
26a0
8306
ffd4
e757
0a9e
af02
e694
5168
01f1
7079
332c
fc17
ed17
a04b
e9eb
745f
a3eb
1220
b717
32e7
ef9f
1860
d4d6
306d
e3a6
2494
2424
6313
9d58
ef24
8171
434b
ffda
3325
fdbb
6f5f
f404
4a4e
5085
9d06
06b9
7404
9117
9324
6d3e
03c1
0537
9d63
9930
ff23
af4f
e9ff
3304
6b04
ef67
094c
5005
9d4f
cd2b
7434
41f0
05a1
3447
eb17
9d0b
9a37
1c17
7082
07a9
0374
533b
fcfe
50c4
4827
190c
57b8
6352
c7fa
9dd7
1073
037a
5614
3d39
117b
797a
d7cd
05c0
4954
9dcb
7377
c01a
0579
a1fe
61da
0a1f
4316
a004
464e
ef6e
7505
e330
0369
9df0
fdfa
31a0
bb45
3de3
f36b
e5ec
2679
71b5
08ba
aba7
d756
e2e6
4575
1359
5731
1042
80de
5446
8578
ea35
3c62
fbcd
104f
76d6
ff06
24ea
ca39
01fa
e6f6
7417
06ca
01a1
4160
c817
4943
6522
11f5
89eb
5feb
eab0
85bb
0b06
c787
ef1c
1517
ef5b
28b6
5094
051f
1487
7720
d14c
1813
a517
4748
f417
9205
0ac4
8b3b
9d57
8619
feeb
7ffc
af17
c31f
297d
1883
3757
0d64
0844
322c
4066
1863
de30
27bb
faa6
9d0f
af92
b6c8
5dba
6c52
3f17
c224
cdbf
6dc9
2654
dcac
d4c2
dee8
0760
04b0
af15
6717
4c49
64ab
d8ff
def7
a37c
9da8
20c1
efde
c077
f989
831f
6504
3541
cb3f
c756
d536
313c
1554
8fff
14d4
a756
af45
8e17
223e
05e7
5e17
9096
f8ad
0fe4
8181
616a
044f
20d1
dd2f
5fff
3428
a757
4ea0
9d5e
9df7
12b8
30a6
3786
9884
d9c0
b231
e822
6417
3961
4e81
70d3
f414
753c
03e3
1b0b
dfbb
633d
9323
686c
ec63
2517
df4b
c204
0b17
4183
4a06
b1e1
bffd
4117
84ed
c2b3
2012
4317
a717
3563
2945
4534
ae1f
9dda
0f61
0e17
8732
f20f
fffa
7ffd
8507
0b63
2417
0821
4417
aa2a
ef34
5f9a
d517
5068
0519
ee56
2ed5
3fb6
550c
47ec
7817
5075
f4e2
3642
422d
3d4f
9d76
2fbb
f817
ebec
4e41
5c4c
c652
9122
77f9
e670
33d3
ec17
27d0
2896
038c
3ec3
3317
af3e
96ac
020e
0ac5
cb54
7f53
3353
b2ff
66e3
03e6
bf17
b530
8423
19c0
5f43
ad19
cc85
7dec
bf38
a1b1
81b2
5342
1fdf
3d54
ebeb
49c5
2433
55ee
af4c
4437
50af
02da
9717
06c4
1046
6e62
27fc
4964
3005
d21e
5095
20c2
d828
f7ef
305d
c4f5
ffea
a5bb
6568
6d1b
288a
cb17
8130
d9bb
b3a8
f8bb
7025
dede
d1bb
bffe
43d3
49ec
4a03
9d59
050f
3645
1a90
4642
87bb
0a26
8545
8417
6553
8518
9db9
42c2
0743
b368
5414
2302
821f
ef41
9db0
fde5
af6d
9919
c041
b9d9
5c98
6a14
203a
4f45
3654
6637
9d5f
dffd
04f7
06db
3626
2602
504e
fa17
ef8c
6902
5713
2614
783b
307e
50c9
af93
499f
01e6
307b
5e5c
7964
0f4a
0d6e
0d4e
de0b
f217
0aa4
0fe7
7017
6fbf
02b4
9d7e
32f3
3dbb
a4dc
0fdc
f63f
ff4a
7d17
ea0b
ef93
7b17
3d37
84de
3841
ac14
c05b
9c5f
f2be
8077
8917
a6a6
1459
6052
3c17
ab76
b2c3
2909
b817
f7bf
4b7f
9d3c
0315
0a8d
1117
ff57
1967
c69d
4ecf
0c64
9d79
73c2
f2a3
ef54
b582
ef87
15f6
fbaf
2c17
4c47
b40c
01d3
662e
975f
e170
8636
df29
efa4
3e17
c78e
b069
a406
9f0d
9008
9da1
6017
ef23
c277
07bf
9dd3
180d
afff
6951
ef5f
4032
f6c3
72c8
7bff
7362
fedd
af97
af9e
9da0
3121
72c0
61bb
0d2a
122a
b674
ad03
da48
845b
5373
c80f
7448
7f0f
041a
cfff
673d
ec7b
4548
6c5f
0a99
14d2
14fc
d9df
0fe3
0a1b
9b6c
af81
7530
9576
dfb9
e669
7af4
ea57
630b
f9e2
3345
32da
8a41
1a5f
265f
a69b
9d8e
a317
a103
f776
1854
ef51
7c03
ca3a
7833
cfbc
4e44
f732
7869
3444
ac40
1adf
365f
d619
f97b
b2f5
304a
f38e
dbff
5fd0
92f2
5a6a
7c1f
3d2d
9ced
3f78
4735
22d6
7076
1888
d33b
f92d
3fcf
3945
ae2b
dc5c
324b
50dc
6d05
ef58
cb3c
fff8
9d95
58a6
9dc9
20a6
046d
05f6
746a
307a
360d
4d44
8220
fef0
35f0
84f5
eabb
5455
bdfb
019e
fff4
9d0d
1069
35bb
0aac
04c2
2229
4159
2664
e00b
9d7a
fdd9
1258
0a4b
0776
be7b
fcd8
0ffa
a694
db8b
0ff1
5930
c530
2423
3441
3c8f
4391
410b
e539
ef6c
1cff
4242
01c6
4d20
2543
5531
1a1c
9f4e
2ce7
fbeb
da04
dfbd
4d4d
84fd
2397
d5bb
b417
3412
4e61
183f
941e
ef7b
0c94
79ea
fdcb
5117
c317
ef3d
735f
2f37
36e7
4f29
c430
53e5
9d4c
7283
8707
6b3d
9030
e8df
6506
9ab5
506c
b2e6
93a8
04e1
6b17
8fc0
ae75
7254
f9be
36f2
efbc
d957
b21a
a0c7
e417
9bce
0864
1c79
3a26
810f
0807
37eb
4bd2
0f57
ee38
ef9e
3eeb
7f0c
32eb
bff2
d695
ceeb
2917
1388
12b0
9e17
9ded
4a61
c01f
c97e
f8ae
fd6d
3e0d
7cf8
0917
b317
fffb
6138
50ef
9d18
0dc0
e0bb
efb0
fc7e
01fd
fde3
7517
776e
0431
9df6
c05f
0a6a
2687
0c08
3546
4b17
4308
5f17
0288
0238
a4e5
729e
9d60
0c3a
ecff
4f06
3168
0c5f
6e53
dc17
e3db
fb2a
2929
2828
8631
9c17
022b
ff25
1f7e
1861
3940
ef94
df47
5019
e12f
0d17
700a
a17f
ef57
8817
b08b
778d
9d9f
15f5
54df
5aeb
9dea
ea4e
2336
c03d
14da
9d44
c4cf
f67f
ed30
26ff
3647
6148
f8bd
0fdd
12b6
cdbb
6bc0
29f9
f9bb
6305
181f
2286
497f
3404
af5a
f971
9a85
efa3
4c04
e2f6
faa5
d20c
0fec
0cdc
86e7
905a
e759
863b
c9b0
a12e
6d1c
5083
e217
fe20
b130
fefd
bcf6
84d6
887d
2e55
b617
af2d
4849
5f36
e7bc
02c6
f917
9d87
7f49
54c4
8c17
8626
1c86
ab09
ff7a
73f7
9391
29cf
c047
7aa8
e2c1
0336
1a44
45bb
ac98
5441
5406
6402
0a95
3d17
c194
2611
f5cd
7117
9248
566b
7006
7c78
a9a9
a302
05eb
2025
f4ae
e0ba
91bb
c2a3
44a7
aac0
0f7a
7494
fde6
2e43
3417
0314
0281
e12c
15e9
9b17
ccea
5554
b692
8404
6f82
fcf1
0ff9
06fc
ac64
8b04
1022
4786
30a2
db5f
8331
8dac
4eff
7cff
2117
0853
6a94
efad
ab75
bdc8
e756
9d48
56ff
7ee5
9666
8275
4466
09cd
ef16
62c3
020b
4634
df72
dfaf
df23
4573
af90
7e1b
3426
d781
88e0
e9fc
e115
d917
642f
9d8c
3108
ed77
ea17
df3c
513b
9daa
019a
f532
266f
bcaf
40a2
5f6d
9798
6e72
081e
8f60
0b6d
328f
5230
bcf8
bb32
8188
7278
9b49
6c54
0a7a
3310
c7ef
df22
5d17
d4f7
1074
25ec
87c1
cc34
5433
9c26
03eb
d0e0
f6c2
11bb
3414
3dfa
a417
53d3
2f5e
103e
c917
10a6
edda
0974
ce17
e779
3b4d
3866
607f
4d46
f340
09cc
e703
433b
6317
ef35
fcfd
9d88
3a65
532b
26dc
c160
36fc
8ef6
4658
be13
3a37
e130
4986
db17
0aa6
f99a
8d17
66a8
c7c7
942d
e0eb
0d45
172a
9d94
e033
ef9b
50f9
15a0
b117
8fa6
1ff3
6faa
4c17
03e0
50a0
af67
ecbb
fddb
50ec
939d
89fb
4b5f
9d67
7b47
a636
dde7
3917
029f
d7df
9004
473a
cc3c
7391
7591
035d
9d1f
46eb
186f
2613
9d9b
691b
0a38
af85
4433
f883
fb26
0462
b747
e275
f51e
f0d1
3051
3d4b
150c
9b2c
2160
1315
d5ad
e74b
f82e
9d8f
b802
4c33
a333
a03d
da17
3a85
5941
ff0f
4aec
5c17
6c67
390e
d186
d112
4016
1b5b
35c0
fdee
eeeb
b88e
4081
9df8
f097
6d29
ffe3
12e4
6b2f
08f0
8e04
6f17
47eb
301a
5087
44bc
e383
63f5
df57
9d65
260a
35f4
3af9
11b3
ff77
0278
a96a
a732
ce30
ff3e
070d
1fcf
1905
a99f
6b44
2d42
ffef
2af9
e737
2464
fabf
fdd1
01ef
af94
6217
3c70
2fc2
6af4
ef6b
6b2d
e47f
be2f
8888
9d41
56b0
7fbd
ef6f
dbef
4dd3
fddd
0358
4137
ccae
ef9c
027d
50c5
4325
2865
b72d
38bb
3505
8fb9
6fbd
ab52
1139
9d29
a320
372f
9dab
4abb
950a
ed85
50e2
85fc
9def
c7f4
0a4a
9d72
df84
90d7
b017
8332
e323
1506
efdf
b814
04a3
ef2c
83f3
2128
89bb
c2a2
fdde
031b
4667
3d34
7010
16a1
182a
9747
e8db
5b21
4f17
5679
0376
adf2
d883
43ff
e820
aa6e
42a4
6b5c
fc11
3652
c046
3463
05ca
8117
6830
76f7
c029
0669
9d78
b871
9eae
fb81
0ff6
0ad2
fdd6
2814
3273
bf1c
ef03
36f0
9317
52d4
a464
a15f
4924
6ccf
5161
0ff5
286c
2852
8234
9d55
c73e
efaf
e017
7b59
80a6
5542
7b0a
3644
6707
f0e0
da4b
871f
6117
e6f2
7674
9d92
132d
2669
f540
df16
1e86
a21b
bcfd
c62c
90d0
9917
af87
7241
11a9
e203
0b54
394e
d268
d030
848e
a9a4
0411
e6c3
205c
0265
7209
aa22
5008
84af
043f
04eb
b6f2
62f8
3096
3a17
c66e
4448
1464
f828
3711
ef4f
e002
713a
81e3
c4ff
0225
ba48
36f3
2588
ea60
29b8
9d3f
bce6
6742
9d77
aa17
b593
d464
50d2
fef2
232c
978f
b930
9da9
187e
7f05
b8ca
a217
4c88
e107
d792
436b
7a6b
4138
2023
9687
fdd3
93d8
0452
5c26
9de2
2ca0
af33
1941
d029
3f9f
6b76
3844
0be3
d817
35df
ef3e
ef8d
3322
4439
3b72
508f
492c
04db
0c0e
0514
15f9
6e56
edbe
f6bd
dfeb
f9a7
580b
4f1e
6e5c
fefc
6516
af39
6810
2e0d
01c1
66f6
5486
336d
9664
042f
1c02
febb
ffd8
703d
adec
1e2c
3ffb
c798
8505
3d2f
22bb
01f9
840f
9a46
b2aa
502d
7c17
152b
ef85
8bb7
ef4d
7d11
4155
cacc
ff75
fc39
6747
aa92
e50e
6425
9da6
0719
af54
1ad7
1625
306a
9423
9db1
f466
5410
8dbb
3be6
0cc1
766f
fddf
2312
fecf
a675
613d
1b18
0b0e
3503
2a17
7676
64f8
f7f6
3b17
0810
536d
7812
1f82
6d17
e5c0
a33a
7672
2667
270f
aedc
9d6c
067e
9daf
3e5c
9d68
0575
88be
4d3e
25a9
356a
4352
be3a
162a
9017
c217
1454
27ec
9c02
21c2
01dd
7317
f6d7
a01c
96e3
8563
370d
0e7d
b7e7
efa0
40e6
9d4b
cabe
55dc
2263
df5e
2677
7353
efea
7592
af7d
3643
306e
9dc3
4aa2
04b1
174e
4576
e34d
e1bd
058e
6cb8
e6ed
9df3
5795
5c7e
26a6
efa8
9d89
8020
139c
9d3d
d076
c0ff
8624
0762
5044
4139
233e
a3a4
ad9d
af57
acee
26af
97a6
b2fc
f2ee
0fee
1bbc
83eb
5817
dff1
34d4
04d1
9817
ef81
0a25
2653
501d
2d78
9d96
afb0
33d7
b96b
a2e2
d99b
3fbc
76c0
6a17
1607
d1cf
47ff
0e72
1955
305b
8174
a69c
630d
df9d
4976
443d
5417
dff7
27df
923c
9df5
ef32
bc34
ff81
ef2f
3221
4d48
1747
cff4
a908
1eeb
8e7d
92e4
30d5
597f
3565
cc81
8b84
e027
6510
f782
97d0
9610
0ff4
f772
9821
869a
8499
dce8
3077
4e83
50a5
5790
4166
5cbb
50d8
3857
5103
49d4
04f1
b427
04ca
7732
25d9
7dbb
9217
8158
af3d
74ea
0fe1
fc67
69ac
40f8
ea53
9eac
773c
5336
89d1
ca2d
9dbc
f4fe
0d81
6036
335a
5d72
af43
a696
2768
131f
7a98
e003
af55
35ea
2733
305e
e736
6f79
a28a
a1ed
1592
9ddf
56c5
5026
281e
5eeb
d59e
3756
a307
1ed1
9d47
8019
e666
1666
d7fb
efb3
04a7
81ad
dff2
53b1
fff6
9d4d
c608
22e7
abe1
9d28
af76
0edd
16c7
17c0
6266
3d66
4539
10f8
9cf4
aefc
ac63
4b65
04d0
5334
5f7f
02c1
2ebb
1ec6
740a
1298
277f
4738
01db
07ab
06f6
8016
ffe0
06f1
1629
b203
9d7d
40a0
470c
8a28
a13f
af5c
4337
644c
a13a
63a3
366c
fee6
4269
a9f9
a01e
089a
4917
fefb
01a5
0fea
4549
188a
9a8f
fd0f
4790
af77
2d6a
394f
20c4
9d2d
f7d2
e17a
5402
3445
ef64
4e02
da0f
7453
5dbb
7606
7838
fef1
0f1a
baae
49ac
529a
aa48
e207
55d3
9832
4265
ea3e
18fc
efa1
b2f4
9d99
9d84
01b1
3112
7ea9
7835
9db7
2c75
d651
cc03
11f8
716b
3898
fe6f
8ee6
f6eb
ee43
604e
ef1e
a2eb
ad47
4217
6c3d
5517
8223
d82d
f7eb
3502
aa85
2593
2744
7677
6ff6
a596
8641
76c1
67f0
a2cf
fd20
0859
4844
49f3
8643
0fdb
04f9
6de4
7d30
4952
af42
04bb
9086
01aa
26cd
7249
3662
3a49
1102
defa
6549
7c14
02bb
25a7
9830
edeb
8a17
f3f4
d376
8988
4457
fff9
04be
4d65
f187
0533
ed93
fc84
9d4a
0f7e
5535
e679
5063
ae5b
3eff
f76b
7707
d823
50fe
e9bb
62e3
775d
a46d
a59e
ac25
b6ee
0262
d1fc
3307
3449
3c3f
d3d0
34ae
27f7
8889
a9b5
a5cc
ed2e
a58a
fade
c849
ac2c
14a5
fe30
368e
e9fd
fdd2
2796
2c06
0913
1920
0bef
ef77
0fed
0485
81d3
dff0
ef47
afba
de85
8633
96da
4334
789e
294a
8ca6
cf33
a391
701f
9dd6
dfc6
0214
3dfe
05e1
0d08
f73f
ef74
9a2f
307c
e93f
04ff
2217
3622
31f9
81f1
720d
ef88
3598
bdbb
6c82
2c02
d1f0
106f
0316
83cb
7a17
1d17
f36c
28c0
1928
af79
faeb
fbbb
efb8
3c84
dedf
27ea
7582
1ad9
3667
9d1b
873a
6dbb
0d0c
7917
821a
5af8
f13c
2597
04fb
1838
0a77
8c96
0457
3fcb
dedd
24f4
30bf
9d56
fff1
df1e
da31
c914
e6db
72a7
1977
0ba6
987f
9dd0
e49b
cc1b
5677
c494
7217
aaa5
6528
b8e2
a047
37be
dfc0
c039
9d04
1043
3ffa
f8f1
9dc4
1946
23e5
7b11
dcd8
ed34
27a0
3944
c913
9282
4306
77ef
24a6
e187
1722
efa7
15d1
36eb
ef56
f89d
dffb
92af
bee3
25b8
e3d8
2953
fd7e
f9c5
0fd8
83a3
7a73
1481
9d1d
1274
2869
04b5
56c2
4538
f4f5
befc
4082
0832
1181
10fd
6745
7807
03e5
91e3
cd58
ffeb
e2eb
a130
5023
20ff
daef
6639
c09c
9d14
3e9a
a7ae
3c73
4105
4452
af8f
2873
af63
9de5
3b2f
92b9
8ead
52e8
93d2
69ee
df87
26b8
dff8
dfd9
f43d
03f7
7336
241c
27e2
af9f
e0df
93ed
e866
ef27
7904
bcbc
df7e
71fb
41e4
5774
bf93
5217
20c0
eae9
6d36
97aa
3793
ec81
8390
1b6f
1a73
1f0e
fe03
dfba
01b6
af72
0990
4181
7703
fc6c
9f9f
f1f1
7f16
c42a
9d7c
a3f3
6b8d
9d98
ff8f
315a
9e1a
f5eb
c367
370a
a45a
334b
5a5c
e68d
4d49
efa9
3b23
3741
a81e
9d11
a7a7
8cf1
9d0c
0620
dfde
9d69
3245
fff5
80c0
ef79
86ba
9494
ef9d
03c5
01f6
a2cc
c2bb
e377
af7a
05bb
dfe3
6733
7ff7
c2e6
0254
289c
2161
640a
7638
7ef9
e8c7
80f0
befd
dfe1
3d04
8017
7d23
7708
a851
5814
ebe8
af44
eb3c
5c72
3baf
0930
28e1
aee9
42df
6b74
4e17
1025
80ff
3747
e0ad
aa5d
5c7c
8108
3b58
da26
0879
4c4b
f1bb
3b76
87f9
047d
14ad
cff5
4438
05c8
1aa1
1e2b
6b20
e392
b38c
7631
3443
2dc0
efa5
c83f
eb49
693d
9d9e
9ebd
9db2
620a
e1bb
a4fe
80c7
6b79
b7b7
3693
0756
c75a
dea2
10fb
94e4
0e63
144a
f6a9
df8c
01e4
6647
e024
9ad9
1cf3
e9f7
9dc6
20eb
7782
f0f0
7207
04ae
4e27
468c
9ac7
d58c
4455
35d9
5422
ee0a
e769
10f7
ef97
3f72
afb1
3464
5669
484c
b418
40eb
8120
e07a
b56f
3e9c
efba
b6c9
f5be
03c2
7087
4102
afb3
dda8
200c
2647
8aa9
efb1
9d3e
ef6d
d260
ab49
8435
2ab2
ef37
fb03
8aee
ec71
5431
93a3
4a46
2016
c055
03f8
77bb
7705
f87f
ef8b
0372
af4b
9d90
6353
8730
afa3
b76f
d015
be30
3870
bdd7
3229
2637
a8ff
870f
adbb
1563
0ae4
94c4
50a7
23a5
02eb
a5ea
8036
46e6
3641
1690
12f3
05db
3202
5556
dfcc
94ad
04b4
e6cb
24b7
800a
84d3
eb5b
a57a
f4cf
18d4
0777
6724
b6e0
1731
9d10
5867
7427
25e4
2403
b210
9d46
f51d
f4f2
3e8b
f316
6d8a
97b8
065b
56d2
db7a
fa9a
3ee5
a1a0
3588
ebdd
6da2
068d
2dbb
5923
0c79
1602
342c
fdff
345a
e284
f586
ff27
2c74
f9ab
eb18
2beb
c01d
1dbb
097e
025e
e6ea
a17a
d879
8343
288f
5fbd
0f9e
a948
fe57
4357
3442
328d
0ec8
05ad
2edf
7ff8
9d97
e906
1039
cd0e
ff0b
ba8d
2144
2661
7d3c
7d2e
66a3
b999
afae
459a
45bf
fff2
e531
9d37
e9fb
c454
b2f7
89ba
0266
d2ac
3df1
3745
f0c5
a545
3946
ad81
2804
9ebb
8585
276f
8666
a691
253c
821b
a023
af64
8b2c
23f3
9d52
4b06
4599
f85a
aaff
af35
efb9
7967
284d
8418
9d49
cb3d
e0dc
26b6
e3e1
e766
1deb
e61f
4e3d
8103
50f0
ef55
0bbd
02fd
d066
efb7
07bb
ed1a
4819
162c
de6c
8a71
352f
3ea0
fb28
8c47
3806
259f
fff3
2537
3240
7f94
ddae
ce7a
0672
acab
691f
9d23
8b0b
a181
060e
467c
e0a0
e0ea
e01a
7538
07a0
89e3
cbcf
f55f
9fcc
efb5
af86
5444
18b9
b6eb
1148
82e6
9d91
27c0
3b22
3602
63d9
a218
9343
0970
2870
f7ff
090f
fde2
ef33
ebd7
0796
3587
e08f
37d5
fdd5
fdf7
e9f9
fdfe
ff07
afb6
8623
2a77
e048
4236
17ba
0943
edba
af66
9690
a1b5
d3b2
3586
9626
82d4
14b1
5125
9430
adad
ef91
4ee2
998b
a814
ef5a
7ffa
ab0e
e70d
cd5b
2740
9de7
7a31
6bfa
e948
0faf
0327
509f
9d8d
3462
4a59
8553
cb08
ef1d
ef78
fcf3
fb48
6507
dbeb
268d
3be7
65bb
a5ae
310e
93d7
0498
1029
1505
27b4
0721
f3e6
6b6e
102f
4619
04d3
819e
0e30
5491
7f96
9a72
143a
7710
7697
ef40
862f
3845
1a0a
6e3e
14a9
fee1
7325
c82d
af4a
088c
c1fd
fcfa
aee6
c04a
424a
d393
d03b
44ac
5317
ff4f
3607
b697
9888
5027
2705
e2d7
32f7
d433
1c84
f5cb
40a6
ca3d
86e0
c0a6
0531
fff7
5820
af34
7527
35f7
948d
e452
203e
a00a
ee14
50a1
b4c2
706d
78b2
ffdd
7536
4a17
2c48
ac32
ef53
70eb
5e2c
0ce8
262d
3265
c03a
a74b
6d79
f2d5
6886
e630
50bd
e327
9d2b
fe69
43fa
1163
6c17
0ac7
75a8
df73
98ac
83da
a3e6
6728
6337
0479
0521
e04e
9e27
8f03
043a
150b
9d26
272a
d343
1c03
afaa
8892
ff94
af8d
4681
1494
25aa
54f8
0a76
0572
1e83
4817
9dcf
6d5f
509a
b23e
0df4
ef46
8b06
dfaa
30f4
0558
1e3f
7b7c
0ad3
4355
df86
3958
2848
7eff
3829
71eb
37ef
5c22
724b
f9ee
6c04
9d2e
655a
6d6e
5049
e22c
92b0
50ca
50fd
9d54
6426
92be
7b72
9d21
1402
faff
6cdc
6905
9d02
ae7d
914b
2841
01e3
33dd
7313
f2b1
2662
8184
6ac0
e434
b2f3
201f
4ff2
d281
4832
50e6
580d
d902
056f
49d9
b5fc
e6d4
f130
8b42
13b2
4666
8067
a363
7fdb
d6d3
546d
db2f
e03d
7548
d3f5
ef71
e32c
6edb
81fa
5ed3
377b
b826
6081
b2b2
9dd2
5c5c
0b7f
a726
26fc
aaf2
a87f
e9fe
81ba
fa4f
2599
4848
dfa4
271b
9370
50e8
1992
0228
56c0
e8ef
80b2
292e
01e1
8485
0b56
b85c
4084
6d0b
163c
830f
2876
1fa0
6b30
ef99
cc52
1f1f
067f
818f
8434
ef76
ec91
4806
ef59
0eb8
53e7
35fb
81b6
afbb
6339
d51a
16e7
9d36
e142
6378
1a22
0da3
340d
5754
be18
af65
839c
044e
4758
130e
d07c
ef14
ea1f
0840
ef72
d7ef
3499
3a44
af7c
91c6
aa96
08e0
c520
ef4a
ef15
9211
1a91
c347
e652
72fc
c207
07d6
fba1
9d08
3965
dc06
1028
dfc3
3f65
d87c
0557
9ea2
af2b
1872
863a
a303
69b6
fca0
80d0
3d64
51bb
dfd7
fe18
9d43
6505
d88e
0324
bd15
be19
5bff
725a
b9bb
ef84
414a
ef73
f9d3
e171
91be
2e4f
fe7f
c130
2e59
3609
0894
6931
f2fe
505c
102d
b22f
b3f9
7c32
2a31
fef9
93dd
9d83
af83
b716
0ac3
eeed
131a
4416
081c
8fdc
a916
7047
7efd
3270
3bda
4f7f
55fd
9b67
2bb6
f492
6182
725f
6529
efeb
0381
f0a0
4182
488b
ef21
796c
22f0
e6ca
fdfb
b7d3
1065
ef43
efab
ae4f
af88
fd14
84dd
3dee
9d39
fea6
d2f0
0c7e
16bc
462d
e414
2c32
d0d0
96ee
96eb
dbf1
6754
ec8b
1616
e7ca
1773
8e86
d59f
8923
7efc
2ac3
9d0a
e00e
2b3b
9c39
4184
e79c
adc0
3a6d
cd5a
6a55
ad2d
4e57
0b79
7fe8
3262
c24e
86eb
94e7
5bbb
9eec
ef86
0f13
106d
3214
06c5
26bb
1e7f
646b
6233
1ac0
20b7
617f
9868
99bb
3274
b53e
26d7
5533
d626
dcbb
f22c
d747
0eb0
93ae
6478
28ad
1f85
01a7
7393
e124
2206
e871
3eb2
028c
3fc5
2214
05bf
f4c4
ffc2
6e02
3edf
420b
2722
5ef7
fe38
e5ac
6643
bf7f
69d1
7e79
dda7
056e
73a3
4f49
ff4d
efb6
fe7e
5587
4675
0dbb
1440
8219
5066
a8a0
207d
26d2
3b93
0877
6907
df9f
d00a
0487
2d0d
af8b
af6c
05cc
ff5e
640c
b5f6
104b
fefa
ef45
d689
b9a6
59ed
a1eb
0b0b
0d4f
39b8
b325
a845
baff
0528
5dfc
ef5c
58ab
b381
9dd5
71e3
11eb
3393
1ffc
6653
afa1
8855
0b60
ec98
2872
fbff
b2fa
af62
87c0
9ddb
df93
424f
c9f7
f3f0
ce9f
9292
7c0b
9a90
b65e
1881
a224
0eca
eddb
2f6e
5004
af41
41de
18bb
7b9c
1305
3975
b2f6
d75f
0740
9ff8
5194
c4fe
1111
989a
22ff
78da
2d56
3a68
ef9a
250b
0752
4d4a
cc69
333d
4e4c
bffb
cece
05b3
2b09
9dba
b6f3
06dd
9b2e
5f87
626a
1062
286e
2507
e668
33d5
a30f
6763
311e
18cc
a536
4e2e
83bf
2027
031d
201d
0ae5
7098
fcc9
66e6
57ad
d3d8
38fa
2899
504b
27fd
ef0d
80e2
2b92
3e2b
4a52
b745
5d2c
4598
86bb
6692
44cc
af8e
b9de
04b7
686b
3486
af31
370c
1df1
27bd
a8d4
1056
af32
fb20
fe4c
d3d3
3b68
3772
0581
2761
c78f
0d86
9dca
09ef
0af3
bfaa
4e10
9ffc
22f9
30cc
25e9
ef1a
f32b
5011
ad0e
1858
fe8b
ea9f
e0c4
0c87
187a
355f
2148
5525
bf30
dfdd
7483
516e
86b8
2255
cbd4
fac4
d397
2739
3370
7ff9
9de9
ee71
ef2b
ed3d
0640
b6b2
c303
0f77
fdef
af5d
fa59
3e71
14f4
cde6
af6e
ad4f
267d
d216
f079
ab57
266d
01dc
55bb
8310
105d
0534
67bb
9bcf
79a3
85eb
f9da
fcc8
5127
e5ee
6422
07c4
0b53
4649
04d4
cea6
1368
5f26
5647
3907
2b68
7ef7
7428
a81b
841f
e69f
e62b
9dc8
161b
e347
fce3
b2e5
d6b4
c7e3
5cc0
717d
f730
033c
e0fb
ef11
f036
f6c7
af73
9f7f
094d
5ff9
ff11
dbbb
496d
1d05
1339
20fa
39f7
9d05
e147
2f49
fed0
ffbb
5844
5ff8
d7d6
7ff5
6646
02fb
81eb
da20
af36
9d1e
26eb
2820
11a4
4458
3f39
4347
a907
13f1
1a23
c375
4e68
2a65
b86e
151b
7046
5016
b402
2477
eaf5
62eb
a534
9498
1a56
d16c
ef65
10e6
c0cf
d01b
777f
dd7c
e2f5
9d09
1fc0
efdd
f979
64f4
6971
e7c3
36a1
da84
6b15
183d
853f
d39a
07cf
bfe7
2082
6457
12d7
f87d
2a12
facf
cc67
9aa2
161a
4072
3c09
b595
417c
8511
7f5e
ec04
23a3
37c0
0c67
ef1b
cf1a
1216
d645
4237
df04
3da9
8187
ffde
9d31
dd1b
f747
9f7a
a653
3d7d
75bb
ea3f
83d6
31f0
8107
f151
06d6
26c7
5357
d2f8
9797
18f7
2079
03a6
109d
e0b7
d423
780d
b3ed
ff56
9cf2
ff2f
ead9
aad5
6338
dddf
e7db
f7af
db94
033b
7334
83d3
ef52
defc
893a
314e
0831
35a3
6c0b
4055
c797
af4d
7768
deba
574a
1f72
e0af
2462
3724
30c8
79fa
08f9
4e2d
07fc
de0f
4eb0
045a
15ff
7f7f
0237
8894
0e6f
5632
b2fd
d796
ef48
9483
67c0
7531
82bf
fef6
542d
ef92
3d63
d9d8
d359
8d1d
ad38
41ca
8198
6429
26c2
ef75
8230
d53f
f2f1
9dc5
c0ec
7164
ab9c
2767
cb67
4156
4677
3547
5f8e
2856
69ea
ef61
df1f
b83d
3193
dfe0
9b5e
d30b
83c3
fda3
ce83
e7e8
5a09
f696
3c68
e787
2e86
1f3c
6737
16c4
3bab
8741
7604
99d2
6782
8c30
ef4c
e0ae
2007
dfac
aa7d
aeeb
f5b4
572d
fa6f
f1d7
04b2
381b
f91b
27ab
55ba
0409
a089
bde0
34ef
ef96
6eff
e05c
341a
df03
3d26
5dcc
3ab1
3069
fb7e
aaa8
fcf0
76bb
c0d9
f4af
d2c7
3007
2c6f
1037
87ff
38ec
3b77
86ca
fdf8
f7fa
fee3
dac6
be87
98d7
b587
c116
6f06
ef95
ffc8
35db
4945
82a7
9da2
4802
01e2
0ddc
7693
e68e
1278
fdd0
30df
e945
af3a
c888
e9f4
5cbd
e667
eec4
0602
1686
433f
a15c
3226
bde8
30bb
184a
b4ea
afb2
fef4
f581
0c88
f5cf
2447
993b
2ff5
5247
1ae1
373f
df36
7b2c
fe7c
667a
f69b
6b62
ef4b
80da
c6f1
3b24
0f27
0f3f
094f
25a6
e69a
5425
9363
ef3a
6308
af52
832b
903f
cdb9
f8bf
1ae6
7abb
3865
2633
203b
6a16
65b8
70d5
d535
31ac
3da8
1362
52bb
18d3
ef22
2d0f
41eb
447a
0292
9dcc
7787
69bb
6307
c558
502e
6ff7
9d34
dfc7
26d3
adf7
9d33
0490
ef62
b292
3ce9
be7f
fbc7
dab3
270e
6238
64cf
2821
5091
d6eb
4009
da43
d5d5
2454
22eb
ffe1
e8bb
ff3f
01ce
97eb
e06a
35ce
6e41
fe93
8544
9999
e0f1
fc3e
469b
ffec
207a
e13c
333b
af69
3264
4335
d383
3dd3
0234
753d
4ee6
a56e
1223
c72f
06dc
af56
c2bd
04f3
2f76
de97
0d1b
0991
9304
1fbc
ef7a
0389
1469
e9f8
cbbb
af38
0515
110c
169a
af51
6e04
0bbf
b02d
ff83
e9e2
50f8
96ef
2090
3966
4459
a00b
af48
8737
72d6
afa5
ef70
e33c
162b
c69a
c3ca
21a2
18ea
4958
8126
3eed
b86d
04cd
0ad7
98ee
cb81
1097
8fec
e37c
dfc2
405a
61f1
2193
ef8a
0865
8571
4dae
ecf9
264c
109f
0c26
2782
2894
2dcf
2486
fbef
d576
3fa0
6fff
ef4e
1086
6f15
2ce9
4b49
df0a
4f5c
580f
efa6
bac3
5541
1422
f4dd
7588
f91c
4f18
103a
4f8c
59a4
0639
9489
a28b
04ce
3a9a
cf3f
ab06
703e
d027
e111
de90
50db
3496
fcab
9fcb
e69c
f2a9
fdfd
b00f
84eb
62d3
d936
dfc5
76ce
d3ff
6ddb
d64f
af59
fbee
5ff3
7cfb
2451
a476
65e5
ffb0
344e
1d1d
272c
efae
b0f7
1342
18a3
7003
821c
2f3e
f5bf
2882
b8b6
a1d7
2886
ef2d
3a9f
e664
af49
9383
c5f7
0458
9114
ebd6
183a
f283
cd59
8947
140a
5894
a587
8ffd
76eb
bf7c
abaa
2810
9108
5295
e9f3
7be6
fd69
4651
4c43
1842
4234
a081
a8fd
2864
f814
6444
2402
7597
09ff
2445
6e47
7d37
afa0
ef49
53a3
c233
78ef
d149
6d04
0f9f
4bb7
2595
af9a
3d53
d95f
7edb
9730
b430
c96d
5538
e743
544c
2c62
10da
0b81
adbd
8347
27ff
ed5a
1938
52ee
ee90
7a25
1a38
ee5a
6e07
414f
d0c0
0b40
81d4
27f1
62e6
5f32
86bd
88bb
8ffe
a305
0c86
9c91
fef7
039c
696a
9d19
2831
e904
ff21
fc33
7d78
8671
f47b
278b
7831
01a9
947f
f82f
6777
d4ca
3552
bf7e
50cd
cdfa
3eaa
5bbe
c610
8227
026d
7e6a
9330
6ed3
9d03
afa6
b076
494d
8627
4792
66c0
d6e5
e7bb
e08a
f7a3
afb4
69d5
197d
bd3b
adb5
9dd1
dff9
a184
5757
5fb7
507e
756f
5362
2505
2765
083d
3905
c256
6b71
b2fb
ec02
332f
b557
fdeb
30b4
efa2
048c
1bdf
80dc
8773
dafc
022c
e984
987a
da7a
68de
132f
f31a
086f
0339
f453
f333
fbf7
4c40
6975
c01b
04e4
178f
ce64
ea4a
23ff
e0bd
6622
9c6c
14bd
d067
0614
fb9e
ef36
dfc4
653e
4853
59bb
0475
0cff
c87c
c56d
0abf
0f07
acbb
374c
b832
40c2
5934
54e1
af58
105b
29ab
6a75
e9fa
a89b
4efc
85fe
fdb7
6673
9ffd
b8ad
5028
e037
8e20
1d56
e77c
2eba
23c7
29bb
193d
f2eb
b302
2f22
df14
0747
943b
1fab
858d
bd05
444c
7040
e114
ef25
35f9
12e7
d1b1
da47
518f
3340
50e5
3c74
a565
177c
945f
289b
dfab
0969
8ff9
ef0e
5432
6635
ff99
1116
a453
60c0
b3ea
efc9
6b67
2534
1a2b
bff9
a029
f020
a6b0
032d
d524
7ef8
881d
ad8f
af3b
9f2f
913b
8787
babb
676b
ff96
6e6d
9ec0
5b06
ee5f
3efd
2c31
6239
0b65
df61
af95
af46
e1eb
4daf
5a08
2592
faf5
fddc
760b
dacf
ecee
4dbb
77a1
ffca
bce2
2620
323d
9a2c
6d8f
044b
379b
d7c4
5853
279c
15c0
6864
e083
9963
eff1
eaeb
2eb8
05aa
aae3
6628
152a
a6a0
93c7
8cff
04ad
e9ec
2c72
99e4
ef38
838e
efac
9631
353c
019f
031a
abc9
fd85
8420
9703
ea40
5143
4364
f96d
762f
d6c0
6545
1c2a
d59b
a552
a140
10f0
6405
9e3d
79b3
86ac
4f3f
8425
9e5c
d622
5beb
afac
6d43
e4f9
c4ac
2e3c
3797
a572
1562
8d7e
a9ba
2370
07ca
49a1
5633
3be4
3f76
c18a
9d42
496c
f7db
87a2
eee0
7162
1631
6a44
b2f8
bc03
54aa
924c
5a81
454f
7408
222b
3cff
354b
c676
75eb
1320
c9dc
ea37
3963
d9fd
16d8
86e1
19bb
1dbf
3941
ec3b
8277
3d74
2437
7685
0c69
8d89
96a2
5bac
4ecd
6734
df69
f987
4a32
ff2c
d1b0
af61
df82
7053
124d
f7fb
f21f
ef8e
27f6
9e84
8775
0645
afa9
6065
500c
7cd7
f9f8
68f3
c5bb
cdd0
4fd4
dbcf
cf1d
2ced
7d65
454d
cb52
2c73
182f
0c40
cd78
4606
e99b
94c2
9329
5672
21bb
42a5
1a03
49df
82d6
5ea0
2e46
f902
e329
bc23
f779
c2c2
0cea
49bb
6324
ca24
8bd9
830b
8c3e
1130
3db4
03d3
1c8c
6dcc
de13
a1bb
c8a9
e9e7
1e43
5202
4ea9
2dea
e0bc
a529
2c9e
c633
bd44
2631
e077
d036
426f
1c19
1054
86d6
d44d
da0b
862d
8124
ec53
83ef
c7b2
11c0
500a
852b
3ebc
7a2d
fdea
6924
81d1
b843
2df4
5f76
0560
c07a
e6c6
67ba
b27f
aebe
a232
ea36
6341
3ff1
05d4
a2be
fe9f
0967
122c
79fc
8191
af96
7ff1
7daa
350f
18f2
ffaa
202b
6295
3ff0
ddeb
4379
afab
dc9f
7e55
025c
e5bf
0251
58ff
71c1
0b85
72d3
7405
386d
2364
e10b
2492
f182
3423
18a2
ef68
954a
a1ba
44bb
20c5
03d9
2185
1bb0
c41e
3cb5
34ec
adeb
d50c
1824
ece4
20bb
a097
3314
cc45
1188
da94
4085
cf89
f94e
0631
b2ed
68c0
9bc7
7cd5
3a62
022f
104a
ffdb
2b7d
10b7
77de
bebc
ffd1
2eff
7d22
181e
c9ea
4312
fef8
e0f0
6df8
897a
0f9d
02a6
efb4
059d
35e3
ce81
3326
589b
1764
ff49
419c
6137
d1eb
27cd
1ad6
77df
129e
ff97
ff9f
f723
13bb
5349
4881
afa7
ef44
8116
920c
af74
cb14
c6c7
e706
4ea6
69e0
7442
341f
3d7b
86e5
93b7
8a15
dfce
4953
0794
dbfd
fceb
b2ec
3c7d
02e2
1461
c94b
688d
4ca2
bfba
9ad2
8f7f
a3e3
186a
f535
1253
d2eb
b3f0
8586
35c7
92e1
40e0
973a
e708
bdf4
0d20
8527
e76b
422e
af99
6f0f
d90a
94a7
d3ed
8ca8
d2f4
e7c9
5d4c
ef6a
356e
1386
4062
6302
df97
090b
b91e
c72e
9d1a
fc28
d6a7
df0d
5205
4c76
0ae2
da92
9d0e
f6fa
96a8
1d7c
ef26
4a65
b731
a848
8333
ef2e
d05c
43d6
8b56
ee62
0335
3397
cf32
a9ad
9e3c
12a7
3211
0379
20e0
14f3
ffc1
1052
25d3
01ad
94e8
ef82
0ccf
5544
ac77
1439
6c6a
7c70
c38f
7fbb
02ef
27f4
5165
5ff0
7977
402c
01d9
9657
c957
fc12
2515
b65c
24f2
50a6
5460
6348
ba13
c1dd
3429
fe2d
3d86
482f
2648
0fbd
85d0
d634
ef12
e143
8430
dab4
b44c
041f
dfb3
a031
7bbf
1bf5
efaa
fcfc
d4ee
117d
9470
a44c
a9b4
bf19
0a75
d346
a093
2a8a
d914
d83a
79bb
071e
06ea
f47d
b94f
9f86
9ad4
d7be
0454
509e
5c75
9bc0
041e
76f5
42b7
0d97
45e2
09eb
b96e
bff1
02f2
2362
18da
d643
5767
267e
ac02
1a69
d8bb
3d62
3ebb
968d
4d53
1aeb
1978
8489
1289
e016
f6c8
a385
deef
dddd
33ed
d992
ae3a
6554
9d2a
df41
1788
557f
1886
962e
f379
35c4
b98e
d9db
d4d5
b59b
df0f
67ff
b281
185c
e008
e518
f204
d0bb
3919
df9a
1640
d140
94f3
f545
3d75
dfdb
2805
fa95
f8f0
fc66
3c64
d152
fc77
d7b4
3ae7
e366
50bf
8806
169c
9d25
bef0
d90b
c43f
545f
4803
feb0
97f8
e9f6
9abb
1e3c
045e
3416
96fc
e7fc
7dfa
021f
9d13
befe
f69e
f845
b6be
057f
30c1
dee2
b0b7
7382
a897
1049
af9d
dcbd
5b6f
e365
2e7a
95eb
09fe
5971
fb0f
6296
14d3
7d36
e0f7
b455
60a8
3d4d
2473
13eb
28ff
7a9c
82ea
39ae
5b35
c60b
027a
bdd3
0f0e
b8e3
9f02
369b
2d49
cd2f
043e
ff70
0718
7ddf
86d7
7ff2
71bb
6eea
df34
e9ed
4838
afda
96e0
5e84
8743
7f7b
4424
2f99
7796
7026
cc4e
17ce
9aac
e0a2
aee1
5fbf
ed37
41b3
25f8
9a64
1038
f45f
bdb7
042a
09dc
df6f
e35f
795f
fdfc
dfca
1356
b2ef
bdf3
87ef
744e
2564
961f
2226
c7bd
ef09
a2fc
1c6e
cf43
5376
e343
e90c
0c65
a055
a9bb
152c
8e88
3d57
e0c2
f0ff
fed8
662c
b11a
95e6
766e
eceb
99f5
f3f2
a0b6
defe
def0
0709
91d4
938c
7a70
2729
debd
c1c6
25a3
dff4
5e38
ca75
522e
da73
b8b2
5a94
2723
48d4
0586
028b
e8e8
109a
1231
6818
f9f7
26f2
fbac
8534
77ea
5958
5f7e
cb49
82a8
1f46
bf5f
05ea
0b6a
fcfb
438b
50a2
7aae
2131
1068
3adf
a777
6a8b
34af
42d6
01ac
930a
709d
1b52
ea9a
fc27
50e0
7d79
a912
073e
5546
1997
c5d6
c814
5115
01b5
5fbb
207c
3f70
bcf2
de0d
effb
fe3b
76ac
1dd6
4dc1
f6a1
7764
1afd
3c6e
2b4a
7b33
bd9f
e0e0
f3eb
10d7
257f
eebb
6ffe
4481
71fa
2481
b1bb
2305
b749
0bb9
6fb8
3676
0296
e099
ecf4
7741
f6df
a040
01c3
14a8
9d15
a8ba
de48
c6f8
d7af
661a
86bf
fde0
6076
87de
2881
7e02
287b
063b
0dcf
652a
7aeb
b1df
7f15
03bb
0d61
6414
94a8
a041
7184
19b9
3e07
2707
d26f
031e
b0ec
f9ff
023a
d75b
8b34
e07f
c69f
50ae
bec2
7ff0
8625
cd86
aceb
27cc
97d6
acc0
7667
a233
7f0b
2596
3776
09bb
3b3b
0876
0887
c008
9249
128f
eca1
2827
dd43
283a
6dde
2cfc
240e
b208
9ae4
bfc9
3bb0
bd14
02a5
d277
578d
dbbf
e44a
92e2
7deb
e066
4264
2140
51d3
b2ee
b05e
ca2e
7202
92d8
bfc2
024a
3309
6613
0685
87e4
b2b0
f8ff
39f6
dfb6
a022
81ec
a630
fcda
f16f
9016
3a18
80b0
f513
01eb
203f
2316
b6c7
47a0
af91
e6d3
bf7d
2240
01e8
42ff
8543
97be
e31a
a269
2a07
76bf
0bf0
6bbe
7fdc
77d4
ab94
1fbd
5ebc
df79
02fc
ee34
6234
542f
279e
6267
1a45
983b
5988
890f
b7db
fbfb
ffaf
bc99
d352
6d92
2eeb
b385
e179
cef1
3f7b
04a9
462a
f3a2
f92b
b883
01ee
df76
b959
2605
d222
ea16
bfeb
ba03
3f3e
f4e6
4092
4c44
1827
f710
b39f
e3bb
d4e3
d7b6
5e26
e5f9
a6b5
2f6b
7fb5
9f3e
0768
2720
120c
1de6
1b12
dade
0d03
3d90
c3a8
e6d1
1982
1837
c518
343c
f6ff
f7bb
aa45
070f
7da2
e74a
6831
88b9
bfb0
df8d
6a64
8721
1642
f4bb
5b30
fccc
2eee
c236
e2f1
96b7
558c
8871
e006
7f6f
8ff0
1782
e75e
604c
8225
931e
e047
bc10
7b3b
48e6
1f58
746b
7f4e
fadf
f47c
688b
dfcf
ec56
f2fc
7367
ded7
0486
870d
b83b
e051
172f
beeb
3c35
f6c5
f5ef
2ec6
04c3
f10b
17a7
38f9
c9cd
8502
ec3a
4076
ebad
ff4b
6e3c
0636
e932
532e
b827
b4b5
734d
2fa2
df56
3fe5
5ec0
6969
117a
dfe5
4705
16fe
d7ba
028a
ccb1
92bb
93c1
e04b
4abf
4bbb
33ee
afa8
3624
1bf6
a29f
b732
9206
2994
2f4f
e65a
f6e4
9fc0
14c4
92eb
b3db
0981
df3e
52f2
beff
a76c
aee7
255d
1309
ffcf
67ad
5d9e
c0b4
4aeb
27b2
287e
f839
ce60
fa41
2f7f
39bb
4f05
7c9c
befa
f88c
268e
a5b6
08cf
7062
1759
10ca
54ef
6acc
e1fd
1405
d948
33df
f3d2
2823
279f
984c
e0ab
de7f
a9a2
dfa7
7db9
e4cd
783a
063e
eac3
436d
249a
84a3
f397
97c5
99f1
ffcc
3219
4bcf
9890
e818
27dc
bc31
ad29
def9
248c
c260
bf44
5cbc
ddff
d5e2
cdaa
ad5e
9a35
8fab
fe35
5751
c09f
16c5
1dbd
3e08
06f4
0c9b
b5ee
7d66
eff3
abd6
9aa7
a6ef
889e
ac90
d47f
035f
6388
e2dd
f0e3
dc87
18fe
edcf
9aa6
2081
723c
e692
0f1f
e3e3
d838
3888
7864
9078
b66d
4a53
4865
1d4a
f8df
8755
2681
8115
1755
e0e7
f004
2a93
6aeb
275d
db31
49c0
b184
7d0a
fedc
81e7
5b8e
a308
5799
2d7f
6f7c
f4de
dbf2
a8e4
8aeb
5f6c
1f78
8251
3790
2c2e
3eca
d331
f7b7
280a
b030
f7f7
bf0b
4840
eeee
e0cf
b5f1
a3a7
2238
ba0d
c3bb
9af3
ad73
0224
0c68
400e
9054
0bfb
5043
379d
e5d4
3409
2307
07ed
d210
10de
273e
ba1d
ffd5
4be2
2842
d3cb
dfd3
273d
3e1a
c04e
86be
2244
5e31
4c9d
9f7e
4367
171e
1eff
6904
01c4
7012
541f
843e
af9b
b548
ff9e
d367
cda4
2f86
86e6
a656
0f1c
7875
bf3a
b481
b2fe
26f5
09ee
d982
6c45
35f5
1622
edce
e6f9
85d3
2d4a
714c
d486
93d3
bd6e
d6a0
0bff
1e8f
7512
c1e3
22c8
5bf9
7b88
6fb2
9ead
1442
b146
37a3
57f2
5f6e
b01c
c67b
c2bf
8d5b
7545
0547
0f0f
6428
149a
83dd
afa4
6cbb
6ed8
7b9a
0c74
034b
7066
77c3
01ab
2b08
6fef
6624
9f59
8024
2b48
98c5
6b2b
197e
3c27
a170
a429
ff7d
1c3c
03df
77cd
dec0
642b
a294
8005
16eb
754e
f027
210b
285a
747d
86b7
0d73
4124
baeb
7c5e
ef42
98df
914d
267f
c6a6
c0ca
6786
be6a
48bd
e3fb
c64d
e0c1
73fc
83bc
d3bb
3514
e94c
3173
10f5
a32a
e7b6
2853
9ecf
143f
a8f9
4aa3
f6da
9758
1baf
9e9e
76cd
3ac4
27cf
106b
0e61
9246
2c0c
02f1
a6e1
de5c
dd2a
ba31
2125
39b6
df4e
eb98
9fc2
9333
990b
fb8b
2381
2099
faf6
c0e4
7ca8
dd70
36d5
50ed
27f9
2ba9
6e6a
c6ff
a35e
273c
bdea
e073
4e45
96ba
5046
1b24
5890
26f0
f7df
07e5
c9fb
313d
787d
b9fa
1f28
9792
67ef
29a7
d527
50f7
47af
7e5f
0716
84ec
f4fa
e0fe
cd35
39b9
d4f1
344d
df89
6ebb
f05d
fa02
57dd
17da
148b
2283
29eb
1242
fccf
266c
2b2e
9069
50c6
10c3
7959
921a
ab0f
33d6
f2c3
bfbf
04d2
2d71
57b7
08f1
9aff
7c8a
f181
1845
09fb
b908
c426
080f
c77d
2d44
56f7
24ff
1281
2f7d
0874
5a7c
1cd2
ccac
8713
f381
7fcf
42b8
2f38
8719
d83c
d88c
34b4
a7f7
64de
ffe8
05ce
d408
af9c
ffdf
3ede
c29b
d596
d98b
4f9f
f87c
55d6
bc91
41fd
fcbb
0823
170c
f1f4
0471
8c2c
03ad
cc04
0375
b2f0
1b69
3e47
29cc
0d87
88f3
5792
dc03
022e
af68
36b8
2937
c630
a6e7
0e0e
2fd3
b0c0
3c69
53cd
c21a
56f6
d675
98a2
099a
cc30
9356
ada5
ca28
2483
c9bb
be55
dfb5
413c
d304
3ed8
515c
4041
0efa
a730
50f3
0c72
c05e
1848
0aa5
83dc
21fa
e4d2
e4f5
351e
4524
5857
599c
c29c
2862
9570
b37b
8a7b
0543
4e53
2a9d
2f5f
691c
2bb9
a304
cceb
7e1e
149c
1d41
4928
896c
5e68
4706
dbf0
fede
3c06
1a98
6a81
d746
c45d
18ef
b22e
2bfb
771d
c0e7
10bc
03f3
10f6
af70
c927
bc53
ba51
584c
4df0
7fef
5f2e
9195
643e
3f7d
0338
feef
278f
4a24
b736
4168
9891
df94
ba23
b628
e293
da14
f3b2
30ec
43a0
20ed
1c60
a4d7
3074
8410
d57b
23eb
37ec
ab9b
334e
5549
bf83
208c
b9dd
14d7
f993
bf2c
690b
b13e
e12e
e707
3312
853c
fef5
91a5
d4a9
d363
3d02
ee2d
a9d7
2278
8fef
5c18
b3c2
1325
57e6
80fb
1c31
d0f8
4d75
7a34
3deb
6ad2
5aad
bff0
dbb6
bc6c
2524
e9da
cc5c
f623
4171
8c07
3f68
7efb
2fff
2efd
27bf
02dc
44ab
fcf6
b576
0bb6
7b83
8993
85b9
920e
6c05
aeb5
21a4
72e7
af89
819b
78c0
6952
dfc9
175f
cf3c
4140
e3ed
285c
e2cf
5b31
f52c
f927
0819
1784
fbfa
50d9
7432
a2d8
08ea
6db6
ffa0
46f4
27c7
dbc6
f9eb
d2b5
282d
8f8a
638c
e455
75bf
924b
ac7d
01d8
e306
af8a
f393
6f16
057d
f63e
67d3
01a2
f77f
7387
e469
dfee
f37d
3f7a
f37f
3761
8646
638b
07db
e1e7
4586
f65c
1b3e
e73c
50f5
6310
fe8d
24bb
7cfc
109e
edf7
05a9
9f20
597c
46dd
56f9
c064
c3da
e9ee
dc5b
381e
6c3e
62a9
ee9f
1f3e
c472
105c
fe98
cd6f
866c
6c43
dabc
23a0
283f
73a4
8cf3
f8fc
cb23
13fa
ed07
ecf3
c1b4
0f0c
2af8
a19d
23a1
2c91
dfb1
f1eb
2959
6e26
26b3
20cb
4077
1ea3
dbdf
09e0
6b64
a006
c075
1385
1033
c044
bd98
9bed
258d
e2c2
6597
0249
fd8c
0257
81f8
18cf
1f67
b5bf
595f
af04
1a0c
364f
fd94
4805
7bda
837d
fac6
ad4a
3da1
d32d
4779
0c0b
13f6
a6eb
35e2
f93d
12bb
debb
17bf
8530
0869
a10c
49ff
c571
0538
6cb6
4c09
1114
40a1
3884
c80d
18b7
27c9
ec0a
345f
2824
1a2c
9afa
3608
f35c
b885
e202
766d
35dd
c476
dda0
0c91
86f8
84fc
e0b2
da7c
7ecd
1834
4713
e08c
aeb4
241e
3ff9
d94c
e79f
9972
780a
dee6
0248
7342
14f8
0724
991a
630a
0a9b
6c76
ff69
a16d
191d
ff72
ca91
e60f
b45d
b8bb
79a4
ec38
3c0e
2643
5069
3f89
8976
8abb
dd16
5cf2
1822
df42
4f9a
6c4b
8f1f
2790
ace0
f552
20cf
aee5
25c2
e387
dd63
3a78
ed5b
e0f6
8e1c
b6bc
e30a
a7f5
3573
8520
69f7
260f
415f
aa73
df7b
208a
b686
f793
057b
1fb5
6ad4
8824
262c
01d5
e1e8
e08d
3ff8
035e
22fa
cb6a
9381
e044
544b
9373
2b2b
e9f5
92de
a825
2c43
95f5
0e9d
5060
7f30
df3b
5957
3197
c108
a034
0525
fe27
2691
e6bb
52c2
c9b4
aecd
6b2c
d799
e9ac
f0fb
2409
2c5c
77cc
bdb1
3093
874f
88a8
7992
adb6
94f4
9320
8f3f
43b7
e59b
7aef
a4ce
590d
8537
18eb
ebb1
d487
032f
0723
1c14
ca48
ffc3
a903
02ba
2811
56c9
c6a7
fd97
d7f4
2e53
c230
94da
ef28
8587
1aa2
5025
072c
fbf1
ad4e
8008
5623
1424
801a
d33e
a487
0a90
6a42
64bb
f29f
9fbb
8e97
ffd0
9296
9b92
a651
2232
6878
f6aa
3593
4762
7f3e
8cfe
ded8
e7e2
dbdb
47f5
e6cf
52a0
50ee
6877
99e3
f5e9
1965
8c28
2be9
8a49
b4cb
3d2e
548f
ff1f
82bb
fb7b
ca3e
0453
1b58
e33b
a148
b14f
47d5
50ac
0c2b
f4aa
ace8
74b2
5c2a
8e40
8ab9
22e4
9aeb
7bf6
1c16
575f
b0ca
2d7a
26a5
5352
9eeb
dd4d
21a9
9229
e6f3
e8f0
03a9
2165
f4a1
eddd
d61f
3e36
2103
5140
90a2
a465
74e6
fed4
7d3b
9959
879c
3595
2dee
5d5d
50ba
d19a
6208
b3d8
8ebb
dcba
d7eb
f506
573c
3b6f
dfbe
43f7
2e0a
88ee
ff5d
75ee
7834
f430
f8d3
e0be
6626
afa2
10e3
2e02
3fc3
f0bb
4c9f
2019
844b
dedc
a259
0977
3991
b71f
85e6
a52f
8f76
13fe
57ce
3818
d081
dc12
dfe7
370f
5154
7ea5
95be
a720
fde4
ef2a
b922
ed1e
1ddb
2d58
a1bf
0674
107b
cf3b
bc89
04a8
0c33
bcbe
de7d
96f7
2493
3d5e
46e2
ebca
20e5
02f4
30fc
4ab6
a083
2c05
35de
9c7b
3b69
a098
2916
01a8
fb44
01c5
f2bb
cdcd
27ef
f5a1
6548
8033
6fdf
d44c
5640
afc7
6d25
5cb1
1673
7425
0b45
ed48
83f1
8db2
575d
4314
053c
53f7
7a30
d45e
dbed
af84
fbfd
e087
08f5
5308
cd5c
6677
e6e0
27a7
e9e8
27d8
d4bc
087e
d231
071d
f485
93c3
80ef
5b37
9f99
c3b7
2368
5523
1677
9fb3
d031
f3f9
bdff
3ebe
ae8e
6e08
af60
9f0e
bedf
bc19
5309
b2f2
0b55
f881
8eb4
7dfb
832c
ff16
df2f
633f
54a7
ac5f
8319
a49c
ad83
70cb
a27f
67fa
f524
9a7b
6dcb
8753
932c
e062
196e
c2eb
4557
891f
034a
4499
07e0
5144
e0a4
e685
3484
97a4
baa9
1cbb
b786
69f0
c9d9
a027
d3c3
f8eb
aa03
f5b5
e8ac
28a6
49aa
e492
8c03
6743
a4ff
2751
2734
f77e
349f
2ba0
0d6d
3da0
ffe5
f5ff
ee0b
f5f3
f6f0
e4e4
fb6c
3555
3a63
12dd
e545
9107
07b6
02fa
81ca
bd4e
3e7a
87b1
af10
a495
4c4e
c618
942e
d357
4eeb
6a72
2695
b0ff
f7ad
806a
8268
2891
5bd7
a410
10eb
801f
eb6b
9842
a296
5052
86a0
e0fd
f6e5
f1fa
3d3f
6d78
27ba
ff95
6f84
deeb
e82e
85a5
feee
1fbb
2bae
4b81
a445
ce3b
1bc9
b830
2645
0c43
d899
aaeb
235f
1697
63ce
4c7c
fba9
df5a
6aed
7fde
14cf
c114
bd30
ec09
2a52
d6c6
149e
3487
525c
65ef
610d
50ad
b8a1
fea1
022d
e6e3
3272
e0e3
ec64
208e
07d0
6a05
26dd
b426
c592
8e44
82df
2772
1ad3
fa5e
6ef5
7b76
8be6
cb9c
e881
ee76
27fa
fba6
acd7
5007
4403
73eb
2310
5937
162d
57b2
28a3
dca4
27cb
159f
0745
f23c
01af
8c8e
e61a
24b5
aefd
c53d
7dd2
08fa
8536
e3f3
0b1c
f303
98a6
f2b9
d3b9
1238
3613
16ae
b611
186e
668e
3c4d
d7f6
02a1
3c45
5ffd
c094
26ac
1295
2e45
41a1
3d10
e555
7dfd
7d92
9c3f
505d
72eb
9b7e
1374
68b4
eda1
20c3
2d46
8d28
f99e
57e8
5502
a4b9
17d3
f97f
d37f
cfeb
2fbe
98b9
0bf6
85ff
cedc
0c1e
271c
1bb2
e744
6ccc
57a3
85c3
a03f
9344
4c11
1177
3053
bf15
df64
d743
26e7
2fc4
03d2
c7eb
4396
cd9b
20a4
8ae7
354d
9e33
c71d
04ef
4897
df0b
ecd3
436e
ec6b
822b
df08
3722
a23b
02fe
d79a
9846
6e11
a71c
9696
12cc
f302
9a8b
0e83
ba5a
35fe
db7f
f985
4879
543f
f435
ed76
b636
c09d
aec0
1abb
f6b0
7fa3
4592
42eb
520e
cccf
2924
7982
cb22
04bd
5b1f
7b7b
a196
824a
28a5
eac7
7efa
ff87
e9e6
b0bb
4cbd
25fe
befb
c93c
97ca
516f
5c1a
3376
22dd
2e05
623d
ca59
9ace
a451
22f7
7ca0
fb7d
9f76
55f6
4566
deec
c0f1
b77f
aa9d
4004
5efc
4565
2776
c022
05f5
81e5
e2c9
632a
3c21
1606
a1a9
527d
222f
b907
ecca
261a
01c7
22ca
8248
01a4
20ef
e9ea
7634
91a6
dfcd
2d16
9a1d
d770
9407
12a1
7e42
8237
cfd3
2bbd
8413
258f
a474
2f85
cd85
e112
42bb
585a
dd23
5fd7
d3a7
bea0
4086
b2db
5344
45de
968f
e697
df9b
736a
df9e
10ac
0bda
7632
db3d
8376
106a
fd44
2629
910b
0e90
af22
18f5
2860
01f4
7776
c918
91e4
a3f7
f3f1
f3ce
78ce
7feb
f8fd
ad21
25b0
c3ba
fbe3
dd42
3be2
f6a6
600f
35d7
f147
143c
20a3
704d
df6c
3b42
02be
f786
cea3
3de1
01f2
2809
7dff
9874
2c86
ae42
3d3b
03aa
ac03
7805
c7ff
d764
1205
df83
c021
dc10
68f8
6e8a
ff7b
02b6
442d
229d
10bb
ccab
fa46
3d7f
84f1
4795
5f12
f1e6
0e5d
20f6
571a
ffd9
c10b
0789
737d
82eb
f387
a86a
1a43
7337
f1bd
23da
5fc0
8eb7
5676
527a
7afb
6e06
6fde
12a2
3904
b71b
64ff
3b63
a2c0
1821
7b64
d5d1
286d
59e7
d004
a7fd
caf1
9bb1
3f8a
dbf8
25c0
3878
7c8c
36f5
fe55
b416
5255
def4
8436
c6d6
35b6
c43b
0612
1c3a
ac18
06a3
0cbf
4e72
3ac8
c104
52fe
995f
fe61
4fca
5f1c
02ea
b379
fb97
e03b
149b
4e6b
e7cd
b3c0
0491
1473
3f77
fcf8
2327
a037
e37e
cd97
1b23
7232
e3ff
cf4f
393c
212b
b3dd
3d44
2c66
0d77
1b62
8b67
8193
8fdb
01b3
d5ae
53a4
dbec
a8c2
25b5
e830
53c0
1af6
25f1
f761
f681
6d37
bfdf
3be5
5448
50fb
6fbb
a0ea
f9f1
c903
ea74
6b6c
f35f
7862
081a
8316
c646
415a
a5a6
e00c
6af0
d4a6
f7de
039f
c67d
3405
32e0
7251
7f90
ac6b
ba7c
e72f
ecda
e626
27e5
fef3
affe
8196
25cb
73e2
a7d7
ebcd
db77
530f
38e7
b8d5
e7eb
e0cb
a025
d86e
0dfa
282b
966b
de6f
3809
506a
657a
b1c1
4279
2895
f642
c5cd
4843
275f
1aa0
bf75
df0e
539b
fe68
27b8
0735
9316
74ff
e152
7503
af40
258c
8fdd
ae7b
262a
0368
d830
d4f4
e01f
5279
fb42
f46b
d476
f8fa
69fc
4f33
e1ff
d7d7
e7cf
fecd
a94d
6644
a3b7
474a
a59c
dfb2
74bb
0256
3c1f
b733
552f
4d81
19d8
ff5f
fbf6
df44
75d2
dfd4
8076
5802
ddb4
20e6
a188
47d8
b028
9310
46a3
850f
03f6
925a
8b0c
5d7d
3853
f71e
285f
7c02
2622
0df3
244c
400a
8ebc
ed6d
3683
16c8
72fa
6838
c28c
1239
1b84
8f1e
8b6f
0294
4cb4
dd6e
6ff0
fdd8
fbaa
3526
fb6e
bf5c
fad4
85d2
522d
ff24
eaaa
28a1
a7eb
321a
e12d
e2a3
6bac
85aa
81d6
7ed1
6a6f
d089
827a
33c6
b96d
6c8e
8533
3425
fd1f
4d7f
1eaf
76f4
21c0
2b9c
df7a
1ded
1c71
a03a
6802
dc13
f58a
809a
6c93
3d4e
5ffc
524b
04ba
fdf9
2799
28af
206a
35bc
26a9
f405
df68
3804
7bf1
7381
f304
dbba
3aeb
1e04
1560
278e
e7fe
0914
a31f
f555
1f65
dd30
d204
47cb
9c04
3dd0
2969
0912
df2d
402d
7cfa
ffa8
f211
d975
267a
f227
5fdc
71b3
0bf1
9051
9abe
26b0
4d27
64af
22ec
1836
39e2
a5a0
4966
6e42
7438
d545
1b42
5ddc
7cf9
1783
6f3d
7eac
de7b
5474
9207
4b56
f668
f7b6
870b
ff98
8089
e338
849b
b3ff
a3b9
c0aa
2741
99f8
f9f9
b1b9
b437
509b
6525
3440
dc9c
fb5d
b48b
40f9
26c9
1daf
e853
2147
60d8
def8
8606
a471
0962
3e75
d719
d446
5833
0759
f722
608a
094e
5ee4
0638
fdf6
9997
c612
a278
dce3
4bd0
7cfe
ad93
0f81
46b7
72d4
fe6d
033d
5796
cf7f
044a
5a31
0efe
f2e3
d256
7baf
ffbe
4bd3
4f6e
8ff7
3bff
cbaf
ea25
2e71
826b
dfdf
9fe3
7121
917a
efe5
2e08
856d
b85d
eeb9
01cf
2825
05b5
cd34
9426
4be0
5477
24ed
f486
c1f1
df2c
334f
3808
d6fe
cf81
ea6e
febf
eba9
5f38
c4a6
2dfe
df96
4fc0
3525
7d29
85f8
a377
fbdf
25ab
315e
c1b7
b485
f3e7
ffb5
e930
b111
35cb
27de
142d
e3c9
fc07
0399
7409
4118
9c8d
e382
0b07
3a71
852a
d410
bc79
f7be
66e4
e11d
14bc
0e5a
3807
0e62
04df
d4b5
97ce
a091
f158
ffc0
a5d3
258e
8978
6139
288e
2a51
e5ab
7dfe
b7ff
d9e7
c057
cb6b
ff40
a72b
fcf5
35e7
f1ff
f068
6315
25e7
0568
276b
9839
7407
a689
a1c7
b1ee
8654
f6bb
c1af
aa9a
db0c
b486
d18b
0fbb
7fc9
85e4
31f1
ddee
c863
14a1
a9e9
d923
642a
6caa
070a
813f
e4b6
f499
dae0
2d8e
487c
6a3c
e4b9
e282
8803
7c66
4196
13a6
1937
6670
5248
7c47
ed35
df98
6eb1
066b
9cb8
7dc6
7df5
a1c0
8eeb
4328
1fbf
8506
b3eb
d6cf
88a2
c963
6866
0587
4e0a
76af
9226
3e7f
cdeb
10b4
c924
6851
4ea3
f08e
19f8
7979
f45b
2fa9
8a3f
629c
2a27
d063
b195
1c6d
cab0
3e7d
dc27
5d29
a021
2b14
ad10
8697
2446
b7f4
1c11
0bf8
ed4d
024e
60e0
debe
e796
fa73
280d
169e
877f
a1c3
bf52
600a
28b3
bfd7
2a84
feea
27a9
27f8
4a72
132c
4570
18ae
dd5b
b8a0
f292
c9ff
bd4b
0a5c
516c
7e66
401e
c0d0
0c70
6906
82e2
d1c0
d4fe
34bb
33cd
509d
20aa
9763
b2e3
93da
dee5
6c86
0d2e
019b
c4f4
d3c9
d7fc
fedf
0df6
0b70
3111
acb2
9448
0729
9ea4
3bb5
8170
27f3
eea4
4e4d
e177
7bbb
0595
f4eb
32ea
22c4
3d03
3feb
0662
3316
3b70
42da
e7e7
ddc8
eee4
3ef5
3158
3059
6c77
ebb5
cf3e
8fed
866f
041b
27f2
274e
5943
8912
77ad
c03e
9b6b
8aff
a1fd
39eb
ab19
1715
26e2
ebae
1267
6543
67eb
7dfc
99fa
ed8f
e0b4
56b9
f2f2
0783
8597
7ab8
283e
9feb
e3fa
fdcc
a52d
f61d
e6cd
fae9
2539
cd9e
abeb
35d6
4aaf
2372
57d1
97ff
9541
8716
5fba
81fc
bd57
26b2
d855
1ae8
db75
7171
8ecf
280e
dd3b
fdbe
50e7
e9e5
6c36
501b
0439
17f1
8d87
7bcd
3dfc
5af2
340c
169d
27d2
87a3
d2bb
cb2f
222e
280b
3b35
9f7b
668b
3355
f78d
1c0a
7b78
cfb7
4d78
2dc6
1f90
e0f9
bfbb
0319
40d7
417d
e3d3
5f1b
750c
ac2d
f9dd
c0d8
636a
7766
6822
9b76
dfa5
2d40
fa8b
1c57
77c4
6b9b
0f12
9f3f
639a
a048
f15f
9326
1a41
d90c
11e9
e0a3
36b2
e4b8
5b43
e09e
27f0
5ba7
df66
800c
777a
9fd4
c9e9
3d43
e727
ffa1
9eef
108e
305c
181c
db14
6cca
66eb
22f8
08d1
6d4a
0f86
25c9
0ffe
e66d
f5f5
8c08
75c8
5ff4
afbf
b1e0
6feb
fb04
209f
3fbb
562b
32fa
2253
2541
3ed0
50be
82cb
e070
93de
2846
b877
6c72
5866
274a
6c14
18ed
6a09
df75
786b
4d2c
ebbb
3d77
ddfb
7971
af24
85f7
b909
98c7
e36e
09db
b4ff
7be5
ffc9
dee3
6f65
4b1b
6316
697b
2752
f7fe
2a9b
92d1
5034
049c
e0e6
df11
eca6
476a
126b
8d25
1a09
13a3
d3eb
e5b2
e06f
e26d
973e
ac3b
729d
27e9
2091
8f81
deed
ca58
3f7c
6f7f
f33d
26f1
691e
f0c0
1423
a47c
3f63
5294
279a
92e3
a9a0
914c
2094
29c0
bab6
5326
df1c
df4d
ccf8
c307
1255
1877
fabb
d840
6c9e
ffc7
939c
dfe8
ba08
efd7
f2b2
584b
ccce
e585
c790
38c1
1260
3311
363c
3498
9522
e2fa
b3f1
05f3
4a6a
898b
ff13
ed0e
d8e9
faa3
0219
862b
22c0
376f
ca16
04a6
c390
a493
e99f
99f6
81c3
fbc8
7009
0919
530d
fd71
4b58
ae84
4161
fe60
2b0c
1895
d8a1
8462
4c25
41e5
f7d1
df62
9afd
20ee
8cb7
df33
fec9
aecf
0795
48d3
7a9e
df37
4aa5
52dd
e7fb
68bb
7f5f
e6a1
2769
2a1c
7f33
d3cf
a5eb
f44b
8b72
e0bf
d1a9
c281
e39b
0c76
c741
4276
7836
9be2
04b6
1057
466c
bd41
5c32
280f
1035
492d
5674
ff8c
5f57
1ad2
f579
cd82
1364
3e25
4910
a23c
89a1
66f3
10d2
daeb
cd6b
423b
7726
f733
90b4
e17f
bdeb
c7f9
7841
b227
21eb
8792
5be0
deea
fa0f
93a1
edbf
57c8
c00d
dcd7
feca
0c55
accc
8ddb
216c
caeb
0c1c
b2a8
a2a3
705c
7cc0
bdd5
e7bf
4882
d842
4249
04f4
c6ef
a1aa
feaf
ac6a
fd4b
b202
597b
fdb5
a2a9
6aa7
5e2e
6211
36a0
9fbd
0e3f
25f6
8b1c
d4b9
eb5d
8df8
4ab5
a830
c732
d539
0472
03a1
263e
1203
27d6
95fd
3ca3
1178
1b5d
7b89
ff34
3ba6
80cc
a446
a4bd
ce92
ffd7
3762
997f
745b
4dcf
4e5f
b9bc
f59f
1bbe
5015
1171
dbe0
0419
1e8a
7ddd
918e
d4bf
e118
0d29
df1b
0a97
b346
8d51
bff8
eafb
1413
3890
ec4d
70bc
fdf5
9349
1c0e
ba8a
ffe2
0938
43f1
c03f
ef20
e839
fb8f
6bd3
c710
e78f
82cf
07eb
7dc3
ee3d
f9de
36e1
3cbb
3c07
063f
a17e
78ff
def2
b12d
5c79
887c
faf9
c6eb
f9d4
ff3d
81a1
a1b7
6fcc
3ec7
8bdb
d7cb
ecf6
4f9e
c337
e0b8
1fe8
bcbb
35e5
f031
ac75
ebc2
1c58
3ef8
9697
b27d
288b
49eb
e02f
64c1
8b99
2f7e
281d
3705
79df
32c2
d39e
3be0
2813
5805
eebf
9065
cbde
f5f7
3695
5abb
9663
9192
1af9
fafc
5492
4faf
3ff6
4191
3a13
798e
ee7f
f20c
a95e
1570
3f97
7f7a
ee1f
01cb
42be
b9aa
9bb7
3b05
02b1
d6bb
23b2
75ff
bd27
ac8c
e091
be31
efef
f0f8
fed2
b26e
2051
021e
8d69
ba0f
3f0a
01b8
6d1f
ee22
2fdf
5c78
31cf
d470
07b3
7d99
6016
f7fd
1828
153f
b659
638d
d3d6
a804
c333
e9ba
bc77
508b
728c
e2e2
f79a
f3fa
3dcf
aade
d814
f645
03b5
1657
e6b8
9f7c
8703
188f
2709
26d4
8638
02bc
dfd6
3f5b
e2ff
0ccc
d2f6
70a2
7ee0
4162
d633
bec7
990f
4ba0
6f5e
af08
dcff
042b
0bbb
7fd0
b6ce
e776
b004
c38e
5693
3d55
0ed3
bd11
5716
8fc5
f9c6
8127
e2fe
1b36
bfec
b36b
da38
f281
f530
269a
e799
8443
543b
22ba
50f1
14b4
9244
1ec9
6b29
3eec
56f2
34cf
05d0
c1c2
e160
9293
19cd
384e
4021
2347
b303
04bc
e2ec
f041
6243
57ff
78e1
de22
8d47
501f
9836
22cb
3f6e
1f1b
05ac
d4d4
85bd
25f7
f6ed
1d73
1f55
a1e6
e246
cb78
f77b
f152
3daf
a981
4916
8beb
5af3
0c6d
912e
19e1
fe2f
6fdb
9f39
6e77
df6e
ca73
90b5
0676
57af
e09b
dbbd
eedf
ffa3
251e
c0b9
93af
4a81
5557
e77f
24f6
25eb
4267
acbf
01be
0deb
133c
c73f
2254
889f
3909
ff0d
d59a
139a
f2f0
20e3
e082
3b61
791f
cefe
0d63
ff78
37fb
fb3f
29a0
bad3
266a
0b22
86a2
5ebd
b31e
dd6f
2ef9
2e9d
ad30
83a0
eaf4
1fdc
6ddf
f98e
f774
55fc
081f
ba7e
d420
86c0
72f1
27bc
e690
d857
99a1
35d4
d145
d295
18a1
7e92
40e7
fdc1
04af
4a31
6045
add9
2fa1
1ad5
36ab
615f
0252
9bff
f0eb
d04e
b0b8
5378
05a2
3a81
5aa1
31e7
841e
59df
fab9
c6c0
5f9f
ad02
508e
df8a
e7d7
d426
33eb
effe
f88b
0814
d214
ee8c
bc73
85cb
277c
de04
f8ed
05c4
3b28
6377
a2bb
876f
1032
07de
dad2
a228
5fb0
cc2d
df85
5372
f3ff
2bcd
38f4
2e5f
aaa6
4949
a2fe
3b04
4038
1757
833d
4f5f
fec7
3e66
2bda
e7df
77b6
dfe4
4f2f
12a3
4449
df2b
8337
22c5
e2bb
df5b
4a2a
95bf
d7bb
35e6
f0f9
da85
03c6
a7b9
2029
b86a
421e
0520
081b
4cf5
583d
9613
c246
87e8
a593
6f4b
2249
e0f3
35c3
ac61
6d1d
39f2
0695
6f81
a911
d654
0289
9308
3df4
e5ff
2463
3dec
5ee3
baee
c838
e47b
ff74
dfd1
d564
6e0a
9070
24f7
1398
c0c0
a943
0371
1df0
cbe9
962f
11a3
f565
e194
84fe
3089
8195
0f69
633b
0bed
9ff7
d602
147c
b2be
3fac
c4d6
4ba5
276e
6f14
26fe
48bb
cf07
39d4
621a
ec16
4d9c
38eb
5d7c
411a
f75a
cfc0
12fd
277e
c42e
ffe9
6f53
8a81
879b
cf0b
6a36
2088
0510
5e05
f07f
4110
9183
7895
ecfd
5102
ed03
d8e3
d035
f015
259a
2405
f5cc
552b
e076
26d9
a4c5
67a4
c26a
a507
869f
e3de
75a3
3bbc
cd1b
2905
68b5
22c3
e7a4
68f9
ff93
d6e2
1742
d733
7630
73cb
2252
90f9
b5d6
6b0d
0d5c
f9cf
3e11
5bdf
2642
c604
9436
7ebb
7e2b
991e
ae38
20fc
1084
0cc9
4fff
feec
c1cb
fbfc
c9c4
e10a
def6
ce48
09c9
0c3f
8338
af29
fbb0
27be
3e7e
1b4e
315c
0bbe
98ca
6556
974f
151c
0435
f1fc
3956
bceb
9c8c
42e5
4ea1
201e
aeae
fbbf
fb1f
d041
6870
cb30
eeca
27e8
d26e
bc4e
b921
a492
359a
e719
81fb
b295
33a0
2ffc
14dd
72f7
047b
a045
9040
f6f1
a1b9
8479
3354
8eab
4c4d
5fd5
6603
d0e5
5f94
a16b
3418
470f
45a5
029c
bf55
bd51
6415
892e
222d
c32b
7c48
ec1e
fa3e
7106
0d04
4b6d
f9df
3b46
7cad
0827
f587
6105
f6fb
e709
f87e
d386
8d54
f962
1acc
0f24
ce24
27b0
df70
9f94
13b8
18c9
8b8b
d878
2abb
a9ae
7e9d
48cc
6ec7
8ea4
9419
fa3d
b4aa
2df2
c369
ebff
105a
20d8
35be
f9d1
6708
0451
163a
e17e
4cc0
21cd
c0ea
372c
dad5
cf74
a9f2
52a6
d3c1
1feb
f05f
c819
c96c
087a
25b7
277b
cb71
cf7d
8f98
dc42
b3bb
9ff0
cbba
087f
0904
3c8d
b72a
d9eb
8c5c
ff79
27a6
cf86
3d0f
b8f4
20d6
657f
ee30
f27f
941f
61b6
5f34
fc38
3c03
8a9b
2777
3a2e
db76
da52
786f
4687
3968
4d55
ec35
e081
1a3e
ba16
39a0
04d9
a4d1
6b07
2c37
431f
6ebd
8c11
4f27
6841
26a1
33d4
6cb3
e3eb
173f
5d8f
c726
1e94
6104
5151
84c4
23df
0671
d2b1
bf71
4b4b
6c47
dfda
fbfe
5039
04e3
7fab
eed2
2840
35fc
568d
4ca0
7c1b
eb39
2257
4305
bfc4
274f
f4c0
7ed2
4c29
3f5f
e084
cd19
0f9c
2f16
1a0f
3415
26cc
7451
81a3
a9ff
bebb
e985
f4ef
920d
e5fe
442e
b8f3
2f4d
ae7c
c837
835d
afd4
5a48
bc30
20e4
3f6f
28b5
fdd4
df91
f9cb
6652
ddce
08c1
1e55
a5af
a318
e805
5de0
1f86
d710
61cb
d0bf
2354
57bb
0811
df18
8f4b
d87f
943f
275b
d8a6
1e51
255a
4c4c
f735
18c2
35da
6508
be7e
103c
9e66
3278
a281
bf81
7259
9e04
5325
7fa8
df3a
fedb
28bb
c6b7
52b2
2807
90b2
1ae3
d5eb
6b6b
fe75
6791
1fa8
1fac
7cbb
9020
a439
a25a
99e2
a02f
df15
2116
3df8
c79f
8781
faa7
e3f1
19f6
15a9
4604
d4bb
3d9d
7b43
5a69
de26
3974
7666
e6bf
aeaf
4761
f81f
f13b
d4b7
27ed
acba
5caa
9010
9559
56d7
f1a5
e957
1ffd
6e43
8db8
bc0c
fcf9
664e
60a6
7c92
6edc
d674
18ab
e0a7
3b64
a52c
398b
b6a9
b640
bce4
10f2
df51
8105
83f5
0c47
ddac
08d9
fd74
38cd
d8b8
6407
4a60
f70f
41cf
ffd3
1f7d
e686
2352
e281
df46
5eb4
266e
6cd9
d889
92d7
e0fa
5afc
8e4f
f188
df90
df48
2b77
8592
50b0
b6c5
5291
a394
a7f6
3768
846d
25dd
35d5
56b4
4791
f981
4cd6
326d
5e7f
210a
62a6
07ce
fbba
84e7
be71
fb6f
6171
b6c1
98a0
aaf6
2d1d
9fcf
bef5
a7c3
c6f2
f35e
3f74
8db9
4425
c4e7
4299
55f3
ccbf
b2e2
37e9
39c0
b56b
5009
2675
e9f2
be07
62db
4deb
6ca1
4fde
ff09
9667
4013
53fc
2f53
7f34
53bf
b795
cbf9
888c
c133
5f98
0c14
019c
2467
97a0
fdf4
b66b
5fbc
8d3d
dcca
f67a
ff85
76e6
2408
a0e4
3a7b
fa37
5631
33c0
cebb
6709
1110
27a1
ec86
eef6
7429
9f67
9e13
61b2
ecd2
3d6a
8221
1889
df0c
36b3
ebaf
c0a0
9a48
9042
34f7
4e4b
e0de
a6a2
3899
0c93
3699
4255
fbf3
e065
1140
def3
9bbb
a75a
08ca
1720
ab05
fd3b
f773
dfc1
2ca9
1e3e
f3cf
edf1
bfc8
a72c
be7c
fe66
2619
c5cc
b878
b80d
fc8f
cbfe
497c
32ec
2849
32d9
7f7d
281a
e005
edff
2f96
1093
60c1
d573
2221
143b
abd9
06a0
d60f
4053
d691
5a85
8236
f8e3
cce9
1eb5
1346
7b95
5f7d
4462
603b
3a3c
79f0
ffa7
8fee
c5ac
d1dd
6202
d385
f3be
3413
cffc
81a2
30e3
4a3e
b87c
6678
71e5
2203
fb38
46bb
91bf
d4de
205a
c0b6
2884
9904
bc83
04dd
68e7
4467
6039
2a4e
c83e
f572
1865
07d5
1925
e1ca
1044
1329
0293
5496
ed83
e042
0245
87db
26e4
2f52
0fd6
7449
c4d4
f2f9
62af
5024
1867
df13
483f
6d38
b63c
94a5
320a
23d3
fd03
d223
d0db
18e2
1a76
2834
84b6
c205
7038
4c2d
56a9
51e9
aa4a
7747
8f4f
262f
d2c4
d778
f3e3
3855
29fe
7ff3
81e2
5f65
8b2b
a214
930f
0ebb
b1ec
a43a
b810
4cce
02d9
f2e7
bd6f
894a
c8a3
2164
e73f
e6e8
5fec
19df
25fb
3d7c
02ad
8645
4c41
ecdb
e104
52eb
8529
cd2e
7b23
7e7e
c77c
711b
9e2c
c830
b40b
e057
27c2
1b63
eb69
3a47
2c7f
797f
cffe
06de
66c5
7620
b7bb
b560
a8e3
bcea
3ead
d5ff
1525
269c
6154
12cf
8064
28b2
4f23
116b
27db
b4ab
c551
5749
23f5
7839
dd32
1410
7ef5
98b3
1420
8421
4add
4fc5
ed0b
2bbb
e0d5
03d6
3458
23bb
ada6
2bc3
1765
6392
7832
e0ef
8d2e
093c
ed6f
1ebf
2575
b8dd
5424
e4e0
5423
97b3
53df
2319
914a
9fbf
4177
0499
f4a9
699a
fa1c
7208
6e5f
ec85
f8e0
1969
592c
b57f
130f
7a83
9b40
cc70
e25b
f75b
c89e
aef4
2deb
775b
5d07
7ba9
7822
2a05
1f34
2ee5
d58d
c13f
81c7
f1be
17eb
9306
3b62
dd38
029a
25bf
c3eb
fe04
dd66
9165
b603
a398
9fc9
91bc
fd7f
f2d6
6309
b982
3b75
ff39
f0bf
04f6
b474
fb7f
1b9e
cad8
369e
10f1
5e6b
4192
64bf
730c
ff82
6946
f76f
ec77
a844
8f0c
f92f
35d3
6367
ec65
99da
72a1
7b52
1a60
0cd5
2634
e7f0
8fd1
e007
c51f
34dc
97c9
856a
16c9
ad54
4fd8
7f7e
01b7
939a
e8a0
5f60
854c
a5a5
03cb
8948
933f
6e2b
0db8
8152
22c7
f546
818b
1121
5a63
0995
22af
c2b9
4623
26fb
289e
dbfc
2f27
bd4f
684b
8843
fd35
7beb
8610
2112
e064
1c1f
b6f6
a7ec
c8ee
853e
2815
ad41
8c22
c806
5ca0
8d7f
caed
4f2d
0d3c
2c1e
8497
df6b
0d7a
6606
96b3
7ac9
75ce
ed7c
20ae
8baa
f5e1
81f2
2da9
0968
27d9
4a9c
fbcf
1c56
c33d
eb37
7355
8776
8ce3
3a45
d126
cfe1
9a4a
45df
a134
a2ba
8540
18df
357c
5af7
4a36
a70c
e5dc
4482
0f87
df25
c713
13e4
edd2
5b6e
5cfc
e1d6
a15e
fee5
cbe5
3e7c
4890
7324
33b3
62b8
fb1b
fbc3
de77
83b3
ccbb
8b2f
522c
83c0
27b7
202c
81f4
33e7
6bdb
6d3d
80df
b914
e0db
6354
0e71
282a
2779
b28f
6da0
2888
c3a4
4394
5099
8b30
36ef
f1f2
9ecb
eaa6
4f70
ade9
803a
4014
f9fd
0871
76e1
d4e6
5355
7d97
5fe5
5347
1f7c
f982
f1c7
a0e9
f434
3e23
508d
734e
b726
e09a
f15a
c4ee
c3a0
c3fe
ba90
5758
4ad2
2261
9ccc
7be7
6fda
bf3f
f4bd
1f94
3576
fea5
9f96
40bb
dec8
12f8
6bd6
024d
223f
6390
c2b1
0ce6
ca78
6b0a
dcb9
2aaa
cfce
35cc
5f3f
6fc0
e8fb
fe52
0215
849a
c3d3
c01e
fdb8
e121
f4f3
adf5
7ff4
26da
0c46
cf8f
739f
32ba
40ce
fe6b
ad6e
7b02
acd3
2c41
223d
6aef
4451
f205
3e6f
1120
433a
9495
7670
c474
50a8
2f46
dfa1
4823
c73c
261e
64cc
355b
a6f9
0dd1
f5af
048f
e438
6766
566f
9032
e35b
3b31
7fe5
0f14
9003
dc2a
10dd
3ff5
91fc
a293
c085
b695
9496
288c
2787
3bbb
55c1
8f3c
98b5
04f5
4178
1ea4
381c
e98d
35d2
caea
6f7e
ba30
b5dc
2640
a481
a7cc
9c79
20e8
b373
ffcd
b9b3
25f4
55ae
a8aa
2529
7fba
0678
5435
72a3
babc
ea0a
0b93
b79c
19eb
a562
b7de
81af
0f11
d54d
9219
5c4f
463c
2690
22f6
576f
3efc
2a03
3a42
4f32
6486
8427
3ef2
149d
d9d7
14f7
1f8b
3ca1
8740
2c0e
50b5
164b
6d1e
4187
347a
ad5f
e2d1
fa36
35fa
ce39
7169
cc4f
26d0
91e8
c7e2
9023
ea8b
91ea
e371
8071
d9ff
5c5d
456c
d3d5
2f9f
6a6c
fbb5
6e32
546f
eede
f886
2aaf
3ecf
eaf6
1e7e
519b
f9e6
8252
12ac
b7ac
200f
02df
b4bb
f375
079e
98a9
ff36
01d2
ff28
39b7
e103
51a8
f4e3
bda6
f9e5
6526
4a05
8437
f29d
e793
fe83
a347
2f3b
5c35
8b49
9a7e
02e1
2590
d566
ff8e
d681
20b2
fc9f
409b
d1a4
fc1d
bde6
085a
1869
8d2c
3b8e
6914
e13f
6360
259c
24b4
69a4
103d
3411
ccdf
36d1
2871
7ec4
24c9
e457
e8ba
68a6
d563
3510
0c5e
8a58
b24b
f248
edfb
afc8
395e
7715
fcf4
1ae2
3cbf
4126
0c81
bfcf
274d
071f
ffb4
aed2
8542
fe47
fec3
e993
a5c7
224e
be8a
04dc
761c
f1fb
ebc6
0e26
cc1c
188d
6eca
8e7e
b357
25fa
5d8a
7eca
03af
bc02
eae8
052a
1e6b
41a5
9392
caee
9e7f
7378
2015
3887
320c
d3de
35c2
2948
563d
8620
98cc
5859
fbb6
841b
dcae
4447
3e22
2eb5
1fd1
8e63
771f
9538
fdb4
27a3
a8ac
55a8
996d
6251
1d0d
2892
2479
d1a6
a40e
cb7d
55bf
21aa
b8bd
e0e2
81d0
44d4
d96d
e5ca
399f
79eb
fa5a
8fde
842d
d291
ae72
56ac
10df
9f3d
a4a4
2db7
b89a
e009
f1b1
67f3
1b64
27aa
dbe7
dfa9
9cc0
fe22
2512
3e0e
0679
f7a2
209a
2763
a5c5
e07c
0357
b438
b3cd
bfe0
dc6b
c2cf
f41e
ae7a
e1ed
1f51
fac7
5825
529e
dbe8
36ed
6abb
f6d5
81e6
7aec
e86e
1609
f30b
6589
fcbe
fed9
3357
3399
dfea
3c92
f4f4
e5eb
096e
024c
c930
7233
9892
dca6
f66c
9342
bef8
27ae
dcd3
7b30
27d4
10c5
df67
e665
d361
83fa
af27
0f4e
283c
41db
50b4
573f
01ba
e573
6f60
8222
69d0
e658
f13d
7bfe
7c59
7985
3ccf
25cc
723e
f71f
2625
e19e
9acc
7bfb
ba81
127e
e75d
779b
074e
35d0
1433
2ceb
fe56
9883
4734
9748
3612
ec54
d3c7
08e2
4744
3a9c
1d94
cded
cfb2
e464
35f8
28a4
9e20
1efd
6f05
e530
ee4b
9756
0c2d
a31d
ad88
6f07
4218
383b
b779
429c
a20f
3f90
574b
3efe
89f7
8336
189a
35e8
270c
0db3
ed9a
4bfc
2628
ffac
35e9
fe6c
35d8
38d8
f498
10c8
e0c8
e3c3
83d4
121f
263b
9686
e089
feb7
84ad
f37a
500f
a8e1
eacf
39ce
1620
83fc
f384
deaa
5d27
faf7
d30f
f0e7
8f8f
0644
e18b
56e5
0786
4d03
7def
67e6
8749
1249
edc1
b05f
8cb2
9464
a824
084a
888a
6e5d
f8b5
94dc
7e8f
fee0
21ee
ebb4
1c0c
9120
23bd
a21c
663e
2488
4f2c
9322
694a
a9de
d1e5
dbe3
b042
f857
30b2
7056
41af
1dba
7607
12ae
edef
309f
fa77
16d7
339b
d9b1
088a
1e70
f666
6245
872f
ada4
7b5a
cf5f
b224
b54c
116a
3408
dc14
43e5
278d
04c9
7aff
35ba
4e42
3623
6193
b3b4
7981
adda
861c
e897
f465
f7c0
2754
9f82
ce94
de2c
7ebf
12fc
da76
b2ea
f221
588c
95f9
c71f
4612
43c0
8528
0d3a
2725
2429
e086
1efe
d498
e74f
fcbf
76f2
84ff
fbf8
9be8
3a67
c562
edd3
aca5
1af3
1211
0b75
cf9e
96f0
52ca
92d3
7228
1296
4307
d6da
b881
70f1
1c1c
139f
bde3
f7f8
20f9
30fa
131b
ae79
e538
f189
67c3
383f
dfdc
287d
3e10
a8be
b287
01bc
315f
9170
eb6e
63bb
178e
1890
5211
6925
5121
4d6c
9002
bdfc
279d
f893
30e1
7cf6
6f48
9baf
2c16
56cc
4c38
64cd
d8d7
1632
a4eb
9b7a
01fe
5429
23e8
f3cd
ea21
721e
5241
7729
1f87
3d6e
1ff9
67bc
a681
18f8
f08f
55df
f8ea
7c5f
4cd0
6722
d9da
1781
bd96
b62f
e178
1825
a769
6005
697d
26bf
3494
8522
1248
7f7c
64e4
18aa
289f
69e8
c166
e026
8ada
e55c
1485
bc61
5e48
7c3f
36ec
0992
e0e5
3faa
7322
c35f
0bc8
05d6
3fc0
d267
2d51
abe9
4feb
d2ca
0755
9ab3
47b7
7f3a
9a12
f33b
1452
cdb7
1b31
5bf5
0ea8
fe70
dbd8
752f
a448
30b0
fa3f
26ed
e068
faaf
d7ae
556a
ff4c
6605
d8af
a554
3dcd
1bbf
9fb1
8566
5058
e786
7b2d
4023
191f
b778
36e3
6294
5c36
3e99
0628
d8a8
9f7d
86b9
6fe7
316f
974c
1078
b310
bed8
96a6
73bb
f276
c9eb
0bd5
1714
f64d
30cf
2698
cb07
11fa
0d74
1cd7
e9df
0ad6
18ce
9ba3
8ee9
338e
7b58
03da
5f92
3e7b
dc70
2684
3f5a
1864
b74c
3c78
8307
d30c
6012
78ec
7fc7
f0b4
a008
393d
6879
76d9
1db4
8831
b7d2
92bc
4852
daee
4b6f
1ff5
0649
18f9
94ce
d8f1
7a72
6b5d
a0b4
ac31
994b
9790
6e36
55ff
4e56
a165
df53
f0a4
f9b3
533f
cb70
fc05
8199
2270
16ff
fcf2
7ef1
1c08
a013
3d47
2b38
fad0
66e2
2c27
694c
cfbf
e6a3
828b
0f0b
aeee
c7e4
0cae
ec74
116e
dd41
6ff1
a633
e139
ada9
dded
e223
6835
ea88
3124
0d02
d574
e0d7
12c4
6881
f855
d76f
e040
3fdf
07f4
db5e
783e
715f
20e9
70fe
7f91
26f8
d0c9
1627
fec1
cb8e
f169
fa9c
bcfb
edbd
38ab
fe81
582c
a1f7
24b6
c372
ffb7
17ad
ac46
25cf
25be
93db
a330
2608
ec61
8820
5e11
265b
1144
e07d
45c0
c5fb
1914
7709
fe3d
81e9
14bf
5074
7559
e3d0
f8f9
8043
f35a
189c
7a57
a6f7
b30b
eded
5bab
fb1d
387a
8c43
e420
43a6
d2c8
d0f4
de76
fa31
f7b0
e3f0
dbe5
8b31
9055
3715
26a4
b6d2
18c3
99ff
1eb0
9b7b
cdb8
e11e
52a9
47ae
59d6
5b28
260e
d6be
e6ff
22b9
c7bb
6d47
a3cd
c87d
2b9b
c03c
b46f
925c
cde8
2ce6
9e79
76ed
243d
5233
02ab
dfa2
35e1
26de
41dd
b3dc
a89d
b8c7
8a6e
0f39
748f
f6a0
4288
deb2
452e
4a64
5086
6ff9
1e90
aa98
acac
de67
f9af
8eb5
aafc
e6ba
f3e1
37c5
35e0
3167
de1c
1ebb
4581
1c1a
8bf0
e977
69de
7fbf
96ad
e8b3
5cfb
bf07
0e25
ff7c
45af
41c7
b2c0
ff9b
5bb7
1a49
2c28
5835
e128
913a
c3f7
10e5
85c8
2818
fa49
7238
3fad
074a
c510
a6e6
e125
f443
2655
13b9
cdae
e8d2
e903
a0ff
dab9
738b
1be2
e132
135d
0cbb
c84f
4e48
cfdf
ec30
f94a
b1ff
e3fe
2693
db9f
3f9d
ca4e
10bf
418d
8ba7
c8c0
5c62
6b4e
b775
275e
94b2
ff46
5ed9
675f
3e98
20b9
8635
412c
14f5
cd83
3b1c
7b60
4fbf
93fe
8788
6c57
25e6
187f
02b8
3f81
0229
8f42
11d9
2108
1389
aa6f
c282
40b3
955e
c106
77fc
d474
0ca6
cf58
c97d
26a8
e1f1
84cd
a4e6
7798
8e96
4321
154d
6fbe
6999
189d
fd5e
4ff7
48b7
110f
eb52
6eeb
7f99
793d
8db0
9178
f051
01ae
2207
0771
ebcb
0c24
1b37
50b8
6b05
a775
213a
23c3
58a3
9442
b0de
fcf7
369a
afeb
8573
7cf7
47c8
ec5d
6b63
690e
35c9
7328
7534
ca9c
84c2
9090
1a82
e3f8
be66
0516
d1d1
7f28
4731
2689
d2a4
47f7
2a2c
4212
9614
ffbd
2cac
24a0
fb9f
802e
0b3a
dc30
c4d0
c865
aca6
e809
77fa
1973
3184
a478
a37b
c411
4b7b
a516
272d
2b42
fbf2
4f94
3a52
29c7
ff66
173b
ab33
c336
9cf3
336e
d541
45dd
bd7d
5d06
f0af
aac4
7aa0
e65c
70a0
bf7b
a197
28a8
78d4
8c51
7577
4741
c36a
6d3a
a07b
ea87
619d
815d
faa2
0e87
623b
bf0f
febd
c387
85f4
be2d
148f
ace9
59d8
10e9
bf1e
fa64
bd7a
66bb
41a3
f4e4
9a10
2845
6741
383c
7a0d
a9f7
ea1a
2798
0eeb
a5b2
282e
d575
d9c1
0e20
a215
aea5
fa3b
f0fe
5785
e7b5
269b
91c7
b2bc
25ce
6eb5
ec0b
a36d
ed69
e54c
d349
9e7c
d83f
66d0
02ca
dd77
0ca2
fe0e
8051
1523
ab89
d11d
fcad
050e
f767
a367
933e
363d
5092
b057
7733
7a11
c79a
d972
086c
9006
dbda
eabe
54d7
feab
d6a6
236d
1087
9ef9
f9fe
12ef
cf54
1ae5
afd0
2059
0f75
78f1
0c9a
6926
873f
95aa
e04a
7add
8dbf
fe0f
3675
4056
108c
abbb
d732
87c3
ea77
3d67
ae15
d930
b6d8
42f2
6702
d0ee
2186
7236
b233
30e7
2954
037d
c1eb
13d6
4796
cee7
503e
ed4e
31c5
3f67
3fd7
110a
6389
c0ad
674e
3b0f
ae3b
237d
68a2
7cf1
7848
b22c
870c
2be8
ecb3
0ecb
ea30
0baf
35b5
8914
b1ed
b4a8
df4a
12eb
bdf7
2fa3
59e9
5a6d
75f7
9c75
0349
f0ca
2542
c655
28fa
1ebe
9a5b
9e87
c511
e145
f0c2
6cfd
2af6
1c63
afdf
b57c
4111
53dd
52b4
f9f3
5f9e
f664
46cf
2f5b
212f
5206
2560
2efe
7595
fa7d
209d
fd26
ff4e
18d0
b2a3
389e
cb97
039a
069a
b6db
fbc0
d0f3
2af4
deff
f04f
b5b5
07fe
72d8
220b
d16e
ec4c
53eb
3d5f
0c66
826d
4948
45d8
b2e4
ead5
70f5
59f1
6762
cace
1df7
d5f3
626e
607b
3398
b35f
b072
1af4
c5c6
a42c
d9a8
ae29
9662
0626
8284
5b6a
d8cd
a669
5777
ec3e
b3f4
5366
bf22
293d
e91f
7457
53a9
9cbb
9f27
86cf
1083
eaf8
428a
536b
e181
f357
e771
cfa7
dabb
a66d
394d
06bb
72bb
05b2
cea0
9a52
2a16
9a16
f99f
9ebf
4406
ab66
41a2
e05b
3cfb
0ac6
6bd2
aa29
eeea
2bd2
7be0
d098
8c10
27e6
85ec
5038
18d5
18fb
c825
a142
285d
fafb
4114
3f9c
c081
3684
cb24
bc7b
5ae9
6efc
4112
057a
89d8
5810
660b
f05c
ad6a
9029
073c
948c
6bbb
0f4c
2c49
450c
fe3c
e6e7
948b
f3af
086a
5764
7386
3d45
1ff4
d8df
4109
c703
55b9
abb7
f1d0
f9e7
75dd
855e
c2c3
ca89
2615
f75f
9414
501e
ced5
864a
275a
3c61
f38d
cd99
28ab
3c94
7a32
ba39
ec48
04c1
ada0
2785
ae3f
7668
1529
d4dc
a37d
2859
0885
462f
fdf1
e0cc
b758
1d7f
233c
8681
81d9
3885
a484
72ee
1fe7
faf4
1669
060f
6fee
195b
314d
28cb
1ade
3fbe
26a2
9140
3bf6
ce62
9b4f
4d06
d5af
0f1d
c71b
56d0
4484
6e33
8b3c
de7a
868e
14a3
13ba
45c4
0826
f44c
f640
5436
f7b3
ad98
8feb
0b7b
ecfa
26f4
63ff
2ed1
59fb
fc37
42b6
afbd
5748
56bd
4148
ede1
102e
df19
3171
f6dd
bce9
1797
33bf
20c6
2ac6
f9f0
f6ef
87e1
af1e
6ba7
89ea
c593
e140
8fd4
8081
7c2e
8f3e
8ab7
2e82
ae23
1d47
01f8
1f71
039b
9681
4fbb
1efc
5595
f9fa
fe14
e60c
fb77
7f87
85f6
3c08
be5f
bf45
fc3f
76b7
a1c8
08e7
373d
278c
28ac
ca49
d80c
35c5
5f33
e122
2119
94f7
544a
ebba
7bb3
2fb6
5847
24dd
ade1
dac9
f79e
df77
e056
9ef3
e979
cc76
5cad
6a71
1841
7cdd
812f
b1fd
62bb
37f2
f9e0
20b8
718d
1497
2755
4d5e
c7a2
80f7
6c22
2794
b5f7
46d1
028d
ad7c
bc2b
02c3
6424
a4c1
63ab
7fcb
e577
f2af
8de3
6247
b8b9
04cb
d653
027c
1034
0c16
45d5
bd5a
6bea
d663
e83a
6111
4851
89cf
f81d
13fc
8c5b
e015
01e5
d3dd
5fc4
fce5
e3b0
fa6b
edf2
cf61
4bbd
c9c5
cf0e
b1e4
34c5
17b7
cae6
0c3b
cd3b
4cd3
5c83
6eae
24b9
59d3
5b2c
9302
b3da
8928
9589
e3e9
081d
ff29
994a
5252
cdb6
4fb6
d9a5
f066
1cde
e136
725e
30d4
3179
e110
1f77
eb29
8121
72c5
038b
81c5
d2d3
6ce8
dd37
268b
ade2
a0c0
3c86
08da
f4b8
d0bd
29a5
7c91
18f6
47bb
a430
a8e2
a9eb
cc02
df26
2f9e
4e3b
a73e
c6ad
7d7b
25ee
8168
4027
027f
a9d4
5af5
cafa
1197
db95
064d
2489
e7fd
25ea
468b
f6e1
1053
f7b5
31fc
83ff
6cfb
7c33
7fb0
f57c
18fd
eb99
264b
63ed
8796
e992
bd7b
b3e1
e8a3
6e46
2589
3ab9
5770
5649
efe9
a0b1
35c6
f74f
cd33
df12
c424
b896
8069
d33f
01ec
6be2
3668
ac30
5deb
f61f
30e4
226f
5485
73e7
afb9
26b5
7de9
dc04
be67
9744
055a
29bf
e14a
b19c
789b
40ac
76b9
325b
fe23
d6ef
e13d
27b3
b76a
27b5
45f4
ea10
e11b
54eb
efe3
1092
0db9
ad0d
0e47
7f70
38c8
7ef3
8a4b
f830
f8b8
032e
d7bf
2438
6bc9
03dd
e4c1
23fe
87eb
20f7
f5ed
6326
c6bb
7bc9
e85a
b6fe
8e24
471e
1612
62c5
60a5
a2d5
0872
818e
32bd
8b12
18e3
cc0c
7646
8148
a496
dee1
e88e
080e
3e6b
4247
f61b
0f72
4c70
61f0
71fc
19ff
f842
08aa
9b1b
807a
be8b
e6bd
0f31
e072
5539
fe3f
f31b
54f5
6836
7bed
787f
22aa
a37e
c0a9
9046
a2f3
88f0
cbeb
2878
3c79
b6c0
34c7
bcff
29ce
704b
f57b
b428
2495
32f6
4d91
dd84
fed1
5760
eb30
c154
b304
f9f6
ac68
5d2b
978d
c3ef
e3f7
6bf8
8bfa
40af
582a
cc6a
7c63
1a42
3410
437b
0946
6815
b5b9
e307
5c92
9b11
46e3
6ef1
5547
42f3
d2cf
3abb
e83d
33c5
23af
7593
478f
82a2
20fe
d24b
f684
5057
3324
bd8f
112c
c9d4
beef
3516
6b0c
c705
1192
ff03
ffd6
6f57
773d
1df3
7767
1cf4
59b4
7cbc
ddbf
96ab
f4e9
7df7
fbce
9f14
9a0e
c891
944a
7f8f
dadf
20a2
c440
cadf
3dff
e0c6
ae85
132e
ff61
abd5
865b
ba15
dd3d
c9d2
feb3
25fd
dd46
30c9
79e7
1c88
ab45
8594
fce9
6739
04a5
36b7
e633
e8cd
d415
f8be
d613
84d0
2783
57b6
4051
df55
8f83
eea2
c71c
fb8e
e6bc
6c25
ed5f
7055
ac56
b5ce
ad5b
20ca
f0e5
f460
bcfc
fed5
e6a5
91e2
47fa
6e4e
e0c3
ed33
92d2
9c03
6929
a919
5675
9897
30e9
a10b
30b8
690c
8c16
043b
eb9f
eda4
8342
5271
5e58
7513
76aa
b2ac
77a0
7bb4
f4df
18e7
2b81
38e5
85cc
d56c
32c8
2379
e305
0beb
abe0
8a16
b652
7384
2d7d
db74
20f0
afbe
c3b6
e0a1
a6c1
8791
6f41
25c5
13f7
fd9f
fb91
d9ae
2536
ff6c
1445
351a
e87e
bc82
ca9b
9f2c
de3b
4399
fee8
524c
c31b
2659
f488
52c3
eff9
36d7
a153
93ef
dceb
b74a
c34a
aff8
aef7
9347
155a
fbd0
67d6
ae04
6322
1fde
e393
8efc
9424
ea69
9727
9c1b
0552
d53a
f846
3aaa
debc
03ca
3773
1ef6
5391
eb83
2fe2
1f6f
1cfc
5eae
687f
3095
4e52
88b7
26bd
73fb
f0d6
503f
7b16
c719
edbc
e3f5
e7f3
eac6
9791
e069
ba3a
ce7e
940e
b855
3ea6
5082
1ef5
3670
eca7
76da
2ecf
0441
e792
e7ab
3854
2713
594e
023b
8098
9742
7a45
9171
2feb
fbd3
85e5
494a
feb5
ceac
27f5
f0fc
1cfb
9c09
b78c
367f
07c6
d560
8cb5
d9ee
666e
4808
60b8
2a48
b7b8
d3ab
0c77
617e
02e8
41f3
230a
beee
f6fe
c216
6a74
96c0
4c28
5aae
9a7a
cc31
c99b
5a90
482a
9027
5eb5
743b
d17b
faf3
474f
207f
d727
77b7
57fe
3ea7
be73
ced3
7a93
15a7
090e
2314
7daf
6982
e990
a0aa
ded3
f0a8
4bd5
96bb
dcaf
057c
35dc
ac89
32a6
5516
fdb6
97ae
87cd
eacb
3999
32cc
5a29
8e30
02cd
a4bb
fea7
138e
179e
d2ef
ad06
d851
6b96
8686
240c
a351
0e0b
c9d5
f198
125c
1f52
972f
2eda
d421
3bb1
fc20
f7dd
84b4
930b
5090
fb46
1971
29f1
8574
4007
4210
6c3f
27e3
e902
ae58
0f48
86a6
b45f
0eff
6826
7d1c
e90b
e73b
a7b3
8851
54bb
247b
f79f
65a6
6e4d
f2df
fba7
e0ec
a976
dae1
bae1
021c
3b1b
6149
818c
82ac
d463
fa2a
9fbe
b80a
785f
ea9d
be2a
96b0
282f
792c
c313
eb85
843d
a473
43fc
3874
083a
81fe
c477
6937
cb3a
f232
df28
369f
635f
25ad
a213
49b9
81da
213d
83e3
ddba
120b
d334
abf8
ee67
6445
dad0
c7c5
b803
81cb
f3a8
49e5
7ec0
f013
1610
b63d
a109
75a7
7cf5
b241
280c
ccb5
a4b5
8c72
8ceb
1835
6318
bd0f
e5a1
7c22
f90c
21fb
cd81
9a66
5f13
4c7d
939b
cc93
45be
ab44
f71b
079a
37ea
5a67
f03d
1e62
ae99
f33a
42e7
5fc6
d5c9
8720
9fb0
32a2
f352
fd59
ff55
5079
ff8b
6fe6
1faa
e05f
7a76
4661
8bba
c30f
0f16
fa2e
e02a
25df
75d9
45d2
3c7f
d25e
9546
fb2d
ff6f
5222
d08c
0dd0
93aa
8004
0c3c
c358
63eb
9253
af28
5bb6
267c
514b
c993
146a
8163
ca2c
79fb
bff7
2b53
3fc6
f6ab
d3fb
d5ef
924e
17cd
3f8d
9557
2fef
6a51
f34f
28a9
2694
b6fa
4d82
6598
4e58
0f25
7844
4ff8
c513
0344
31f6
4e31
024f
27d1
0c32
fa4c
b21c
dfb0
8614
2b76
04cc
02c7
e1f7
e7ef
feac
79c9
5014
f6be
b7a0
5212
d2ff
d5a8
b5e0
6007
6beb
8fbd
f084
3170
fd93
8056
9c88
d65b
eb81
9786
4c66
5f1a
5527
233b
047c
bfe1
1aff
6aff
15bc
c920
ce14
e937
048d
8c04
f566
073f
7937
bddf
b734
4103
fb57
2084
cf9a
dc2f
d2a6
27c4
c38b
77c0
e0c0
d9e0
98c0
25f3
ff63
dac2
6e29
4b43
58ba
d1f8
34c0
a869
7dbe
c5bf
f78f
4d45
f744
f73d
1f0d
9ad1
ec6f
141a
18db
1695
d620
942c
78bb
6cac
7e1f
b116
73d5
2972
acb4
dd05
fbdc
c4b5
4969
7e2e
8930
ab7e
e65e
0d88
8325
9b30
32bb
e0e9
c5e2
19d9
4b8a
50a3
27fe
8054
b5c2
e133
5155
77b1
b7c0
5e54
4922
a754
0bde
c516
f298
e887
a6c6
eb51
ffa2
2b49
84a1
3d56
8f7e
52d7
e090
2e25
271d
9b3f
813d
f119
94a4
29e6
1567
fe87
08c7
25b3
f467
2778
f31f
7b57
0922
98dd
0246
ad5a
98c1
eaed
2f79
5942
e390
2974
e06b
01bf
a671
e79b
2898
4c2e
13e2
045b
8273
8f9f
032b
471c
f783
19f7
590b
c3c3
c7ea
9262
0d40
8224
f294
a81a
ea29
577f
f653
f8d6
5884
79f3
6d6b
8073
a46f
9e6c
4f3e
6cc5
aa14
f0b0
03fa
ff9a
66e7
3483
28be
95d7
5077
5062
fafe
8688
87f6
40a3
40b7
b484
dda5
0d3b
d93e
5ea3
e50a
fc30
6142
0797
f360
5afe
4252
f7b1
a765
fa63
3926
6611
185a
7da0
a607
2cd3
9818
5a21
9175
5fb4
072f
447f
a2b8
9a0f
0699
a679
d1ff
4985
8291
468e
d6c2
41c5
a433
572f
d8cf
2e8e
cd0f
318f
d7fd
de9a
066c
6c26
0e6d
2926
a846
99cc
4362
358c
35ca
3709
87d7
ee75
4568
34c4
23f0
35e4
5114
9058
de5d
9efc
5193
cdbd
e0d6
95c2
4e6d
d005
07f7
4d26
c5f9
c4b0
1892
8cce
b7be
c61f
cdc4
cd84
ae3e
b7df
fe0b
e13b
91cf
20d2
6a82
4bdf
0348
260c
e688
f878
8c7c
91d8
8583
9723
2609
0d85
698d
eaba
1a15
fe0d
1614
9476
73dc
e6c9
91ef
1846
08e8
8247
fe7b
fac2
9a92
0dd6
b66f
a07a
86c7
12ea
8bf3
beb2
6687
53d5
d290
37ca
9529
680f
8699
769e
81ee
f1f7
ab56
5622
464c
7fd9
4648
db73
10c2
fee2
0f1e
103b
9665
9731
5776
4acf
a624
b64f
e2d3
d278
d774
5f46
92f9
93ac
1d8e
260b
768e
72b1
f5ea
374a
e76f
adfd
44d5
30c6
eeef
f154
adfa
48ac
0966
b63f
7ccf
ce55
bc41
611a
23a6
cd5e
086e
2e2e
fc70
4759
df71
4824
8815
8e62
4afb
34eb
98a8
1c74
ab14
c05d
7ce1
a5ff
b77e
f5fb
8496
2071
1f63
5ffa
e314
ffba
4281
07a3
35fd
f0db
fb3a
b2b8
6be4
acef
8b8c
d4ef
a2c8
f3b9
0b77
f9f2
4ef3
7b10
695d
1059
9e91
cee3
6a0b
028f
d404
e022
e93e
1292
258a
e716
96a9
94ac
f89e
09e1
0d49
3d7e
7e7d
9457
70d2
35d1
1a08
acf7
c20a
38b1
e634
b2dd
2771
c8ec
aa71
4b67
7d1f
168b
74eb
eb59
4e03
2719
dedb
16af
89e9
2748
641c
0c10
6909
b35a
9b37
94d4
b3cb
f05b
4ec2
8661
0d0d
fe67
d77f
b9eb
1568
3951
3ce4
1e66
8731
ed9b
67cf
decf
2e16
bcfa
7633
90a1
e48e
774e
f5ba
d18f
3f8e
558e
c91c
e257
47c0
e32f
0fbf
0cd8
1fbe
17d9
383d
3fca
a70f
6494
d4af
a7ef
396d
d2ba
fafd
73cf
e8eb
2f2e
1327
ab1c
e534
919e
3bf5
69e9
76a5
f11e
b1e8
e3cb
98bb
0caf
dca3
d316
033f
a4c0
f2fb
5f3d
f609
54d9
32f2
97c7
3a0f
5c27
f6fd
2258
3b81
526a
0b2c
28b0
4d3a
6927
667b
0816
ce19
e698
01ca
41df
8387
b0d2
79e8
e039
4905
59a2
a982
f9db
fb4b
343e
0b04
669c
c3f9
e3a1
49a2
554d
55b7
eaf7
e71f
26b9
5755
0f51
a07f
73fe
1bc0
fce2
9f73
25d2
2868
f98c
9111
1351
3f61
ab30
ec8c
03c7
1adb
7141
a0f5
9ea0
97bb
3b2c
daa7
c1a1
3f31
854f
498a
9b02
4b16
aff7
1681
f598
1c2c
1628
d4cf
059f
b0fa
c9ec
15e1
7ad9
38b8
58ad
f0cc
25a4
5bbf
4a8f
67de
30c4
6e52
3cd8
042d
d678
81a0
2105
ff26
2b29
c645
0f6d
1544
5949
86de
5b8d
ffce
fe8f
118b
b4ac
50e9
ee5b
bef4
df65
a211
3d4a
d049
3b0e
e916
4622
268a
91a1
48f5
3b0b
c8bb
50ea
8ce1
430b
f3e9
fc32
b1eb
a3a8
1b9f
9fbc
769a
cd5f
d10a
fe5f
0c6f
090c
2cca
4287
0754
bfc1
a58c
c94d
26bc
89d0
f1df
24bf
72b9
0f71
7e71
2525
da6b
3fbf
91d1
839f
1ff7
fb3c
26c5
8233
77c1
e56c
bd42
91eb
f3bd
1873
5f90
59f3
6f8c
90c3
35c8
250c
7786
3e9f
2db8
3c3d
ec40
b3d7
6aba
f4d7
83cd
9faa
774f
fbde
f14c
8caf
76d5
208d
edd1
a77f
e699
5183
9397
246e
fd3f
f19f
f42c
4dc0
cbae
8022
ff8d
df06
aebf
513a
1064
74f5
e631
a114
82f7
37bb
026b
a019
e348
6395
20c7
5bc0
c534
8255
33b5
5098
cdcb
4e13
9c7e
fc92
95f7
e3fd
f2de
6214
8fbe
68ea
faf1
d6ff
ddf7
407b
e50f
a3b1
87cf
99c8
ec5c
85ab
902e
ba07
6a4a
9af0
ac3a
e77b
06fe
e1b3
e85d
ec9f
3ed1
944d
ac1c
563b
9603
ea97
5b22
1c07
c112
34a4
93e6
01e9
58a5
8959
077e
8921
e53f
febe
f1ac
2cd2
7d3e
9c4f
99fc
eff8
c189
17a8
2092
1245
d6ed
8d30
2434
8a51
0329
ff2a
511f
1425
77f5
6bcf
ab82
5b6d
3d41
6408
12a0
f279
b447
adab
7035
ff47
3ef0
86d3
3a6e
e745
d1f7
d20a
d896
10ad
6c5c
e5cb
3b66
283b
f1d9
f082
1514
e715
fd73
5d84
b7ad
fb87
8593
c582
d526
a74f
eb75
e0d2
7551
fa9b
7f6b
e777
143d
daed
704a
07b5
dac7
0b19
b7b2
0c4e
86a3
81d5
e106
500e
599a
efd5
92e8
a6bb
0fcd
df02
08bb
f164
73e4
3553
8ee8
cbb9
f006
0f7f
264e
a6df
a3fe
5752
a557
4387
fe46
292b
ced7
717a
c9c8
296b
86ea
1107
4395
87fd
4775
74be
f2e5
7acd
5b78
5138
18f0
4a49
29c5
98db
e9f0
bdc6
faf2
a087
7e99
f40c
9a9f
5d05
999a
71d2
3b94
4bcd
602a
1e4e
7cfd
4385
a7bf
36c1
8110
c75e
3868
a440
e30f
fbed
cce8
b12f
f8cf
1369
47f2
7cf4
4008
9f95
574c
e312
03f1
c232
5641
8147
2af1
387d
0c5b
e0f5
cca6
ca68
4e40
547d
a2c7
0ebd
de1e
17a5
b7eb
5932
dd85
5428
83ed
3ac3
e82b
f71c
f89f
109b
4862
4f2e
047a
4cd7
58be
e430
cdab
c7f3
0ea2
eee9
33f7
a3c8
e67b
fbf5
7349
859e
a24d
36ba
41a7
1ca7
2660
4c05
dffa
b6b6
24e6
84ae
c39e
fba5
9e14
ab34
644b
024b
6122
779f
d36f
d84b
b6f7
7287
e019
324e
fd30
23ef
d30a
5a23
d92c
339f
e3d4
e055
8582
0f66
c60c
e4e9
6771
fe5c
5a59
5f7c
75dc
da7e
6190
b20f
a75f
7cc8
fabe
ffc5
6456
0e77
3a83
c111
ecf8
f948
e3aa
09ac
7c6f
b73f
25b4
1bbb
5875
531c
f1d3
d1f3
4aff
887e
127b
48f6
a074
fe97
ac37
0bc0
0f3d
cafe
46ca
ffad
3826
1a12
5735
02f6
0be0
a569
fd49
6935
d4eb
2cbb
7a52
c4f9
8deb
7a74
376d
41f2
1479
4564
5954
1adc
51e6
3451
9294
f28e
8fbb
b526
e544
974e
07e7
19a9
c2d3
a3a2
6058
6e22
cb29
e075
d40f
28eb
88ff
f9f4
5262
2e1f
49ce
c23f
6858
20f1
60b4
6812
c6a4
80a1
8fa5
376c
35cf
051b
4516
61c6
a472
536e
90b8
f6ac
56bb
77ca
e05e
6c51
c848
650b
e8e3
0e67
46f0
ff67
2839
d51f
a129
47e5
b16b
ca13
54a6
33ff
1088
420a
ec90
cac4
85db
32cd
0577
3ce8
241d
f0e1
dc9e
ce84
c77f
367c
a2b6
7437
c6f9
105e
f76e
6778
7509
e942
9352
70ff
4326
8521
4a4c
5681
42c1
7ea6
d5ed
3ad9
2791
d7ec
f06a
bef9
7acf
7d69
d492
17c7
dd9f
c7ed
3c93
8f14
cd30
7de7
4f1d
1a24
eb26
e58d
26ae
02e5
2db3
2bcf
5aa6
a328
cb21
8cca
8155
81b7
65eb
cb36
7fe6
fcd3
aca4
f056
85a0
205e
debf
a6cf
8b33
3474
50b6
3fb5
50ab
7b04
fba8
5f04
6268
0e3e
b535
e1d5
c4c6
341e
bd4a
4e4e
6934
7455
c1bc
5290
033a
6b8b
2a32
e66f
a727
c1b9
7174
a996
30b5
aeb7
efdb
46b2
e3bf
2708
27a4
48c7
460f
c2f8
7bf0
31e1
b2a4
87e6
b662
68be
147a
7288
8dec
b5ff
fb95
964c
70b6
182c
e25a
2d5a
7b62
e791
6932
05b9
0db7
bfb4
5c5a
3448
7335
fd3e
2639
f673
1956
1169
bd16
09f5
9911
c9da
f677
64c4
189b
3ea8
ff3a
2963
e16d
f77d
a832
4936
fcd1
5e94
c363
3a95
8642
7143
f49c
6f46
1f5f
403b
1919
38ee
35b2
9e7b
c379
e9c1
3e65
690d
ff5b
fb16
c1fa
c7e6
9cad
6f10
be85
04aa
a9ec
6394
6a59
6cba
f4e5
a2aa
ebed
74ef
634d
600c
65de
e6c0
8122
30a3
fc46
273a
6e0b
65f4
432d
c368
25ed
e7ea
d88d
e0f4
3fe8
1cc9
f68f
51da
5577
25b6
6f1d
b9b7
ab59
cd66
cd49
b88f
c6fb
70f6
e415
6242
07d1
b0cf
866a
0346
f0ef
a5f6
e467
c529
8bbb
0eac
2712
f7cd
8d9a
87b3
922e
5ab8
cd0a
13b6
6a7f
8987
325f
e381
f2cf
2df6
7d6b
ec8f
5df4
25a1
c269
227d
4beb
3286
fe9b
1b9d
3ceb
3cec
1d7e
de18
93d4
18f1
bc5b
95a9
0867
ff1e
03b1
1399
e75f
e0d3
2977
1460
156a
b367
ad6c
453a
7fbc
11ad
e146
5170
27c8
8859
ffb3
6f97
9e98
6c10
7fdf
fadd
1153
9f54
25c6
4a40
1a89
139d
0c8d
1a95
3a1f
2439
f7fc
67f4
4906
99eb
ece7
e81b
9ada
b23f
7df6
80a4
ca1c
019d
36d2
02bf
c88d
be97
2511
d6d8
55d4
6128
fd87
5caf
8cea
1f2a
87da
ad7f
f2b3
3a92
8048
427f
d354
fbf0
f89c
4c9e
6d09
a29c
ddf8
bacc
c4eb
8702
a00c
3f1d
bcca
31f3
9197
8c02
1a9e
c5d8
86af
187d
356d
3e3d
6f3a
6ebe
44cb
6f71
cd20
361f
4193
445a
6996
5fcb
1f62
d073
1f64
062a
e1b6
2618
8459
fb02
f9cd
c460
2651
f1f0
eb5f
3af8
a242
26e8
c187
4d71
cacd
6948
2c2c
850d
8c2d
effd
1293
9048
f00f
18b5
c3ff
93f9
68e6
6e0f
44be
27eb
27ad
f8fb
3a05
5b48
d53d
ed7b
ec4e
2093
c747
1cf8
2c7c
3459
456b
4e05
60ba
7c26
965f
c4da
22d7
4f04
0f78
ae40
c80e
8139
a178
5277
904f
f2a2
8576
e19f
cbff
eecf
f5bd
501a
e7d9
f5d9
62c4
cc53
270b
7df2
aabb
7433
c1a4
e433
67ea
4c55
d7b5
d69c
6559
ac95
cf7e
db70
8bae
2e5c
8fb2
3e91
ee97
de31
da02
a005
df4f
49ca
237a
65f1
60f4
b9b9
1d52
df8b
4a42
f081
24da
308a
869e
6de7
189f
eced
4ec6
f6fc
2482
2318
cac9
c3cb
83bb
48f3
9ba9
8739
07ef
eef3
4dda
7fae
caff
6d3b
b12b
4787
a8bb
65cb
20a1
5d14
f245
18cd
7e7c
fd38
9fd2
f0a6
d523
850a
34a8
93eb
9a32
25c1
8766
1ff1
3648
2371
ddfc
df58
ee94
7aa7
11ea
fd4f
e98a
df2a
aa95
18c7
900a
eaae
e922
1482
9395
b793
a9a1
491a
6585
cffd
9ca6
7ac4
615b
f61c
4ba7
8904
b4fd
28d2
c829
377a
5728
5697
e054
fe95
f7f5
57fc
f5f1
0488
b95c
d3a2
feb2
b561
025b
93df
fad2
49f5
5459
aa74
14c6
f27a
af06
cf1f
4506
a55e
c720
0bfd
d7f7
a9e6
7f2c
572b
b330
ee49
c0bd
b9c9
3d6b
15b5
6aa8
c60e
2c1b
683b
723f
8a8f
e986
bf77
f0ed
7c5a
e1f0
f4ce
7bc8
fa57
5aa2
4743
30dd
264f
a176
ff91
08a3
c853
46fd
dce9
2e2c
6f4c
08de
f5db
c2ef
4fe2
b09d
5f4f
1515
52f5
3b84
1c92
eaa3
1749
fdb0
43d5
26ab
023e
69e4
0e74
79f9
2c6d
cafd
e131
ebe9
adfb
d8c4
fd7b
740b
82b8
52c7
d3fa
af0d
a44e
4a16
c318
a4a5
e2c4
93c5
edf0
ffc6
6e3f
e4e5
7d87
bfc7
07dd
3f75
550a
1752
c955
2c79
fe99
a426
8bfb
e46e
0e2e
26d1
629a
93a2
0b9a
10f4
546b
17bb
3d76
ed2d
4b0f
e915
6126
9652
cf04
e369
3cb8
6b37
7f75
c298
456d
6d4e
c308
e724
4107
80ec
b3e2
c5a0
5f48
18bc
5c9a
8128
9b9b
c41f
cd8c
d7de
ed8c
786c
2366
e748
a8fa
4547
97de
fd0d
a32d
1c05
2aac
df07
c9ab
faee
6a2c
4f1f
2e13
6cfa
9e5e
952b
9606
07e2
bc67
5808
7664
aace
1470
7081
bf37
315d
7119
e490
32c5
8b85
8fcf
55eb
4f67
a08f
a78c
9ea3
52ac
ada3
d248
eb7e
e71a
d6f0
c1f5
6459
14df
5093
c771
8b9e
c048
2a6a
dc05
e6da
e3d2
0fcc
3d27
5047
9163
654c
33fc
1f03
e09d
bc9b
9596
2cbc
ca14
36ee
a758
a0bd
1366
3efa
a98d
e5f7
bae4
5a68
edfc
f05a
141d
c3df
2eb6
ee1b
8902
c74d
7afd
e785
e647
c3bf
bcab
69fa
6bcd
d5e3
6a62
1e3d
3fb0
5ff1
f23b
029e
63a1
3356
a2ff
d1e2
a4a6
fa08
e228
825f
3d7a
864d
93e4
5a5b
a83e
bef7
44e2
2427
bdaa
17d7
f1e3
38c0
20f3
eb2b
aac5
ec5e
fd15
4b2c
5744
25bc
3554
ecbd
5bd0
fdbf
f78a
9645
4f84
becf
6b6d
2087
1f88
e032
cb34
76a7
e2f7
07d3
3d5c
bdcf
cf14
6911
bafc
62ee
a7fe
df32
0e32
5a24
6448
4ff1
cb4d
d623
b647
a435
20b0
4351
a3c0
5a0d
ea9e
66bd
07fb
20b6
cac3
eb1d
4ffb
7b3e
1831
2ba6
c8cd
85cf
ca43
86ad
a107
7f3f
2bfa
abc0
d059
dbbe
ebbf
151a
f3ef
dd71
c9fa
f3a4
653c
196a
5a43
7e10
98bc
c5da
dc7e
f885
2309
4c72
bae6
5064
fcb8
c772
45c9
ad4b
2af5
2508
e0dd
52d0
52d5
7825
7ebd
8809
bfbe
b4d6
93cf
59d4
6938
bf3e
e726
f67d
7d5f
65dd
fed7
8bfe
cc32
a9bf
e6a6
17a0
ada1
775c
6f87
c6fa
32bf
281b
8322
8e4e
abaf
1fc8
8055
a0bb
da97
378f
4c9c
20ec
f724
91f9
d4d0
6977
a9af
2326
2339
9a30
ab98
ec76
1d1c
508a
3efb
23fd
4ef0
02b9
f233
78e7
45cb
7f41
c777
ef05
c9c0
f21d
2838
743f
c45e
fce6
7161
d1e9
4489
a282
d2c0
87fc
7bef
eeb3
ea6c
8349
0cce
029b
2dc5
fecb
2444
bcd5
04e8
11be
ba94
6311
bed0
edb6
d8c0
cf8b
cde0
97ac
99ba
d6f4
6d77
bd32
27c1
bfed
5a03
b50d
e37f
ec84
fcce
a6ae
88e7
4bfe
f8c2
9c06
de0a
d2e7
d27d
b9b6
4cf2
fe58
6814
f547
ae7e
c0b8
8d82
e9d6
3e32
8486
a79a
072a
f3fd
e093
19ea
0d6f
7a2e
6ff2
98d9
3527
1f15
e71d
0b6b
f88f
0781
d582
5ebf
0276
4d7d
995e
c7d3
cfe9
30eb
40bc
93f4
2d84
3b87
7a4e
7e7f
564f
c681
83b1
3df6
ce25
e87d
e045
64f7
58f7
9cf8
a47a
5771
8a66
d3a3
cdf3
30f7
8e85
364e
a4f7
c29d
9281
5171
b429
4a5f
0d27
610a
9103
83ce
93e7
aed9
d23d
d5a3
57b5
771e
783d
b6b0
9157
b377
c7f8
be83
7778
38cf
c093
1db0
450f
b4a6
e42c
82b1
dbee
bf5a
308c
2414
b347
29fd
02a9
2384
47fe
8f87
80e3
cabb
c161
cd43
d57a
37ff
b7fc
5ef1
7f44
192c
ca0a
e51b
037e
8d15
e11c
63c8
d2d4
69cc
622b
5599
8611
e4d4
4026
5224
2cb8
03ea
86ff
2274
97e2
c572
276c
e1be
b8e1
066f
f4ad
735d
e094
2c44
b621
bc57
8ca1
aa84
eeb6
d987
b776
9b51
4959
5505
be35
2346
ebc0
7ce4
5c69
0c7d
0c39
20ba
5914
d273
f0f7
5663
e463
1a61
bc7d
cc99
8334
77eb
2f08
98f6
6cce
7afc
32a3
d2d2
8549
6129
51df
f0f1
9965
9ffa
e6d7
096c
dff3
208b
4a48
059c
03bf
2b59
b9ff
7abd
0d65
8810
e189
2f2d
3a6a
c730
8175
58eb
4a15
148e
f2cc
7dc7
6b5f
abf2
fae7
4f7e
ae16
d75e
db81
59b3
59ad
9e3e
992b
b737
5270
6451
3d46
b7f5
bf2f
38dd
b5f9
68fe
c82c
6c8a
ec7e
72bd
b8d6
8562
ff48
45eb
544f
32cb
a393
4f6b
3fb9
1291
c846
1f07
231f
1d55
8774
5564
358d
71ff
5d1f
217e
23e7
f0a7
ff6a
db66
f84c
c57b
c6e1
23bf
937f
1d9b
c7fb
f997
2802
263d
ad55
a7cf
da5d
5e22
03be
1208
30f1
0d3e
6252
3beb
ad14
a78f
46b4
a4b6
89f1
673b
7938
14cd
a79f
9ca0
3a91
f44a
e5d7
5603
070b
5029
a865
6342
92fe
fa81
2cfe
f2f4
2f97
a9a7
e503
5ebe
bf85
f406
c5cb
f02b
c88c
81ef
0553
d5a6
3169
ddda
fd70
fcb0
24eb
7771
7cf3
8ecc
11f9
21f9
843f
cde4
2fd4
7571
7ef2
f9d9
51d4
ea86
7fbe
9372
3bea
c858
8086
d0dd
22fb
b7d6
af21
aedf
a1c5
dbfe
ae14
fe05
f9fb
11c5
50a4
741a
d1d4
fcef
cef6
5f4e
3be8
89cb
ecf1
8ee7
ff20
b542
e2a6
8c81
5768
a36f
41ef
e14b
7173
9776
b757
fee4
9a0b
f403
23a7
227b
389a
7532
1c75
2ff0
b30f
879f
641f
be41
a622
21b1
2788
8852
885c
f8fe
76ea
212d
eecc
08bf
11c8
228c
2e24
cf24
f5d7
261b
e60a
54de
9b28
ab43
0698
512a
1496
8326
c92b
4422
e405
8eef
7a35
8c8c
3682
513f
17f7
e2e3
baa4
bae3
1be3
71c6
38a2
f8f6
e597
576b
ae21
b987
ea85
c4bd
1896
a7ee
1441
f9bf
fb43
d6a5
28f6
8b6d
571d
fe4e
46a6
91f5
4aa9
e69b
97ea
69ef
034e
e797
782c
63f6
cfe7
1262
176a
8d6b
8a65
3a4f
6949
7e1c
aaec
ba36
c147
41ae
63bd
10c9
e861
3d70
380f
ded5
727a
6f1c
f002
8637
76e2
fce0
3a77
ca36
6edf
d78c
86c6
b7f6
1cd1
9038
a475
13bf
837e
5724
59b0
8031
394a
4d0f
d8f7
2bd9
41b7
3883
58bb
10e0
f183
e496
825e
1511
9afc
f49e
8771
7aea
a163
986b
7fb8
8fd8
0299
f7ab
db08
9e9f
f0bc
22cf
055e
30bc
8736
40cf
8327
2718
9c37
fad7
c144
d424
339e
d7c2
d79f
0f04
88b5
64c8
1855
7dc9
b9af
959b
6027
4496
6788
7fcc
4760
1a62
4216
f2d1
d7e6
cff8
e9bc
1649
ea46
c81c
a54b
b746
bc48
1f91
ac69
b520
f71a
a10d
82b7
2704
62d4
0ad4
ebf5
089d
f163
09f0
155f
97f7
7d9f
4360
d0eb
3cf3
032a
2a6e
2516
9677
45e6
8b78
b6b7
65a8
3348
2af0
433e
31d7
7371
8d56
875d
292f
aa37
3d05
9770
d9f5
2199
57cc
6916
e97b
a274
c89b
fcc7
caa6
5012
fb3d
fcc3
5991
e5e8
15d8
ecde
517d
6f58
f0fd
4e46
2412
3ff7
3e4a
dd07
319d
71b6
5405
30ca
aa4e
d5cd
ce42
e94a
8634
71e2
575a
9b87
9ea6
da6f
900b
5315
ac0b
86fa
7a78
140b
2269
d9b7
ea7f
02c5
f25e
839e
b8e6
09e5
25c8
8742
abb2
fa68
880f
043c
d13e
de52
0d23
754d
acdc
22e2
2fd6
fe25
0fd5
32b7
49a9
4864
0f85
a83b
de07
b3b3
0931
815e
f481
239d
3c82
2418
eff5
fd7a
76fa
513d
a4b1
e899
3a3f
fe0a
a3ec
a989
92c2
6df1
d7a4
10c6
1986
3581
0e8d
3952
f823
0b7c
c578
f1a3
73f9
17b1
bda5
8906
d9ed
915c
8503
3ef9
571c
fe37
1eef
4921
8eee
add5
0ded
ebfa
909f
5a25
b777
b7c4
0829
0efc
9453
ee77
f16e
9318
81ff
ddc5
c7ae
7bad
efd1
a544
048a
e6ee
6edd
85d9
bd7e
d712
f7a1
28ca
0c5d
d8ea
2877
da4f
5a87
c91e
e3fc
57a1
e5e6
1cd0
bd3c
763e
e7a7
7de3
0953
722a
5f2c
cb64
8b08
3c53
8e92
3528
3fd9
bcf7
43be
f7b2
4b59
eaec
323e
5d2e
d666
6376
1a86
fc6b
aa5e
53f0
80ce
3a46
ae73
1f37
e4be
f372
4bc5
7eef
fad3
050b
07df
f191
7cf0
045d
d2b4
0f76
29da
391a
992c
9fb5
affc
b941
1866
3985
b9fd
64b7
19a6
5551
55a4
3860
274b
1344
37df
f947
56f5
53cb
97fb
aae4
4a62
3b7b
c6ec
07d2
db86
f4ff
a45b
13d4
209e
5bf4
5b9b
1ebc
872c
873b
4e1c
d515
f6a2
81b3
b4eb
5583
1d48
8f38
e70e
e47d
eba3
d0f2
5218
c40f
528d
8589
86ce
e3e7
ba68
1b7b
69bf
99a4
956d
8d45
b6f5
d42b
c302
30cb
294c
7db8
b158
f43f
d853
30ef
2a08
cddb
57c0
6fc4
0bae
98c9
cbd1
e34f
6a47
3f79
8b4b
9785
063a
5b95
6d21
4318
4878
ddf0
d798
bfa1
f0cf
4955
f992
5037
3ace
6afc
d724
ffbc
81c1
d294
ca81
44ae
a2e0
a3c7
3e79
6eb9
a7bd
1aa4
253b
d709
b64d
2c83
4169
8a60
95ae
f72c
71a6
a392
bd92
986a
799a
73b5
53a7
3db2
0c60
5cd9
9115
2973
8361
b33f
049a
ede3
c8e3
f361
7f10
f3c0
ebf1
a03e
0f3e
3fde
4415
8676
81bd
d3e9
195f
5cf9
43b8
9877
7b94
9b6f
e013
2c8b
be1f
56b1
41ce
ff9d
f873
6123
e0ff
2d47
26b1
9611
507d
a787
08cb
6c8c
959c
6102
8244
837f
e276
596e
1427
22f1
8396
ae62
7015
a105
d1a3
73f5
18ca
1d8d
f79b
c5ff
8a25
bf25
9c0c
fe1e
a40f
7bfd
6f2b
403a
fadb
02a4
fd9a
0f74
fabd
8c6e
f84d
183e
3c05
d67d
b1b1
91e1
cacf
a586
aa43
8a4d
4620
95f6
cd61
2b3f
9e8e
ba8b
c987
37f1
67dd
b920
cf7a
825a
484d
4223
26a7
a7e4
7f08
7e90
021d
58b5
02aa
1488
94e1
d4c0
975a
d983
068e
467e
4de7
ee44
e4ef
1da1
9cd4
d1cd
a8f8
cba6
15cb
4d21
9827
8772
dbaf
bd1a
bc8a
13ff
6282
2957
ecb5
7dbd
7e6c
8b7f
8cbc
11a7
1277
4a6f
4ebc
9c2a
b676
a527
a96d
83df
3784
e0a8
0e73
fa91
852c
e6ef
8146
f797
4bd1
fae2
61d6
fbe7
5a57
7d47
5f3e
bad8
f446
e206
823c
e911
b10f
18f4
b36f
8a30
ecf7
52dc
4e2f
6d39
53c4
a3ff
4902
accf
5ceb
e7f7
405b
899f
2342
12cb
626b
1a4b
4224
ad35
03ac
61b7
73e9
59a7
d843
aaca
81f7
20da
3ebd
5131
f3f6
c7be
c6af
81d2
ed68
dc22
8ac1
1668
69df
f9f5
b6f0
3e52
ae81
021b
7b68
4c3f
118e
f14f
6471
fd76
58e9
199d
5ca5
534b
8f8c
0b9b
1beb
d321
e03e
b157
295d
cb13
7016
1a14
7346
ec0c
819f
f3fc
be6f
fc47
59eb
9ac8
eb7f
5a51
7e7b
7731
dad7
b294
93fd
fbec
dabd
9035
877b
5111
44af
acaa
bee0
67b9
44a8
7b5b
8f9c
354a
eeb0
0484
e687
02ce
b43b
5da5
ec6d
fe48
b4b6
97ed
85a2
65ce
8d75
5196
7077
40e8
e9bf
8287
ab03
2a04
be2c
3e95
caf2
1360
ae6c
95d5
97dc
fd5d
9544
25ba
fe45
ab97
85f3
db6d
3aa5
76bd
c755
d0fc
3892
1f9f
051d
15f8
a23f
919a
6846
0b98
2b87
a898
fca1
2554
4ea5
b693
f2f8
c7c0
380c
3625
56fe
b108
8ea1
b546
0385
f7c7
c5eb
0c18
3f3b
fdf2
fda7
b9cf
ff3c
43a8
7df1
9bd1
9fec
19f3
471f
dc2c
81e8
f0f6
3d4c
7d8f
858a
c1e7
c127
3bcc
86f4
819d
eda2
2311
f6c0
962c
bd97
690f
e058
856b
5c1e
5f45
5655
41d9
e7ce
d7fa
e66b
d66f
d387
30b1
99cf
252d
c823
9588
6452
ab7d
fced
7cc2
9594
c59b
7662
9844
29df
c91f
03f4
a477
63ad
2986
ae74
c1e4
a11e
7271
bd04
ddcf
382b
3669
f34d
6ffa
2452
8bcf
3222
4f78
308e
c6df
b6a4
64b3
335f
8da0
10b6
45a6
794a
54e3
f3bf
e974
892d
c7df
06b0
36cf
82a5
39b3
115c
e4eb
1793
1f05
2835
3dde
3d3c
e7b7
f0c1
aeed
1e7d
207e
ac4e
ff6d
6785
863f
4ce6
45e9
252b
287a
3bdd
16fb
f27b
e767
1cb0
b5d5
faa9
7fb6
39ad
4322
5559
dc88
b69c
517b
b3f7
0ec9
fd2b
9739
da13
93c9
7d53
d79b
47b6
b7ef
ffd2
ca6c
0cb0
123d
48f1
9b5c
0b62
70b3
b5d0
43eb
875b
e0a5
994d
bab8
de16
9285
5d74
60c4
caa4
9a57
9927
eefd
8649
d70d
d637
cf44
192f
c57f
e2fc
3d5b
d7c9
2367
84b5
5097
7ef0
783c
340e
e8cc
bed3
5863
ea42
5013
b70c
ee18
265e
30f8
7f9f
4ca6
da6d
fbdb
46b1
b60d
fdaf
e7f9
a602
f170
10d4
6229
9445
733e
2115
7757
60b5
ce79
ee8e
1491
62f6
e79e
cbb7
89fe
bdbe
ee3f
fb3b
1354
6651
b2d9
ebfb
7823
d16b
f190
f489
5684
8186
1170
7103
8388
acad
7a82
055d
cdd5
5451
d2a7
fe77
de9f
9b0e
db43
b68b
22b8
4392
1d9c
aff6
400f
09fd
f1ef
3308
23d6
83ec
2b5a
e9a9
fca3
6ae7
b5e1
e03a
483c
579f
5507
83fe
fdc7
570d
99e7
9837
3181
3618
51eb
d4a1
5292
1cf1
250f
ca09
38bd
ffa5
1fa6
85d8
e204
28e0
3875
037f
a3fb
486a
3ed5
c2c9
1ca9
4ea7
c46b
b34a
b01d
5725
0356
4179
f495
82f4
f704
3b74
7fa7
5d24
abb9
0c15
fb30
03e9
7622
c488
62cf
c8b8
1f6c
3e14
77bf
8472
d3bf
cba3
d5b4
b348
aa70
aedb
f33f
5476
32a1
5df0
5dfe
d7ea
a068
1b48
2808
ce1d
1dc5
da32
5466
d97d
cf4c
2ff8
b1e3
9159
f2fd
7afe
9a0d
f88e
b6a2
c20f
119e
f18c
c381
23f1
a3d8
b8ff
5a4f
0c8c
0c2c
02ac
fc31
b223
defb
ea7c
6107
64eb
a32c
091d
de1b
7352
cdf8
b5f3
fe2c
56dd
b185
bdb4
fcea
a67a
d7e5
3748
ff68
6411
7af5
20ab
0ce0
d046
e9a8
bf86
bf87
8f68
2410
2995
410d
e1d8
fd36
1bf3
5fda
afde
ef02
3c56
7339
be99
cddd
37e7
0b6f
342f
5782
cf9b
bea6
1e68
2e4e
3c3c
ed7a
cc77
cd2c
5e30
eff0
fa1e
54e6
73d2
bce0
0f88
7af6
b56a
4dce
ea6d
3b65
e02d
1ffb
ae7f
c738
a11c
837a
de71
e5e7
9668
1f6a
893b
03ef
365b
a226
9307
a37f
5b87
e474
8c67
3a70
ce7f
f05e
a56b
b46d
5d64
9f45
cf78
5c5e
85a7
04e7
5952
86fc
d625
4c3e
a1f2
cd13
f5fc
22ea
925d
1bff
b55a
ec2f
f630
86c3
17ec
f92c
1789
2392
83d5
1887
a6c5
35ab
3559
65ca
878f
238a
ddcd
28c5
b5db
1094
cf53
d9f1
7071
8f5f
fac0
b62c
3352
5e20
5fde
67e7
30fd
6eec
972e
d9f3
e5e5
b9f7
81f9
5d02
1416
7dee
cd6e
ce66
770a
42ae
6683
f137
e774
c526
9fb7
fec0
95a3
7f1d
05c5
0c4b
a438
ffa9
5c73
4463
7989
269e
6dee
6bf4
a0cf
e0ed
db05
b49c
316b
4fda
b787
7b07
5874
416b
3f23
9a33
6b98
ac34
c33e
828a
782b
fe29
67b8
b6fc
328e
c3c0
b2a5
816d
1228
3d79
e311
740f
b7f7
1cda
493f
578c
60d6
8e06
1257
7d57
3f28
fc78
2385
10cf
3a39
7514
edd7
eb3e
23c6
2db4
7bf5
76fc
02f7
410c
e39e
55da
733f
b16e
65f0
560d
1113
e1df
4f86
cead
2e27
644e
fc79
a632
7253
e396
0fa2
bf1f
a522
9e25
9154
6fe8
ece0
c418
455b
8da3
77fb
db9c
c4de
25b1
6c38
e1f3
b7fe
f057
4f41
2b1f
9034
caab
067c
f1c0
e3e4
20ce
873c
55f4
6718
7d0c
413d
079c
3da5
5a9f
977b
bf7a
eb43
1786
5aea
6347
a3b4
5ead
3dbf
e6b3
9179
97c0
0c3d
2e4c
5d34
e55d
f1fe
dd95
8312
1390
f2d7
83f8
2b72
b7a6
20cd
8bca
7fc0
d07e
a1ee
dd47
a34c
d009
e319
91a0
3b7d
24a7
d2fc
8262
9bd9
f62c
1141
27e0
cfef
ebdb
28cc
cbe7
cbcb
8c83
fa9f
5b40
f5fe
13c7
30b6
3c81
c442
313f
8b81
6a2e
5076
18e5
bdb2
2e81
bfa0
4719
db7b
f3f7
f7f0
8dc5
9f5f
390c
e5dd
61eb
34c1
9beb
c0c4
8cbe
ec26
f61e
a276
d0b6
4015
727c
3349
90bc
f3b6
08fb
78fe
2ff9
5aac
bc7e
da5c
ff2e
ae6e
c845
571f
e6a2
a9c1
108f
b21e
b9f8
d715
979f
78eb
c323
09d8
fa7a
182b
5b33
0dc9
bfbd
406b
090d
1e38
c124
82a9
63b4
90a3
fead
dac8
0c1d
5106
dd5f
f9ef
b591
7535
d5f7
f788
859f
6ffd
ab79
b70f
b5be
362b
947d
8274
8ae1
2d48
a007
85b8
97e8
f230
f3ad
ed91
7fe4
e031
2944
b131
05a8
91e9
c4ca
ea8d
26ea
a375
7898
9b07
d443
5a9a
a71a
82a3
1f4a
6145
6d32
e849
7802
865f
43bf
9ef2
ed61
169f
1bac
ee9b
d364
3725
8c1a
ad85
035a
3d73
e9a6
3ca0
a5d4
59fe
dc8a
6623
5f0f
e489
3396
b52f
c81d
dcd9
e4a7
37f7
1bec
f8f2
30e0
7fe2
1cc1
8669
b66c
db2c
4947
17e6
93d9
45e0
fe64
1bb9
188c
f770
04d7
537a
aca8
ec5f
43f6
b3a2
2241
594a
caa5
74f1
07a5
fb55
20f2
866e
4c1c
2b22
9828
07be
8c9f
ae5d
a815
0732
da7d
14b5
45a9
9e60
3507
7037
6e16
c588
e77d
665d
41d4
72b8
b2c7
a3bb
70fd
6e25
eb4f
f518
0ac9
39e7
f972
ab2f
cc0a
fc2b
edf8
ad12
3ad5
939f
57c2
08e1
918f
b2ca
f2e0
7acc
6e27
f53e
1a96
0d8f
fe15
91ff
e407
c706
7ccd
4b64
3ad1
f74e
8733
e1b7
07f9
7326
1561
b3d2
979c
d882
693f
7ba7
ec9b
6945
d58b
6d08
20f8
7954
3f4d
1ef8
dc37
9651
9962
9f1e
d2ab
bdfa
b70d
4e26
7a26
1a19
18e0
be03
99dc
4d35
de3c
c28f
2985
b77b
72e5
fd77
1ee7
dea0
5a58
8526
d49f
6793
4f0d
d50e
3627
88aa
60a1
1577
1b66
07c8
2ccf
09a7
7168
16cf
a104
d4f8
aca0
1a31
cb2b
4ffd
891c
03c3
421b
2af7
fece
e48f
827b
27a5
bacb
c660
53b2
d852
3fe3
ecec
fa67
ed2c
3d8e
c808
eb0c
c1ea
c4e4
a287
695c
65fe
70b7
bd85
a4aa
838f
f38f
6756
5dc4
58e6
79ff
f622
8371
6d14
a086
f4a7
93ab
2758
2836
b9e6
7ceb
15b1
b598
294b
ea19
3a53
7b20
a88a
bcdc
b1c7
a494
2c46
b0fe
4cca
82a4
630c
5993
acb6
e36b
73c9
3f64
8e78
bc7f
e94e
febc
31ad
8142
f14b
a571
2715
e481
3f10
794c
93e8
8981
79e6
8d7a
46fc
56a3
a62f
17c2
8ee3
1412
2c4d
3a69
170f
f35b
7dc0
406d
c7dd
74b5
fdec
57f0
c09e
c96e
7f68
6bb6
55ce
e55e
ae8a
d94d
2671
d89c
fb90
b5e5
1e6c
a3f5
3cab
dcd1
ecef
8e77
5964
13ca
e35c
adff
5bf0
ccc0
546c
2d3f
5b4b
9fdf
e98f
3df7
b79b
3bfb
ffb6
f012
ce1a
a18b
8fc3
bce1
5e3c
c70f
fb47
31d9
2149
f8ef
a060
0394
64a9
edd4
9be7
3f3c
e23f
33bb
23f7
92ac
8799
e052
fe9d
450d
d1a7
22bc
4ceb
c97a
fe07
867b
b6f1
c3c8
0b48
b92e
d993
5eef
fb4f
0635
a14f
2184
ffdc
0298
d3c2
fd5f
2c53
bd5b
37fa
6ea8
5ac6
a52e
7e40
8c8a
81c0
d4b4
d89f
f8c0
6e9d
1419
d5fc
b4be
d4a7
2d10
95f0
f17f
9f85
977a
dfd5
7687
7096
bce3
ad23
4e07
fd8e
9992
4f21
9543
4e79
7cbf
867c
d6b2
71e4
edb7
47fc
7268
eb19
3d23
8328
9520
ad2c
3d48
6834
957d
fe1b
4115
8a5c
8a2c
acc5
d676
96de
e14c
9432
72cd
e3af
cb87
7504
7f3d
16df
18d6
8f77
e86f
6922
87b5
855b
1407
d405
3b9b
ffb1
3d8f
6715
ee9a
319b
73ff
c2bc
85c4
836f
255f
5a14
fc51
49e6
2a5d
703c
2547
2b05
5e5e
7ed0
2d07
1d5a
ac5e
7cf2
5842
098c
07d7
c637
2cec
5d47
5a41
7f78
fbc2
1a6e
cc61
d335
d68b
8493
e7af
f7cf
c7a0
4f31
7ae3
4e33
deda
d6e7
87fa
20a9
2cbd
7e6d
4fdc
9ff9
b558
2cea
6218
eef7
b20a
c20c
43bb
3ff2
8c29
b358
5f5e
bfe4
f5f4
1214
83f7
28e2
3b5c
a891
1981
326a
af1d
fb64
988e
73b2
ffab
ca31
97a7
30cd
1151
cbc9
9e61
e33f
22d2
7faf
7aa4
c08d
4725
d116
20fd
6cb2
99d3
6541
5efb
73bd
68eb
5a49
a60e
72bc
e328
505a
8cf9
a7e7
fbb3
4a66
a5b9
a3fd
dbc0
9a93
1162
d66e
9225
5316
07f3
f702
02dd
f2a6
a0eb
a958
dc77
6c7a
bebe
d13c
967a
39ff
fac5
8644
94f0
32df
1d2a
8160
3ab0
aeac
1687
327c
e356
93f6
09ae
99c9
6a52
99d0
e905
c6a3
3bd3
30ea
cccb
9cc8
0cf9
6a3d
af0f
66d6
b3d0
2da6
1198
449d
4426
08ad
6f32
c8f6
b00c
7c18
e078
fe3e
7488
edc6
4991
e320
aa2c
e0c5
fbdd
1897
a7bb
be7a
c988
cda9
90bb
a9a6
dc7d
fe13
94c5
e7f2
2095
4b2f
144e
41a9
cdf7
ad58
a0ac
3e81
1221
f5fd
0881
0b6c
994c
a5fe
53f1
38f6
5956
1fb8
12f7
e3ea
9443
7613
84a4
1276
ff1b
124f
d427
7226
97f2
7742
d8b4
d89b
9c84
9f28
07b0
a947
baf0
fe34
e6a0
c373
b7a9
f8cd
9bbf
a41e
8239
b2c8
97c2
cf97
dca0
1aec
f739
03ce
0bad
770d
2e14
c807
cdfc
ad91
4560
e023
9fd5
fbd7
217d
175d
9caa
8823
ae13
d143
378b
3574
7a62
9009
70de
7596
9e72
6eb7
9af5
1bfc
c990
ce0e
06f0
815c
518e
7fee
fe72
8e0a
c59a
c5d0
41ad
84e3
e5f5
1429
71a0
4405
8c60
0e6b
934e
904d
f4fb
db9a
ff51
30f6
81c6
2432
17ff
8811
5c8c
049e
c4f7
2fae
2163
80d7
c5fd
3658
e1af
10e4
3fb4
3087
35ae
c4c5
1266
d5f9
b1fa
e38e
c5ee
5d2a
ffb8
51dd
9428
10e1
0b67
150d
a5b7
66a6
f8f3
fb1a
3d78
8bde
f30e
adf8
7df3
d884
eac1
eb16
fb6d
596d
57de
bcf9
92d4
fdc0
c523
4e2b
d225
f24a
67b2
7bf8
8532
8f15
da39
e798
7576
85f1
4065
bd4c
75d7
8f9e
164a
2a06
a812
1a4f
1ea5
4e87
8bef
5b02
3ee7
7816
9286
d9e3
bea7
5524
fa6c
e940
7dad
db6f
1e69
f860
50bc
8c20
51c4
23cd
3891
ff92
b83f
268c
d371
37f6
8752
879e
f8d2
58d4
7341
2cc5
a57e
f949
412b
b63e
e1f9
f3fe
0511
5ed7
6e7a
fec5
59fc
6612
b6ff
a4fa
57f1
57ea
0893
ff59
39f4
ea84
6868
ee3e
660c
ca03
b72f
1624
d139
a577
5264
5042
0634
1771
33cf
1c87
6ef8
623a
7f79
b671
a29e
a3b6
4c86
a566
eb63
7f65
20dd
de05
8615
71ac
a1fb
84bb
4d92
8b5f
366e
7e29
1a63
3579
a649
9695
7225
dd7f
ec8e
a6bf
b684
8d5f
e5c9
e06e
fbbe
822c
7779
f73b
1658
c1c4
f4f9
df49
17d5
ff0a
e6b6
89e7
3ce1
7a20
5142
249b
0784
6b81
1664
2c14
a806
f99c
f63c
64f6
d3e6
8f16
dcc9
689f
5aa7
37f4
db5b
8c52
1411
c448
57d8
a4dd
fb54
2a37
857d
eaad
181b
1a26
8519
a6b2
511e
0dc7
b8a8
f8e4
5996
45a8
2ff3
48bc
4923
261f
29d4
1660
1e79
839d
b8cf
cad2
694f
e018
314b
0bf2
79f2
7d33
f8ba
03a5
34e1
1f69
480c
6c09
ecf5
f7dc
3fa8
5b1b
dd0e
fd8f
faf8
4a92
bc63
994e
babe
f935
e2b9
ff73
5d20
b031
1e1a
1721
6cfc
dc3f
a956
f516
36e8
02a8
32cf
d578
a4ef
f7ed
dd87
7bc7
6509
a407
0ca3
bd2b
b76e
0f3b
ac8e
8786
1ffa
92c6
78bd
be4e
f8bc
714f
e0f2
e70a
f833
fe7a
f9bc
c416
fce1
dd4f
443f
0e86
6a31
8a47
278a
ad39
ff33
3147
229c
5d76
6f7d
974d
0e85
4e5b
7e94
2bba
a54c
d63f
e19c
c3ce
2282
0cec
8444
572a
813b
07af
6897
196d
3cfe
8308
3973
f5a2
e468
b9cc
654a
f444
9519
ab7c
375f
abfa
c0c9
0828
545c
f47e
97cb
5f58
8f52
5e76
f7d7
89e2
3ea4
b564
1770
2fca
f3c5
65c6
a567
d970
ec7d
b476
e3df
b8aa
8fb3
4a43
6923
dd3e
56fc
d69e
b1f7
4456
d3f6
6b02
15e3
ff2d
87df
9c43
acb3
bcb6
6e37
eb9b
3b0d
58aa
19dc
8ebd
2e90
6d66
f55a
2658
f1fd
1884
dba2
0972
5864
b4e7
3277
d2cd
6f9f
7966
2d8a
ecbf
31f8
1475
54b8
12a4
d37d
7849
b219
e10e
7151
5132
8453
08b6
181d
226a
0b43
7b7f
ea07
5619
445f
e49f
3fc2
cbbf
f04d
c757
e973
d5bd
12f6
89e4
fd4c
41f7
a1c2
b1ac
2453
07fd
37c1
ce21
3c3a
3ddf
799c
abda
e0b5
9156
d1fd
8be7
5fa6
fc9d
f9e3
c9af
4c92
6c78
6b45
bd0c
b6e6
a25d
d38f
e79a
2d2f
3d21
51e0
18cb
7da8
f8e7
58cc
80bb
426a
f743
ca40
431e
ce1c
1172
7bc0
d44a
9ff4
dcfe
04da
225c
e370
2465
2544
077a
19ce
4f3a
f97d
71bc
7390
ff9c
621c
3519
498b
7e3f
1ee2
8ffb
d23e
08ff
90a6
4a3d
ce18
eafc
63c7
d207
f781
dbfb
abcd
2904
6828
0e14
8c4e
ad70
ed7f
fe1d
42f6
29be
263a
86df
f3fb
e8c0
40fb
2549
4cf8
5e40
5809
7245
f778
20af
3a74
5581
9365
2aa9
41e3
352b
ae6a
2914
8ff8
30fe
299e
eeb7
d6b5
d76b
b668
5a4e
b9fc
1d07
dba0
fea4
8e5f
5fdf
261c
f1f6
ebfc
fcec
6c9f
0e08
208f
b024
2927
3f3a
3599
ec79
e7d3
0bab
efed
a00f
1987
488c
b630
59a1
fe91
3b7a
5e44
7518
c65f
f3dd
1590
2173
6bc5
9fe1
f08a
05b7
2aa6
0f0a
93dc
78fc
5463
ca47
7d7c
9af7
cfbe
e6cc
cdfb
fc81
9e9d
0c7f
870e
867e
675c
7fcd
0ea9
682c
2933
cff7
b1ae
b4f5
b836
de74
d215
d03f
97ef
abfe
8ac0
3281
0cb1
e5d6
8663
5565
aa44
b5b0
29aa
9ae3
ad22
da67
3b7c
2491
0c25
eefb
e2e5
a387
ebf6
8bf2
0822
f549
ca33
8604
a486
9bf5
7e14
b020
ce4b
d63e
48b6
6cff
9ffb
d056
f821
19f9
2a13
3778
a5d5
e970
864f
81b5
94a6
add3
5df9
ad16
5221
a223
ff88
3497
505e
0c6c
f511
f6db
0ddf
37da
fdbc
72c6
12ca
375b
5a6b
0f45
4a7e
70ba
485e
c8ef
fd65
5232
4783
fe71
fcd7
2422
edee
c7c8
454b
8639
63a2
c253
6ca6
18d8
e3be
b0ef
1520
d630
c9f2
e5a7
c740
faab
135a
59fa
cddc
fb3e
b1b5
1290
18e9
07e9
8093
f5c1
072d
25ae
8481
d82c
1cdd
7b48
fb7a
b6cd
0fa5
1fad
eaf1
2411
2335
d1fa
8ce2
3a54
3569
e81f
1cfa
796b
464b
e62c
0dfc
a8ec
59b2
9e3f
9251
e7f1
587d
3fe0
3b26
b468
e614
fdf0
f8f4
1b2e
674c
effc
1792
22b7
b8e0
1c9f
b9e5
4eb1
fe28
4e20
b5fe
d7dc
24cf
a7f2
1fe6
3819
243c
f45d
e27e
6b28
8b6c
c2d0
9284
c7fc
5da4
488a
aeba
fbd5
e0aa
8758
88f4
359d
078c
b9f1
c539
da30
0fc4
dc46
f262
5644
10d6
1573
f9d5
b8e4
e89b
0c37
799e
8dd7
eef5
fc22
a614
d190
c4b2
fdab
0f99
aea4
e322
2bdf
9e07
e1e9
62ca
acd1
55a0
40d8
6a89
cc9a
d19f
1498
f2ec
2d5e
0668
f763
d46f
94bb
90ca
c9cf
acfa
01b4
fd95
880e
41f1
d14d
fda0
5803
7ef4
8023
eddf
f335
fc73
acf3
3e93
4c6d
2266
bdb8
92db
68a9
edfd
abe7
fe51
7a7c
cf7b
bfef
5a77
9a56
d543
1779
23ed
ddef
7051
daa6
666b
4e6a
69fd
943e
6fe2
8c71
85a8
c76e
674f
02af
425a
220a
d252
5855
308d
ff64
7e64
7f61
f220
c670
2308
d3ef
4d83
cd14
1712
25d8
dddb
5107
a39f
1b53
f8c7
30a5
3e4c
daf7
167a
34a6
72db
e8f3
9053
fab2
316a
e28b
a76a
c775
185b
f887
cb9a
c856
0d6c
b7dc
eafd
2d90
899d
cecd
3e24
8e8e
de12
d8d9
fe1c
b374
a747
4919
06c2
662a
17fc
5d0b
dbe9
0c75
1f7b
8e8d
92e7
9cb3
de5a
4d43
9745
4a95
f0b7
5667
7f88
f4db
f289
d8ec
6327
049f
16bf
2641
f7f3
b9a0
c227
f00a
bd8c
c8cf
1ecf
ae5c
8a32
9c9c
a418
d447
e843
fb72
8f23
9cd7
6552
373c
9b21
a01f
887f
5181
d1ad
6276
38fd
4ccc
86f1
4123
b176
637a
6592
1582
b865
178b
68f7
f7aa
1f31
177d
298f
89ce
c090
b09c
ec73
356c
0d67
082d
7a6e
9468
0c29
2f8f
3b4f
55d0
aaa0
adb0
de11
3148
365e
d4f0
1c52
cacb
06e9
a131
330a
a952
fec4
0e66
b76c
79d7
b727
c5b8
765d
2476
8ec0
b365
8f10
e7b9
bacd
396c
a16a
58de
ab8d
a0a3
0c7c
bedd
3472
fd84
dbc7
7ea0
800f
23ce
2d6b
8989
41ff
7181
d83e
d839
03bc
0259
91cb
c052
d96c
4c22
b0d8
047e
31eb
e108
8351
e891
9ce3
1218
0b8d
a7f3
49e9
9a36
ff1d
f73a
b132
0ceb
cfd1
e8da
d648
735b
f285
e981
f544
871e
1ff6
787a
5d9c
ded6
3bb4
716f
ac7c
76df
9351
c898
3fd2
35a1
0e53
fc68
78be
9789
e1fb
ddb1
8dcc
f32d
5729
f80d
717f
78fa
e262
880a
c71e
06d7
9472
4fa3
ece9
6acb
7170
8575
1149
14b6
c3fa
bd5e
5ba9
b0a8
bf20
ffb2
7fe7
a014
5e14
65bf
34aa
33e6
c7f0
7d6e
ae20
b4c1
d47d
f2d2
a502
ca3b
a67e
1799
f2cd
20d3
7f4a
f877
3b18
fa25
ee2e
e034
d516
b1ca
72a8
fd81
5396
8882
bca3
d5d6
7344
4f3c
ff0e
a113
e9d3
fcaf
ad6f
c9bf
629b
fce8
95ee
ad15
b034
fdcf
ae5f
9f18
0c21
18d7
feba
0279
75c7
f167
6349
dbb4
d324
678e
1898
bdfd
3592
5545
1504
56d3
29c1
faef
7f1f
bf4f
631b
f339
db37
54c6
b7a4
2c0a
25d0
b57b
81dd
c3fc
f991
384d
6a0a
71ab
d8f9
6be7
30e6
fb23
5c9c
817f
8392
6704
7bd4
f032
197a
9a8c
c140
247d
1fef
ea54
fe6a
9843
1879
ad79
f5ac
33da
b3d5
07e3
4895
e8b4
4a37
4cb0
5ffb
8ff2
a737
2197
77f8
2f1d
26e1
3791
095e
6f2c
3814
fe9a
039e
04e9
f4c9
d4e4
294e
3118
6da3
e9de
71af
2145
e3bd
5759
30e8
df54
2089
fbbd
f063
9a2d
cb7e
fe8c
04c5
711c
db93
3f59
fc48
d4be
2a73
eb6f
ea3c
e6fd
e7fa
49f2
f41f
924f
b4d8
73e6
b7d1
19aa
8a14
261d
0295
2bf7
4091
f888
7fa2
401c
3f34
65c1
5b8b
ca52
8960
fa13
7190
3477
ffae
69ff
10e7
4fe7
4a51
bede
b73c
6371
4208
aba5
3b2e
f08d
3248
bafb
3391
f2bf
77ee
803f
bf8f
cd7b
94ca
2281
b821
0842
d4c9
13f0
3b9a
fbe2
0f02
5440
4fba
66bc
f1c2
b1dd
07c7
28f4
b7cf
e8cf
ecfb
18c5
1d88
90c1
2f2c
2ff7
899e
9339
03c9
911f
d3d7
79e1
dec2
a548
1ee5
2d05
792b
8123
5398
2724
883e
a63d
fb21
03e7
7623
41fa
d0c8
3f3d
66ab
a123
5392
6fc3
209b
d9ef
4c52
bf11
0b09
819c
6258
ad9e
fea0
9f16
1b75
3575
6e34
1682
d454
f7e1
d7a2
db1f
e848
7aaf
a949
e9d7
53d2
33bd
69af
1d21
504d
5529
e264
2db5
d73f
6109
d6cd
fd83
59cc
da8f
2bfe
0549
9014
e4d1
a373
18af
68e3
80d4
a95d
5088
8933
81b0
64b1
b759
efee
1f29
41da
3ea3
55a3
8ea6
0660
2afd
fe9e
e63c
3456
a2f6
2dfd
6bb5
5cda
9235
4fdd
5e3b
643c
a2e3
3f5e
b0a1
3e13
add7
054f
150a
3570
692a
b7b5
de39
22b5
7956
c95a
621b
631a
be48
bdbf
40ab
226c
cd1e
6447
9f35
fc7a
c6d7
c6c5
875f
6fd4
60eb
4c84
a84e
3c3e
6e4a
38e8
f053
8161
ed60
35bf
9148
e39f
ebf2
cf6b
770c
86b2
8131
52fc
85b6
7351
67ce
20a5
a0a0
9816
e06c
47be
b677
44ff
90e4
aa46
816f
38df
3fdd
473f
5d30
fbe9
8910
fc8e
319a
f3db
fda1
38e3
0c22
872e
8249
d785
f5ce
037b
a4d2
3fe4
d1fb
53f4
fb96
bf72
ece3
873e
cff0
0dee
fb2c
4a4f
1d3d
7698
5059
3de7
adf1
bf12
240b
e4e6
d2a8
3df3
08fc
4ec0
7c8e
a6af
1397
1dce
f8c9
ac81
9a67
3d6f
874a
9833
b278
bde9
b783
8c31
e212
6219
0849
bc7c
169b
88ef
205d
70f7
9fc8
eb1a
e81c
1524
dafa
db8f
ed0c
fa7e
3651
66f4
0c5a
3e56
8e46
036c
fd6b
bc42
83e2
efd0
a19a
a043
a835
164f
64b2
d3e5
5df3
4046
1ccf
682b
a82e
fcdb
02b3
87fe
bee8
fd68
ecce
8df1
7b77
f8a6
ce4e
feda
248d
82c7
bd07
87f7
f0c3
073a
787b
3153
cfab
2ffa
891b
c9db
63fb
e3e6
1341
e440
d014
1833
3aa0
4e16
da3f
91dc
e26e
174a
ae1c
16f6
7694
c1e8
02c8
f9ec
85e3
4ff3
6928
971c
4376
3f87
5cc1
2581
4022
6006
190f
a0bf
f63d
b4ba
e9d1
d326
7413
e60d
13fb
6de1
1d86
f758
3eef
45ad
2577
5a4a
2e95
d677
c2dd
6a92
c5c5
061a
f7f2
6555
645e
d786
3c76
2a9e
eab3
63fa
e27b
6d71
dfd2
6acf
a5f0
3972
2844
0e49
0297
84bf
ce36
2567
2d12
d085
0c8e
3c7c
b9ba
e1ee
449c
12c3
2b63
3d0a
5efd
c949
73ba
c252
a5d6
c92c
6186
ae07
d444
ff86
fa97
8d2d
eb6d
435a
d8eb
a877
60fc
5acc
e714
4176
b75f
9bcd
0834
4122
e175
9b32
2958
4c08
e93c
e6df
93bb
dd9c
810b
dc0b
53fb
a2a6
e7cb
bef1
dfb7
58c5
183c
7b8f
9fba
d111
989c
1acf
5464
8d3e
cf85
ea8c
ddcc
78f0
f9cc
2527
78d8
b55f
f177
91e5
d4df
e7c7
2f87
3bee
cb5f
f9e9
500d
e58f
748b
1124
32ff
8757
baef
d064
e486
628a
fbf9
e0b1
7ca3
3aa2
fb6b
d867
f212
4413
0d39
6ffc
f4f1
3c5f
ff6e
1fce
bd89
efc5
f53d
147f
7882
fc86
444e
04c8
16a5
c7f7
fc5f
1b22
2c70
2195
a7f8
ff60
be47
b6e4
140d
cf1e
e36f
f41d
413a
e436
23dd
7092
4c74
8039
4157
f8ec
2cb6
e591
400d
2f3c
c947
fcd9
da5a
4c62
d52c
f541
0b8f
1a8f
d33a
2472
72be
63ae
e256
38ad
7bc1
dce7
5c5f
6af9
bace
e94f
4190
a1c6
218b
e3cf
6792
f047
7734
d97f
e095
2440
0241
06e3
06d3
99e6
d91b
21c7
7bf4
aab2
0862
f045
a73d
82ec
ee35
e4ff
3d87
67d2
2c5e
8cdf
ce5e
acff
f762
0921
f4f6
d3b5
2bec
5bf3
1c7a
fcdf
86ef
842f
adef
6f1f
e218
4fdb
6941
951c
b7da
238e
b7f8
4ec1
1ad4
9081
7a79
03cf
74b3
35b3
9ad6
9acd
1d2b
9f42
393e
2475
89a2
5447
4f62
5d15
ded9
8406
18c6
fd07
2b0b
a0a2
4ed6
078e
298a
c64e
5051
f9ac
7ca6
6ba3
fbd6
316d
3e0b
cef7
d31f
4685
3b02
fcc0
506d
78b7
37ee
f364
9c7a
814d
f1db
90ab
2c6b
451b
03db
f2e2
1f2c
df21
122b
2dd8
cdd9
31c1
868f
2dec
ab18
c925
91d6
3dc0
fb93
4cc6
fa74
786e
3f6d
6d41
8faf
7af2
1826
f56a
f9d7
a457
2b9f
28cf
3fe1
da5b
e532
ed1d
d348
ac4a
bd7f
b687
f4d9
6d97
3ccd
7744
f8e9
3ce7
9bbe
2557
2928
b9fe
d434
f356
2c71
d53c
36db
8283
0b88
9531
62a3
eae1
5ae6
4e22
6cd8
7b0f
83c6
f3a7
98e8
3ca6
a7df
41cb
81a9
3377
366d
5169
0eb5
9a0c
06e4
26ca
bde1
05f9
e1e1
c30e
83be
0fcb
b9ec
4cee
5462
86dd
81c4
7193
9125
3fec
1844
3c7a
f67e
440e
dccf
f26f
b93b
7484
56a6
2459
82e0
5cd8
aca9
c5a4
c5f3
ff38
a15b
2471
f355
fe62
371f
f8aa
1a28
5f4c
18b0
a8cb
7526
1b25
cc6c
c5ae
f57f
f373
f522
d36a
55b5
7806
e505
d682
e6e2
473b
818d
8d81
4754
efc7
8f85
bcb8
0345
e27c
f39f
e88b
05a6
ff10
eefc
a68a
41fc
3758
25e2
5b5d
1f26
432f
1e89
7a0f
2356
83c1
1bf2
409d
cab4
5b6c
e220
3e48
51c9
6256
ed96
326b
ec87
3df5
4fef
4410
0c41
6659
b103
525a
eba0
3881
b7a5
a8fb
e30b
28e8
cf18
fc09
f9ca
a14b
44b4
528b
ceab
dac4
380a
b7dd
73be
325c
0793
abfb
fed6
3af1
8cbf
ac99
3be3
4bc9
9cea
7ab3
2576
9012
da24
8049
fd47
ea33
8d4f
7cce
03ed
46b3
a5ed
a5ec
393b
57d7
e83f
d1d9
8167
4933
7c49
ff3b
31b2
8405
5dc0
4a57
e5f1
9a61
fcde
6d9e
28ed
dbb2
2113
4904
dad6
770f
b78b
e9d2
99a5
66c7
17fe
a2a2
0882
4fcd
1ef1
1a46
aa2b
4518
a431
32c9
c3b1
12e8
385f
7329
f5ca
8426
ae9b
3d29
a167
1e65
87dc
dc85
dcdb
96a4
b4c0
f20e
87f8
1b57
70cc
3a9d
ca76
85e7
6e24
2fbc
747a
a421
fbbc
8414
e012
1545
3a07
5514
680e
c722
1645
41ac
724e
16f9
0751
fbad
8ba1
1c5a
852f
f80c
9670
53c1
1785
d8b2
87f5
afe9
295a
c9f6
3c04
4a8b
81f3
34ad
84f4
2e5b
e99a
d65a
c141
43d4
1db2
7f57
8a95
b92b
cab7
663f
1dfc
ebf7
ab8c
61bf
2f93
6ee8
39c1
a5ef
c964
417e
a270
770b
5da0
48eb
157d
b23b
a199
88f9
4bce
ee3b
140e
b4b4
c2d8
0971
b0f4
e362
701d
32dd
5703
8a22
0199
f155
d0d6
7f1c
6066
4e3f
f13f
5208
3b5b
cd68
e1c7
27c6
add6
47f9
20f4
e5cd
3ff4
9c4d
168f
5439
5bc8
a902
182e
a18d
2c5b
e72c
b193
448a
3fe7
cad1
0c99
cb48
edac
fe74
fc62
6db8
c19e
7191
fd9b
bd83
3097
de9d
25c4
d042
592d
7684
e3ac
d8b6
d8a9
7d7f
977f
e5fc
3186
86ee
64ce
b3b6
58f0
10d1
36c3
afc0
7048
c49e
ee83
9e86
5a6f
78b9
f40b
dde4
659f
c8e2
2cff
8e4c
858b
3156
ff31
20e7
1aa3
cb2c
10be
2c23
ae4d
747f
e1a0
5438
47ce
35a4
0779
fba0
e858
1fed
4951
6e68
452b
a21f
2348
223b
bcdb
cc0e
e987
1379
ada7
a5a4
dc67
624a
a12c
62f0
db7d
7d6d
a22b
6070
1187
717e
0db2
07e6
cfbd
cecc
0c49
30da
aebc
b0b0
04ed
36bf
ddc3
0d78
091e
d0da
82bc
0cb2
0c59
7932
f662
3f2c
e403
1252
afcd
cee8
2b7c
4b3f
787c
fd3a
5ad1
2c56
3f36
90f2
ae67
134b
8d48
424c
9ade
02cb
d8e7
f85e
cb86
bc6e
06c8
96d2
9698
e1fe
5484
88ae
ad37
54e7
33f8
a208
fac9
653f
80a7
aeff
b5a8
e860
ae05
a77d
31e5
b683
b47a
2291
77d1
abff
89fd
9f70
044c
b190
bec4
caa3
0f2c
d34f
76fb
80f4
8c09
e4c4
628d
bdc0
b7fb
ef07
5b76
0c31
9cbf
f64c
7b74
895e
8f4e
79fe
8fb7
c0eb
434d
2f0a
377f
6aaa
aed7
11ac
f52b
5852
5acf
622c
4e67
cf20
0c34
f18b
8271
07ec
8b52
f8e1
2b20
2248
3922
b45a
e40f
cec2
2dd0
3bdf
9516
b1d6
643b
f3d9
1089
a26b
d347
5311
9595
bff3
f1c6
3df9
e7a5
bd77
edf4
b5b1
d8d8
ec9c
6a03
1e35
69f8
be79
f9b9
825b
87cc
fcee
559f
1596
c77b
61c8
c2e3
edad
58cf
78f7
35af
9fce
eef0
d276
695a
3a04
0e69
5251
8dff
380e
c98c
148d
2df9
bfd2
7936
3b09
8830
db53
3092
db6e
4a21
1f95
e4b1
30fb
f9bd
e5ed
146b
fe12
98f2
1e2e
252c
196f
3585
3eea
4d7a
8714
da7f
0483
d69d
028e
efd4
45f1
97bf
da9c
53c2
f37c
289d
abc7
2ea6
b829
5e8d
f60f
f15b
8432
572e
8c9c
d714
f68a
e2af
37b3
a8ae
9eb2
95c0
9487
37e2
57f5
5a56
6f28
fbb7
9b3c
998c
26e9
027b
f4e7
a2ce
8b9d
0ca0
7eea
993f
9cfc
2191
13ad
e2c0
6ae8
0812
3b6d
85be
aff2
fd3d
7d0d
7d18
fc9a
61ff
e5ef
566a
bf6e
153c
9c9a
bfd9
f502
f4f7
a289
7df0
5858
7a77
8edc
6618
d4ab
68c7
27ee
9562
cfde
be27
9cfd
f693
e6b0
93f7
d3af
e70b
e9e4
99ec
0ef3
2a5b
ad6b
8034
9005
b3c6
10a9
65da
a62d
7bab
6b23
171f
857c
8999
a1d4
3424
0fd2
fe4b
c609
f4fc
82e7
79f6
daff
e567
1222
2ada
d3e8
a85a
10af
c0ac
51b9
64b6
33af
d377
5b46
da41
8fce
66be
f9c4
19ac
9a9d
0b16
8263
9028
beba
f3e2
4e15
6191
7154
58f6
c9c9
9aed
9b27
2f45
d033
25a5
f72f
f661
b76d
367a
e1dd
51ed
1098
2acc
6d60
af16
1c78
9386
b761
e18f
fccd
3ad2
da81
8f18
8240
9a79
06d8
d1ef
eb03
2eb4
a973
070e
465c
54af
78ee
6ba9
7be8
abea
f32c
c86e
8a67
25dc
f1f5
24fc
c487
ddcb
4ccf
7a64
f847
8535
71b7
24a1
9f9e
d7db
da16
e5df
e5b9
2b9d
60ff
8af6
707f
9c9e
f87a
f055
fa4b
1d4d
6eda
6694
18a4
0bc9
ad5c
da58
7a4f
1508
f69c
81ea
825d
dab1
6a9f
f5e7
41bf
bdd4
37fc
30f5
8e9d
5c6e
694d
6805
fbe1
7fc8
9a03
f042
7131
34d3
c27b
5164
a849
351b
cf70
de8c
fd37
c68b
d496
8bb0
e225
44ad
d4c7
72ea
4be1
7a6a
857f
e5f8
fe43
56ab
c30a
fbc9
65c3
5bfd
e8f9
bcd1
45f0
7ed9
6648
614a
943a
a459
fc57
399a
358a
5558
6aa5
8fda
d271
1224
0ef7
097c
4b34
7af7
7922
f5d5
c3f4
52ea
227c
8381
fdb2
a755
65a0
eae7
e5f3
08dc
2c0d
9cda
7bfc
6ceb
a992
42a6
a2e6
6bec
ee20
921f
7239
e3d5
fdb3
20b1
a574
ae6b
a26a
2587
3a3e
4b4a
9f3c
f5f9
b60c
64b8
82c5
7166
a712
e397
58b4
7f9d
3594
b6cf
0ce3
702a
056b
5413
3d49
b938
ecb9
be5b
3b27
32e5
c3e3
67a8
5de4
e572
6d4d
1970
5a8c
693a
5478
2387
6281
5eff
b5b4
821d
25b9
63f1
889d
88ad
d5aa
2c3f
bcf0
ce0d
ca5e
1466
fc3c
86fb
c0c7
c5a7
883c
da1f
e31c
82c2
e289
4ee9
3088
7d2b
f1ba
e3ec
8da7
2ee9
9eff
226d
8243
42fc
4b2b
7d4b
9734
ba9e
3dca
57ca
65b6
fa30
02db
7152
d7ed
6eaa
609e
b32f
25da
7e4f
e738
44ec
c7f1
38f2
6cee
fe92
3f62
f56e
e16b
1499
22db
b366
ea45
c74f
0949
3ddc
87bf
d240
1dab
35a2
f363
ab8f
f7bd
fe2b
1c10
7533
462b
41a8
71a7
7dc2
77fe
ac71
0e76
596a
8fe3
ed6c
3970
c9d8
fb37
f4d5
e378
d831
c52c
cb27
b61f
1b03
a990
5ea7
9a94
3916
dc33
83e5
08e3
e99d
ee36
a54e
cdc8
9b57
7e9f
6bbc
1839
255e
1659
6492
d47a
3572
fe5b
8b22
9840
3f49
1a88
9719
c9b5
3199
a1af
8282
07d4
d7b7
c85f
bfb8
cebc
da3e
fcb5
42f7
ebe3
abef
d5f4
ba2c
d007
87fb
c006
7315
833c
9c1a
91b5
adcf
1c59
1b2a
ed6a
61c2
c3cd
3d93
e854
2ee2
7f2a
46ec
684c
77dd
9985
9216
f25c
fc5a
6442
11a5
11b5
e4c0
79ac
7ca1
bf69
0196
a28e
4d0d
6847
e9b7
f477
a7e6
2b4c
4f8a
d175
3275
72ff
e758
20a8
5b9f
10bd
5a2a
18de
bda7
a7fc
8c6f
d827
755d
08f7
0d0f
79f7
86fe
fd96
2bfc
8fe7
acc3
1583
644d
7a7f
09e9
ece6
236f
4559
31da
decd
e5a9
9b64
4ff9
7c1d
80be
3dfd
8c55
8ca7
1ed6
8b93
ccff
c9c3
7a58
12c8
3094
8992
1e96
3a4b
d72f
314a
b40f
4291
a2fd
3fd3
f162
8b29
d048
0eea
5f37
85df
6b95
f0fa
49a4
9a81
5d1e
9227
0d37
2ffb
9f3a
03d7
2ed4
5214
8dbc
a9f8
9640
4f92
6b4d
83fb
c831
0ccd
aeef
e52f
9ad7
61ee
c79e
0ecf
5569
1bd7
38ba
d58e
a071
5268
3d2b
c4e9
1202
937d
dd86
7bac
9993
fd2e
e587
3fc9
cc28
da70
e4f4
4277
fda9
9328
8449
b516
c80a
8256
935d
6984
cbb2
922f
e3ee
995b
0b6e
f4e8
c70d
3d6d
df63
402e
3f0f
7933
c53c
d494
23e1
b772
ca10
fecc
186b
7a37
79bf
120a
42b9
92cf
d375
47fb
bcef
85d4
677f
230d
d379
47a1
052e
7b70
fc0f
e4e8
dbcd
68bf
9513
2118
91c9
3259
a3aa
7d93
afe0
e0d9
3491
dbf3
b9a8
8a06
3fda
dbde
57fa
4a69
cb6f
d037
d344
772c
9193
827d
fd9e
07fa
85ea
36a5
adc4
196b
3e62
2925
adb9
76ff
0da6
97ec
f6f5
419a
f121
2d86
3bc1
a8c6
4993
b566
3929
57bf
03cd
4129
5173
c37d
6583
3f92
4414
3492
3482
5761
8e19
b0bf
a1a1
2376
38ef
3591
1e27
dbb1
0edf
24de
cbf6
9c9f
5269
6d45
5845
3ff3
880c
bc78
41ab
17b2
8f7d
cac8
7086
baa8
5148
e424
a4cf
98f8
5f55
f56b
3589
6f3e
d612
239f
ce82
4aea
482e
074b
e34a
1ed0
ce3e
2142
a4f4
0fa4
ac5d
4e06
4199
a0ad
4fa6
fe84
7e3e
f12a
920a
0993
c097
db22
377d
917b
edb1
5856
79a0
901f
5a6c
1a4d
3df2
ad95
dd8d
2ccb
ae6d
a210
8a19
c9df
bdfe
7b6f
45fe
7502
ee07
06ad
627b
6de3
7fc4
8f57
bf9d
359b
f861
0d4c
1c18
d9fb
fe11
f07e
e4d3
82ed
5be6
7cec
fe63
cb28
584e
37dd
1619
b65d
f1f8
c3aa
f378
4b5d
3c6d
253f
caf0
ec4f
5246
f0ea
bea3
ae69
7716
dbdd
1683
6bfc
c982
e5f4
4adc
4926
0787
bc76
6fd9
780f
fa7c
e7bd
e9c7
b5a2
a5f2
5d26
257d
4fdf
e1a2
2104
e29a
f7d3
1aa6
3f9a
757a
e57b
17fb
5793
db8d
1c99
beb0
c19a
ad56
bfab
6a8c
7e0c
16b2
66bf
a1ef
d4f9
43f9
3fed
9f91
2932
2461
a47d
77e1
5dc7
db5c
b098
35ad
d71f
0596
f07d
9aa1
7a63
dd18
dd67
972c
bf8e
e6c8
5296
b79a
abce
0f98
050c
5a4c
08d0
447c
8281
6dad
78e6
c0a7
341d
3a4d
4694
8254
17d2
f827
7d7e
db3f
f6b3
7127
d28b
be20
9f0c
0386
41c6
a253
f059
ec5a
6c7e
68da
264d
86ae
1209
07f2
ff5a
495e
599e
9ab0
c579
fe4d
e6b9
a1d0
e451
e598
ff41
fc4b
86cd
cfe5
5936
ec72
9848
0e9e
c4fa
b8eb
ee51
9ff2
923f
a491
fdcd
dd54
f0c6
bd1c
480a
6fca
a0de
20ad
6698
d6ca
83e6
b969
a724
eedc
f620
b15c
7ecb
1d1a
9849
1796
d2cb
3cb6
dadc
034d
f635
b19f
12c9
edfe
7f93
1b68
4a85
5eb8
9e0b
de0c
fcb7
18a9
3fd1
ab1a
2f8a
69ca
140c
84d2
62cd
0d83
7e6f
777d
95bd
5f1f
1c3b
92df
2f02
bf4e
694b
1108
ae22
1a25
1b09
f319
fe8e
87f2
08a0
02d1
813c
a19f
35b1
4468
ec6c
9cce
a1ff
14a6
38ff
a788
4b9d
758e
cad5
d391
3df0
7b69
ca6f
bf79
f7d5
fe79
76d0
417a
f286
fbcb
4963
1f14
4a8c
edc9
35aa
6a29
76b6
f7f1
adcb
3e2f
3e3e
0611
f685
f197
f1c5
d11c
12a9
3859
4972
aea7
036a
4505
773f
b67f
72a0
879d
5367
d962
157b
deca
069f
17cf
bdb3
f7e7
bfe2
2826
1e95
1509
5e1e
9142
fb56
296f
55ac
9c2c
268f
92a3
3be9
4b9a
3953
5ccf
fab1
fe2a
3c6f
e5f0
b67b
4491
ad61
9a7f
faad
92a7
6908
749d
e6b4
47e2
98ff
fc04
9820
b51a
4290
6d93
78fd
a9f4
c554
3f1c
8975
999c
fdce
5a9b
4763
4c63
0271
62b4
67fd
de61
ab2e
4194
e38a
07ad
e9a4
5576
7060
ee2b
caf7
34ed
aa36
0b2f
3213
9cd0
b9ca
e8b7
2478
23a8
87d2
0598
9a43
f54b
dd44
e9db
36fe
d1a2
4cf1
55cb
6607
4158
345e
92ad
f3d6
0b86
716d
1d62
254f
15dc
ec0f
f1de
5d56
4b86
fbf4
7ead
a84a
e219
e1fa
b3be
77fd
7fe0
cc71
8564
4bb3
1ebd
655c
9ff3
c1c0
59ef
0b69
4b68
8e1a
8c4d
a2a0
7b86
9077
fa48
1aa7
fa7f
b175
18d2
4b52
c8f1
a0a6
7ec8
be84
0f22
dc6f
800b
1091
3ed4
136e
ad2f
3c7e
ca0f
a376
adae
dbd9
91c2
4374
37d7
69d9
c51c
d3e7
4b82
108b
d078
46df
913c
72e0
97fe
6959
49a3
3ef6
8a03
f52a
40a4
5953
deab
0e24
9567
5c3a
5ece
9b33
db30
c18f
92fa
fcae
5a76
ff65
7e4d
464a
0d94
3dae
dfe9
0959
7c73
8135
28e9
7a2f
1efb
4492
f38c
f7a9
7059
3d1f
5411
2949
face
f4bf
d7a3
1b32
bfb2
6813
db65
a361
37bf
06c9
d1f9
a4b7
2d95
2f55
c6b3
412f
fbc4
30d3
dcc7
5f6f
9f1c
79fd
a07c
9191
bcd2
b144
b3bc
701a
a945
03dc
ad59
7327
4527
da4a
d422
0dc4
0895
1b83
d0cd
7c31
8235
03f9
6153
b3c5
dd9e
f8a1
7af1
0cfc
4b70
4eea
8232
f2d3
0db6
3099
7d45
a247
b33e
23cc
83fd
7af3
b52b
35b8
db87
7f71
e815
383e
4311
677b
f4a2
b3c1
e7d4
5b16
6b35
74c5
09cf
5a65
4510
e2f8
20e2
4973
1c9e
772f
564d
e10f
83e9
cfa6
5992
29cd
5ff2
d6fb
b3a7
2cb3
5cd6
8cb3
7aee
3083
2e15
e73d
f23f
e648
f7ec
1b73
c971
de9b
fa61
9444
5f05
d530
da8c
c1c9
7ce6
9ee7
baf4
1e05
9ad8
c07b
739c
12b5
1bfe
aba2
f0f3
4af2
3827
b022
224c
8abe
31ff
b1d9
edf9
20cc
9e53
7ab6
b7d7
dab7
91b4
6356
0d71
4798
1a81
c36f
e989
41cd
f4e1
52fa
ae77
e5c1
4a63
b721
d99c
feaa
4593
d995
e89c
8ed6
7a0e
ec1f
b356
7db7
575c
9abd
8f48
900c
f87b
d6ad
b477
e30e
d23b
96df
1489
92c4
1f9d
4fd3
b99d
feb4
d565
cee5
52ae
e8ed
7f82
3f8c
6e0c
7ebc
fe09
569d
5179
07b2
679f
6e4c
fc19
b107
a7cb
5846
a0e0
44eb
ba93
6ff3
f6f2
56cf
41f6
95ff
fd6a
700c
4cde
df8f
f5f0
f17d
fd57
3de5
475e
9fe8
59af
f058
ea5f
6aec
5a27
aef0
f33c
d153
d39f
1923
3b78
9aaa
e94d
4189
c2f5
f3c7
f3de
e8f2
79f1
b315
92ba
f3e4
2b9a
09d5
390a
1142
2124
2141
afe6
2c52
e84b
bfdb
7481
424d
a533
764f
5618
c3e6
a256
830e
2dfc
acae
2b1c
1b6b
c360
7f69
04e2
dde0
1bc8
4f19
7aa9
36ce
8832
acbd
a220
3f05
95fc
ee88
711e
24c5
f7e2
bf6d
e038
9220
1126
cdc0
bcc7
1b19
216f
ad1d
7e63
c716
e681
82ff
0b72
e9aa
6b7a
a8bd
309d
6e9f
3fe2
bee7
3e2d
5969
0ebe
bc16
a954
3a1b
7e78
8808
eefa
4116
edc5
7702
cbfc
c053
da59
3d25
472c
7511
f47f
73e3
d307
10c4
fe6e
64f5
13b4
c7ad
3f71
d76a
3f85
148c
88cb
b8c8
5e9b
fe21
1b61
3c14
5ef8
cf30
e1f4
24db
bf5e
f04b
37dc
5eb7
fe78
f0dd
fad5
32ed
fd86
dbf7
8ccd
0c28
1e1c
550d
5779
46d2
e4f2
f4e0
a4a2
f703
70ce
ebbd
b527
a9fc
41ed
83ad
5e53
7316
94ec
847c
1331
7da7
67ac
1a2a
1e5e
de14
b6b5
c382
52bc
9876
0b3b
45fc
c8bc
fc7d
02f9
02b5
a645
2499
9b81
333e
0d90
d7e7
8e28
f849
ea13
5687
32b3
30b3
de93
f5a8
cbb3
5f22
941c
f224
8804
1186
fbe4
58fa
1fa4
3f91
fcc6
7423
e4e3
c3f6
facc
744c
7691
964a
81ab
7866
cbb8
5b62
a26e
d003
5a05
5987
a538
64f1
fbea
6340
a528
9b14
4adb
5dd7
bfdd
e97f
fb75
03fb
61f9
b4b1
c78b
9eb3
a76b
5223
3cba
f42b
6b36
ceed
d0c3
7091
1fb3
3f66
5868
7db5
bd37
e623
d158
83e7
dba8
af1c
c22c
2242
4c0c
bd81
f090
cae1
fc64
8238
16ca
417f
a2d7
18ee
dbea
fc6f
a36c
7fda
877e
a4a0
53bd
fd9c
c8eb
39d1
9fe7
fae6
9a4c
1a7d
3c9c
bd78
d490
42cf
d75c
f859
3eb4
fe24
78bf
9e99
e079
02bd
dfcb
29b4
1593
326f
ba67
05ba
e5fb
e642
c3cf
07e8
20bf
fcdd
ff19
5841
4ff0
4512
7310
8b4a
9bdf
eafa
a1f5
4b90
3ee8
323c
fe0c
24b0
52f7
5596
baa6
0544
0e40
6efa
d64d
a8a8
ff89
30af
b9ee
0f2f
3f2e
9ff1
16fa
c4be
c20e
b7af
aba0
4a34
7a0a
16a6
66c3
5625
4259
30a8
3577
97df
4673
e174
63e9
e781
37a7
dd15
b824
a160
3770
9a7c
dd8f
c107
92fc
5797
09e8
99bf
63d0
2f14
2e3e
c5fc
4188
411f
4119
e374
f3e5
4d67
2b23
2435
b290
f831
f8af
e8e9
4f7d
c981
f59b
c348
d74d
02c9
a1fc
627a
2bc5
988d
1090
cfcb
be53
8f2c
e42b
3256
72cf
ddfd
48a4
7858
ff32
1b76
7ae7
2ddc
4885
831e
d78e
362f
212a
6d9c
3dea
e7ed
134f
1eea
8377
efe7
f8ee
0c97
5b20
7d16
a96b
6a07
b6ac
dce0
f64a
760c
eb7d
3aa6
6a98
88de
bdbc
f0d7
f91f
7105
127d
5388
bf0d
5d3b
6afe
f648
c1ff
cde7
2993
c743
1f0f
b940
1486
4f76
6d22
3e27
3bde
4fbe
c314
8b0d
c07d
4a93
a324
9e1f
ba37
78b1
5ac0
ec66
e4c3
12c2
6d56
fea9
7c35
16ad
f6a7
a60f
f7e9
88fa
1b77
7adf
6381
fd5c
b9e4
3d2c
ab21
a248
81ac
d27c
30ce
fb67
12ce
cfe8
cfa0
9056
b953
bacf
434a
f74b
1918
d579
d6a3
78cf
4fa9
cca2
ae9d
8f24
234a
2fc5
4aaa
948a
92f6
7dcf
1cc8
8581
3e61
1418
3b7f
f8db
f8f5
30f0
1aee
7afa
f7ea
c0ab
0ea6
f5ab
e66e
bf60
8c7e
dcbf
c3b8
795c
2365
273b
6e14
912c
77f7
8891
9f6e
09bf
4b4c
5cdd
97d7
f657
918d
42b5
7bc3
5898
3fee
fca2
373b
d56f
cd67
e56f
d685
1876
10c7
1f5d
cae7
5528
6a34
972d
a78a
318e
d788
4bf8
15c6
e134
57b4
4a29
873d
cfd7
413f
d438
c2d4
c8f2
aa54
5536
0b8a
afdd
14a7
d47e
e3ef
3d9b
adfc
7b9e
5bbd
b8b8
9628
f3f5
47a6
fca7
bf82
ac97
6acd
e965
ae63
1fca
6a13
41fb
3dbd
0b5b
79c8
d9b3
d66a
7a95
563c
96a1
c6d3
d4c4
72ef
9829
2e1b
6ef7
658e
cc7d
d73e
e77e
d6fc
1132
4209
585d
f09f
3548
0fbc
2d85
d93f
5307
d881
1b3c
1d8f
88b0
9732
b678
230c
0b5c
5b14
09be
4f75
8078
76ca
e6e5
d3a9
3cf2
eead
e812
af1f
e542
4bd9
9c7c
f330
2f9b
98cf
fea8
826f
6939
de7c
f14e
53a8
23b9
9fd3
3a79
4804
8632
44a6
b781
30a7
fc87
26a3
f1bf
c49b
f7a4
5ab6
39fa
591e
6ebf
9875
8257
fc83
80fc
d06a
5ede
f57d
a112
4b71
1f1e
b16f
9563
a34b
153d
9f33
520c
8bc0
e02e
658c
f1cd
43c1
e3dc
4b0b
987e
b92c
4655
f6bf
2189
a30c
079f
6593
da9f
6bff
692b
d909
6dfe
e7a6
7c06
f5b6
8745
46de
2102
51b4
82be
97cf
987d
1c32
07dc
8607
f284
48d6
b955
9a86
ee6d
cf95
fc16
c7b3
8b03
c77e
dcfb
ffb9
b435
a30b
a009
fe2e
971d
869c
8492
c2ba
3d96
5fd2
a9a3
1862
ee5e
e956
29f2
a327
5412
64e5
0de8
2aea
beb3
ff15
7549
2875
a4ed
cb9d
01de
1428
f4a0
875c
a9e7
d9b2
5ecf
9f2b
6449
bfb5
dc49
fbe6
cfaa
4907
d735
efdc
f14a
320f
7c96
eb1c
17df
494c
5120
c393
37f5
67fc
0cc7
1465
5718
6f9a
897e
ca8d
e9b3
d5ab
c978
962a
815f
d173
5da2
6b7d
35b4
0c45
358b
7d3a
f71d
8525
284a
28df
3879
178a
d2cc
2dd1
bda1
a164
8514
56e0
64c9
f0c7
5a4b
8807
da75
619e
614d
519e
b7e9
0fc7
1ad1
affa
f23a
74cf
3427
d3b4
3bf0
1552
3f6a
fe4f
3605
618b
119f
6226
be59
703f
a76f
b5a5
a191
b2d8
ebe7
474b
354c
4f7b
a97b
ee87
e17d
f790
c8a8
0c92
70a5
5762
194f
b673
0c82
9a45
f7b9
c629
3293
62bf
1852
fb60
bf65
0e7f
c1f3
d29c
b9c0
c5c7
2ffd
cade
c622
57aa
285e
7e81
fac3
5662
9fa7
fa5d
822a
2e12
[...]
